{
  "version": "1.0",
  "truncation": null,
  "padding": null,
  "added_tokens": [
    {
      "id": 0,
      "content": "<PAD>",
      "single_word": false,
      "lstrip": false,
      "rstrip": false,
      "normalized": false,
      "special": true
    },
    {
      "id": 1,
      "content": "<BOS>",
      "single_word": false,
      "lstrip": false,
      "rstrip": false,
      "normalized": false,
      "special": true
    },
    {
      "id": 2,
      "content": "<EOS>",
      "single_word": false,
      "lstrip": false,
      "rstrip": false,
      "normalized": false,
      "special": true
    },
    {
      "id": 3,
      "content": "<UNK>",
      "single_word": false,
      "lstrip": false,
      "rstrip": false,
      "normalized": false,
      "special": true
    }
  ],
  "normalizer": null,
  "pre_tokenizer": {
    "type": "Split",
    "pattern": {
      "Regex": "\\s+|(?<=[a-z0-9])(?=[/\\-_])|(?<=[/\\-_])(?=[a-z0-9])"
    },
    "behavior": "Removed",
    "invert": false
  },
  "post_processor": {
    "type": "TemplateProcessing",
    "single": [
      {
        "SpecialToken": {
          "id": "<BOS>",
          "type_id": 0
        }
      },
      {
        "Sequence": {
          "id": "A",
          "type_id": 0
        }
      },
      {
        "SpecialToken": {
          "id": "<EOS>",
          "type_id": 0
        }
      }
    ],
    "pair": [
      {
        "Sequence": {
          "id": "A",
          "type_id": 0
        }
      },
      {
        "Sequence": {
          "id": "B",
          "type_id": 1
        }
      }
    ],
    "special_tokens": {
      "<BOS>": {
        "id": "<BOS>",
        "ids": [
          1
        ],
        "tokens": [
          "<BOS>"
        ]
      },
      "<EOS>": {
        "id": "<EOS>",
        "ids": [
          2
        ],
        "tokens": [
          "<EOS>"
        ]
      }
    }
  },
  "decoder": null,
  "model": {
    "type": "BPE",
    "dropout": null,
    "unk_token": "<UNK>",
    "continuing_subword_prefix": null,
    "end_of_word_suffix": null,
    "fuse_unk": false,
    "byte_fallback": false,
    "ignore_merges": false,
    "vocab": {
      "<PAD>": 0,
      "<BOS>": 1,
      "<EOS>": 2,
      "<UNK>": 3,
      "!": 4,
      "\"": 5,
      "#": 6,
      "$": 7,
      "%": 8,
      "&": 9,
      "'": 10,
      "(": 11,
      ")": 12,
      "*": 13,
      "+": 14,
      ",": 15,
      "-": 16,
      ".": 17,
      "/": 18,
      "0": 19,
      "1": 20,
      "2": 21,
      "3": 22,
      "4": 23,
      "5": 24,
      "6": 25,
      "7": 26,
      "8": 27,
      "9": 28,
      ":": 29,
      ";": 30,
      "<": 31,
      "=": 32,
      ">": 33,
      "?": 34,
      "@": 35,
      "[": 36,
      "\\": 37,
      "]": 38,
      "^": 39,
      "_": 40,
      "`": 41,
      "a": 42,
      "b": 43,
      "c": 44,
      "d": 45,
      "e": 46,
      "f": 47,
      "g": 48,
      "h": 49,
      "i": 50,
      "j": 51,
      "k": 52,
      "l": 53,
      "m": 54,
      "n": 55,
      "o": 56,
      "p": 57,
      "q": 58,
      "r": 59,
      "s": 60,
      "t": 61,
      "u": 62,
      "v": 63,
      "w": 64,
      "x": 65,
      "y": 66,
      "z": 67,
      "{": 68,
      "|": 69,
      "}": 70,
      "~": 71,
      "": 72,
      "": 73,
      "": 74,
      "": 75,
      "": 76,
      "": 77,
      "¢": 78,
      "«": 79,
      "¬": 80,
      "®": 81,
      "·": 82,
      "º": 83,
      "»": 84,
      "½": 85,
      "¿": 86,
      "ß": 87,
      "à": 88,
      "á": 89,
      "â": 90,
      "ã": 91,
      "ä": 92,
      "å": 93,
      "æ": 94,
      "ç": 95,
      "è": 96,
      "é": 97,
      "ê": 98,
      "ì": 99,
      "í": 100,
      "î": 101,
      "ï": 102,
      "ñ": 103,
      "ò": 104,
      "ó": 105,
      "ô": 106,
      "õ": 107,
      "ö": 108,
      "ù": 109,
      "ú": 110,
      "û": 111,
      "ü": 112,
      "ý": 113,
      "þ": 114,
      "ă": 115,
      "ą": 116,
      "ć": 117,
      "č": 118,
      "ď": 119,
      "ē": 120,
      "ę": 121,
      "ě": 122,
      "ł": 123,
      "ń": 124,
      "ň": 125,
      "œ": 126,
      "ř": 127,
      "ś": 128,
      "š": 129,
      "ť": 130,
      "ů": 131,
      "ź": 132,
      "ż": 133,
      "ž": 134,
      "ș": 135,
      "ț": 136,
      "ʸ": 137,
      "ˡ": 138,
      "ˢ": 139,
      "ά": 140,
      "έ": 141,
      "ή": 142,
      "ί": 143,
      "α": 144,
      "β": 145,
      "γ": 146,
      "δ": 147,
      "ε": 148,
      "ζ": 149,
      "η": 150,
      "θ": 151,
      "ι": 152,
      "κ": 153,
      "λ": 154,
      "μ": 155,
      "ν": 156,
      "ξ": 157,
      "ο": 158,
      "π": 159,
      "ρ": 160,
      "ς": 161,
      "σ": 162,
      "τ": 163,
      "υ": 164,
      "φ": 165,
      "χ": 166,
      "ψ": 167,
      "ω": 168,
      "ό": 169,
      "ύ": 170,
      "ώ": 171,
      "а": 172,
      "б": 173,
      "в": 174,
      "г": 175,
      "д": 176,
      "е": 177,
      "ж": 178,
      "з": 179,
      "и": 180,
      "й": 181,
      "к": 182,
      "л": 183,
      "м": 184,
      "н": 185,
      "о": 186,
      "п": 187,
      "р": 188,
      "с": 189,
      "т": 190,
      "у": 191,
      "ф": 192,
      "х": 193,
      "ц": 194,
      "ч": 195,
      "ш": 196,
      "щ": 197,
      "ъ": 198,
      "ы": 199,
      "ь": 200,
      "э": 201,
      "ю": 202,
      "я": 203,
      "ё": 204,
      "є": 205,
      "і": 206,
      "ї": 207,
      "ᨂ": 208,
      "ᨃ": 209,
      "ᨅ": 210,
      "ᨆ": 211,
      "ᨇ": 212,
      "ᨊ": 213,
      "ᨋ": 214,
      "ᨎ": 215,
      "ᨏ": 216,
      "ᴾ": 217,
      "ᵃ": 218,
      "ᵈ": 219,
      "ᵒ": 220,
      "ở": 221,
      "​": 222,
      "‐": 223,
      "‑": 224,
      "–": 225,
      "—": 226,
      "‘": 227,
      "’": 228,
      "“": 229,
      "”": 230,
      "•": 231,
      "…": 232,
      "ℊ": 233,
      "™": 234,
      "→": 235,
      "∈": 236,
      "≤": 237,
      "─": 238,
      "├": 239,
      "═": 240,
      "█": 241,
      "✔": 242,
      "、": 243,
      "。": 244,
      "々": 245,
      "「": 246,
      "」": 247,
      "あ": 248,
      "い": 249,
      "う": 250,
      "え": 251,
      "お": 252,
      "か": 253,
      "が": 254,
      "き": 255,
      "く": 256,
      "ぐ": 257,
      "け": 258,
      "げ": 259,
      "こ": 260,
      "ご": 261,
      "さ": 262,
      "ざ": 263,
      "し": 264,
      "じ": 265,
      "す": 266,
      "ず": 267,
      "せ": 268,
      "そ": 269,
      "ぞ": 270,
      "た": 271,
      "だ": 272,
      "ち": 273,
      "っ": 274,
      "つ": 275,
      "づ": 276,
      "て": 277,
      "で": 278,
      "と": 279,
      "ど": 280,
      "な": 281,
      "に": 282,
      "の": 283,
      "は": 284,
      "ば": 285,
      "ぱ": 286,
      "ひ": 287,
      "び": 288,
      "ぶ": 289,
      "へ": 290,
      "べ": 291,
      "ほ": 292,
      "ぼ": 293,
      "ま": 294,
      "み": 295,
      "む": 296,
      "め": 297,
      "も": 298,
      "や": 299,
      "ょ": 300,
      "よ": 301,
      "ら": 302,
      "り": 303,
      "る": 304,
      "れ": 305,
      "ろ": 306,
      "わ": 307,
      "を": 308,
      "ん": 309,
      "ァ": 310,
      "ア": 311,
      "ィ": 312,
      "イ": 313,
      "ゥ": 314,
      "ウ": 315,
      "ェ": 316,
      "エ": 317,
      "ォ": 318,
      "オ": 319,
      "カ": 320,
      "ガ": 321,
      "キ": 322,
      "ク": 323,
      "グ": 324,
      "ケ": 325,
      "コ": 326,
      "ゴ": 327,
      "サ": 328,
      "ザ": 329,
      "シ": 330,
      "ジ": 331,
      "ス": 332,
      "ズ": 333,
      "セ": 334,
      "ソ": 335,
      "タ": 336,
      "ダ": 337,
      "チ": 338,
      "ッ": 339,
      "ツ": 340,
      "テ": 341,
      "デ": 342,
      "ト": 343,
      "ド": 344,
      "ナ": 345,
      "ニ": 346,
      "ヌ": 347,
      "ネ": 348,
      "ハ": 349,
      "バ": 350,
      "パ": 351,
      "ヒ": 352,
      "ビ": 353,
      "ピ": 354,
      "フ": 355,
      "ブ": 356,
      "プ": 357,
      "ヘ": 358,
      "ベ": 359,
      "ペ": 360,
      "ホ": 361,
      "ボ": 362,
      "ポ": 363,
      "マ": 364,
      "ミ": 365,
      "ム": 366,
      "メ": 367,
      "モ": 368,
      "ャ": 369,
      "ュ": 370,
      "ユ": 371,
      "ョ": 372,
      "ラ": 373,
      "リ": 374,
      "ル": 375,
      "レ": 376,
      "ロ": 377,
      "ワ": 378,
      "ン": 379,
      "ー": 380,
      "一": 381,
      "万": 382,
      "三": 383,
      "上": 384,
      "下": 385,
      "不": 386,
      "与": 387,
      "且": 388,
      "东": 389,
      "両": 390,
      "两": 391,
      "严": 392,
      "並": 393,
      "个": 394,
      "中": 395,
      "串": 396,
      "丸": 397,
      "为": 398,
      "主": 399,
      "久": 400,
      "么": 401,
      "义": 402,
      "之": 403,
      "乎": 404,
      "乐": 405,
      "也": 406,
      "习": 407,
      "书": 408,
      "乱": 409,
      "了": 410,
      "予": 411,
      "事": 412,
      "二": 413,
      "于": 414,
      "互": 415,
      "些": 416,
      "交": 417,
      "享": 418,
      "亮": 419,
      "人": 420,
      "什": 421,
      "仅": 422,
      "介": 423,
      "从": 424,
      "仔": 425,
      "他": 426,
      "付": 427,
      "代": 428,
      "令": 429,
      "以": 430,
      "们": 431,
      "件": 432,
      "价": 433,
      "任": 434,
      "份": 435,
      "优": 436,
      "会": 437,
      "传": 438,
      "伺": 439,
      "似": 440,
      "但": 441,
      "位": 442,
      "低": 443,
      "住": 444,
      "体": 445,
      "何": 446,
      "余": 447,
      "作": 448,
      "你": 449,
      "佳": 450,
      "併": 451,
      "使": 452,
      "來": 453,
      "例": 454,
      "供": 455,
      "依": 456,
      "価": 457,
      "便": 458,
      "係": 459,
      "保": 460,
      "信": 461,
      "俩": 462,
      "修": 463,
      "倆": 464,
      "個": 465,
      "倍": 466,
      "們": 467,
      "候": 468,
      "借": 469,
      "値": 470,
      "值": 471,
      "假": 472,
      "偏": 473,
      "做": 474,
      "停": 475,
      "側": 476,
      "偵": 477,
      "偶": 478,
      "備": 479,
      "傳": 480,
      "僅": 481,
      "働": 482,
      "像": 483,
      "儘": 484,
      "優": 485,
      "儲": 486,
      "允": 487,
      "元": 488,
      "兄": 489,
      "充": 490,
      "先": 491,
      "光": 492,
      "免": 493,
      "入": 494,
      "內": 495,
      "全": 496,
      "兩": 497,
      "八": 498,
      "公": 499,
      "六": 500,
      "共": 501,
      "关": 502,
      "其": 503,
      "具": 504,
      "内": 505,
      "册": 506,
      "再": 507,
      "冗": 508,
      "写": 509,
      "决": 510,
      "况": 511,
      "准": 512,
      "减": 513,
      "几": 514,
      "処": 515,
      "出": 516,
      "函": 517,
      "刀": 518,
      "分": 519,
      "切": 520,
      "列": 521,
      "则": 522,
      "刚": 523,
      "创": 524,
      "初": 525,
      "删": 526,
      "判": 527,
      "別": 528,
      "利": 529,
      "刪": 530,
      "别": 531,
      "到": 532,
      "制": 533,
      "則": 534,
      "削": 535,
      "前": 536,
      "剛": 537,
      "剪": 538,
      "割": 539,
      "創": 540,
      "劇": 541,
      "力": 542,
      "办": 543,
      "功": 544,
      "加": 545,
      "务": 546,
      "动": 547,
      "助": 548,
      "効": 549,
      "動": 550,
      "務": 551,
      "勾": 552,
      "包": 553,
      "化": 554,
      "匹": 555,
      "区": 556,
      "區": 557,
      "十": 558,
      "升": 559,
      "半": 560,
      "協": 561,
      "单": 562,
      "単": 563,
      "占": 564,
      "卡": 565,
      "印": 566,
      "却": 567,
      "卻": 568,
      "历": 569,
      "压": 570,
      "原": 571,
      "厳": 572,
      "去": 573,
      "参": 574,
      "參": 575,
      "及": 576,
      "収": 577,
      "发": 578,
      "取": 579,
      "受": 580,
      "变": 581,
      "口": 582,
      "古": 583,
      "句": 584,
      "另": 585,
      "只": 586,
      "可": 587,
      "台": 588,
      "史": 589,
      "右": 590,
      "号": 591,
      "各": 592,
      "合": 593,
      "同": 594,
      "名": 595,
      "后": 596,
      "向": 597,
      "否": 598,
      "含": 599,
      "启": 600,
      "味": 601,
      "命": 602,
      "和": 603,
      "品": 604,
      "响": 605,
      "員": 606,
      "哪": 607,
      "問": 608,
      "啟": 609,
      "善": 610,
      "單": 611,
      "嘊": 612,
      "嘍": 613,
      "嘼": 614,
      "嘾": 615,
      "器": 616,
      "嚴": 617,
      "回": 618,
      "因": 619,
      "囲": 620,
      "図": 621,
      "固": 622,
      "国": 623,
      "圈": 624,
      "國": 625,
      "土": 626,
      "圧": 627,
      "在": 628,
      "地": 629,
      "场": 630,
      "均": 631,
      "块": 632,
      "型": 633,
      "域": 634,
      "埠": 635,
      "執": 636,
      "基": 637,
      "堆": 638,
      "報": 639,
      "場": 640,
      "塊": 641,
      "境": 642,
      "增": 643,
      "壓": 644,
      "处": 645,
      "备": 646,
      "変": 647,
      "复": 648,
      "外": 649,
      "多": 650,
      "够": 651,
      "夠": 652,
      "大": 653,
      "天": 654,
      "失": 655,
      "头": 656,
      "夹": 657,
      "夾": 658,
      "套": 659,
      "好": 660,
      "如": 661,
      "妙": 662,
      "妨": 663,
      "始": 664,
      "威": 665,
      "媲": 666,
      "子": 667,
      "字": 668,
      "存": 669,
      "学": 670,
      "學": 671,
      "它": 672,
      "安": 673,
      "完": 674,
      "官": 675,
      "定": 676,
      "实": 677,
      "実": 678,
      "容": 679,
      "宽": 680,
      "密": 681,
      "實": 682,
      "寫": 683,
      "寬": 684,
      "寶": 685,
      "对": 686,
      "対": 687,
      "専": 688,
      "将": 689,
      "將": 690,
      "尋": 691,
      "對": 692,
      "小": 693,
      "少": 694,
      "尔": 695,
      "尤": 696,
      "就": 697,
      "尽": 698,
      "尾": 699,
      "层": 700,
      "屏": 701,
      "展": 702,
      "属": 703,
      "層": 704,
      "履": 705,
      "崩": 706,
      "工": 707,
      "左": 708,
      "巧": 709,
      "差": 710,
      "己": 711,
      "已": 712,
      "带": 713,
      "帮": 714,
      "帯": 715,
      "帰": 716,
      "常": 717,
      "幅": 718,
      "幕": 719,
      "幫": 720,
      "平": 721,
      "并": 722,
      "幾": 723,
      "广": 724,
      "広": 725,
      "序": 726,
      "库": 727,
      "应": 728,
      "底": 729,
      "度": 730,
      "廣": 731,
      "建": 732,
      "开": 733,
      "式": 734,
      "引": 735,
      "弟": 736,
      "弧": 737,
      "強": 738,
      "强": 739,
      "归": 740,
      "当": 741,
      "录": 742,
      "形": 743,
      "影": 744,
      "役": 745,
      "往": 746,
      "径": 747,
      "待": 748,
      "很": 749,
      "後": 750,
      "徑": 751,
      "得": 752,
      "從": 753,
      "御": 754,
      "復": 755,
      "循": 756,
      "微": 757,
      "心": 758,
      "必": 759,
      "志": 760,
      "忘": 761,
      "応": 762,
      "快": 763,
      "忽": 764,
      "态": 765,
      "怕": 766,
      "思": 767,
      "性": 768,
      "怪": 769,
      "总": 770,
      "恢": 771,
      "息": 772,
      "悉": 773,
      "您": 774,
      "情": 775,
      "惊": 776,
      "惯": 777,
      "想": 778,
      "意": 779,
      "感": 780,
      "態": 781,
      "慣": 782,
      "慮": 783,
      "憶": 784,
      "應": 785,
      "成": 786,
      "我": 787,
      "或": 788,
      "截": 789,
      "户": 790,
      "所": 791,
      "手": 792,
      "才": 793,
      "打": 794,
      "执": 795,
      "扩": 796,
      "扯": 797,
      "扱": 798,
      "批": 799,
      "找": 800,
      "技": 801,
      "把": 802,
      "抓": 803,
      "択": 804,
      "护": 805,
      "押": 806,
      "抽": 807,
      "拆": 808,
      "拖": 809,
      "择": 810,
      "括": 811,
      "拷": 812,
      "持": 813,
      "挂": 814,
      "指": 815,
      "按": 816,
      "挙": 817,
      "振": 818,
      "挿": 819,
      "捆": 820,
      "捗": 821,
      "换": 822,
      "据": 823,
      "捷": 824,
      "掉": 825,
      "掌": 826,
      "排": 827,
      "掛": 828,
      "探": 829,
      "接": 830,
      "控": 831,
      "描": 832,
      "提": 833,
      "換": 834,
      "握": 835,
      "援": 836,
      "損": 837,
      "搜": 838,
      "摘": 839,
      "擇": 840,
      "擊": 841,
      "操": 842,
      "擎": 843,
      "據": 844,
      "擬": 845,
      "擴": 846,
      "支": 847,
      "改": 848,
      "攻": 849,
      "放": 850,
      "故": 851,
      "效": 852,
      "敏": 853,
      "敗": 854,
      "数": 855,
      "整": 856,
      "敵": 857,
      "數": 858,
      "文": 859,
      "料": 860,
      "断": 861,
      "新": 862,
      "斷": 863,
      "方": 864,
      "於": 865,
      "无": 866,
      "日": 867,
      "早": 868,
      "时": 869,
      "明": 870,
      "易": 871,
      "是": 872,
      "显": 873,
      "時": 874,
      "景": 875,
      "智": 876,
      "暗": 877,
      "暴": 878,
      "更": 879,
      "書": 880,
      "替": 881,
      "最": 882,
      "會": 883,
      "有": 884,
      "服": 885,
      "期": 886,
      "未": 887,
      "末": 888,
      "本": 889,
      "机": 890,
      "杂": 891,
      "权": 892,
      "束": 893,
      "条": 894,
      "来": 895,
      "東": 896,
      "松": 897,
      "板": 898,
      "析": 899,
      "果": 900,
      "枝": 901,
      "柄": 902,
      "某": 903,
      "查": 904,
      "査": 905,
      "标": 906,
      "栈": 907,
      "树": 908,
      "样": 909,
      "核": 910,
      "根": 911,
      "格": 912,
      "案": 913,
      "桌": 914,
      "档": 915,
      "條": 916,
      "检": 917,
      "棘": 918,
      "棧": 919,
      "検": 920,
      "業": 921,
      "概": 922,
      "様": 923,
      "樂": 924,
      "標": 925,
      "模": 926,
      "樣": 927,
      "権": 928,
      "横": 929,
      "樹": 930,
      "機": 931,
      "檔": 932,
      "檢": 933,
      "權": 934,
      "欠": 935,
      "次": 936,
      "欢": 937,
      "歡": 938,
      "止": 939,
      "正": 940,
      "此": 941,
      "步": 942,
      "歴": 943,
      "歷": 944,
      "残": 945,
      "段": 946,
      "毎": 947,
      "每": 948,
      "比": 949,
      "毕": 950,
      "毫": 951,
      "気": 952,
      "永": 953,
      "求": 954,
      "決": 955,
      "汽": 956,
      "沒": 957,
      "没": 958,
      "況": 959,
      "法": 960,
      "注": 961,
      "洁": 962,
      "洗": 963,
      "洞": 964,
      "活": 965,
      "流": 966,
      "测": 967,
      "浏": 968,
      "消": 969,
      "涉": 970,
      "深": 971,
      "添": 972,
      "清": 973,
      "済": 974,
      "減": 975,
      "測": 976,
      "溃": 977,
      "源": 978,
      "準": 979,
      "滿": 980,
      "漏": 981,
      "演": 982,
      "潔": 983,
      "潮": 984,
      "潰": 985,
      "火": 986,
      "灵": 987,
      "炫": 988,
      "点": 989,
      "為": 990,
      "無": 991,
      "然": 992,
      "照": 993,
      "熟": 994,
      "爾": 995,
      "片": 996,
      "版": 997,
      "牵": 998,
      "特": 999,
      "牽": 1000,
      "状": 1001,
      "狀": 1002,
      "獲": 1003,
      "率": 1004,
      "环": 1005,
      "现": 1006,
      "現": 1007,
      "理": 1008,
      "環": 1009,
      "甚": 1010,
      "生": 1011,
      "用": 1012,
      "由": 1013,
      "电": 1014,
      "画": 1015,
      "界": 1016,
      "留": 1017,
      "略": 1018,
      "番": 1019,
      "異": 1020,
      "當": 1021,
      "疏": 1022,
      "登": 1023,
      "發": 1024,
      "白": 1025,
      "的": 1026,
      "益": 1027,
      "监": 1028,
      "盖": 1029,
      "盘": 1030,
      "盡": 1031,
      "監": 1032,
      "盤": 1033,
      "目": 1034,
      "直": 1035,
      "相": 1036,
      "省": 1037,
      "看": 1038,
      "真": 1039,
      "着": 1040,
      "瞭": 1041,
      "知": 1042,
      "码": 1043,
      "研": 1044,
      "础": 1045,
      "硬": 1046,
      "确": 1047,
      "碟": 1048,
      "確": 1049,
      "碼": 1050,
      "磁": 1051,
      "礎": 1052,
      "示": 1053,
      "神": 1054,
      "种": 1055,
      "科": 1056,
      "移": 1057,
      "稀": 1058,
      "程": 1059,
      "種": 1060,
      "稼": 1061,
      "究": 1062,
      "空": 1063,
      "窗": 1064,
      "立": 1065,
      "竟": 1066,
      "章": 1067,
      "端": 1068,
      "符": 1069,
      "第": 1070,
      "等": 1071,
      "签": 1072,
      "简": 1073,
      "算": 1074,
      "管": 1075,
      "節": 1076,
      "範": 1077,
      "篇": 1078,
      "簡": 1079,
      "簽": 1080,
      "簿": 1081,
      "籍": 1082,
      "类": 1083,
      "粗": 1084,
      "粘": 1085,
      "系": 1086,
      "約": 1087,
      "純": 1088,
      "級": 1089,
      "素": 1090,
      "索": 1091,
      "細": 1092,
      "紹": 1093,
      "終": 1094,
      "組": 1095,
      "経": 1096,
      "結": 1097,
      "給": 1098,
      "統": 1099,
      "經": 1100,
      "継": 1101,
      "続": 1102,
      "網": 1103,
      "線": 1104,
      "編": 1105,
      "練": 1106,
      "縮": 1107,
      "總": 1108,
      "織": 1109,
      "繰": 1110,
      "繼": 1111,
      "續": 1112,
      "约": 1113,
      "级": 1114,
      "组": 1115,
      "细": 1116,
      "终": 1117,
      "绍": 1118,
      "经": 1119,
      "绑": 1120,
      "结": 1121,
      "给": 1122,
      "络": 1123,
      "统": 1124,
      "继": 1125,
      "续": 1126,
      "缀": 1127,
      "缓": 1128,
      "编": 1129,
      "缩": 1130,
      "缺": 1131,
      "网": 1132,
      "置": 1133,
      "署": 1134,
      "美": 1135,
      "義": 1136,
      "習": 1137,
      "翼": 1138,
      "老": 1139,
      "考": 1140,
      "者": 1141,
      "而": 1142,
      "耳": 1143,
      "聞": 1144,
      "聰": 1145,
      "能": 1146,
      "脑": 1147,
      "脚": 1148,
      "脱": 1149,
      "腳": 1150,
      "臨": 1151,
      "自": 1152,
      "至": 1153,
      "致": 1154,
      "臺": 1155,
      "與": 1156,
      "興": 1157,
      "舞": 1158,
      "般": 1159,
      "良": 1160,
      "色": 1161,
      "节": 1162,
      "若": 1163,
      "英": 1164,
      "莫": 1165,
      "获": 1166,
      "著": 1167,
      "蒸": 1168,
      "蓋": 1169,
      "虑": 1170,
      "處": 1171,
      "號": 1172,
      "螢": 1173,
      "行": 1174,
      "術": 1175,
      "表": 1176,
      "被": 1177,
      "装": 1178,
      "補": 1179,
      "裝": 1180,
      "裡": 1181,
      "裨": 1182,
      "製": 1183,
      "複": 1184,
      "西": 1185,
      "要": 1186,
      "覆": 1187,
      "見": 1188,
      "規": 1189,
      "視": 1190,
      "覚": 1191,
      "覧": 1192,
      "親": 1193,
      "覽": 1194,
      "视": 1195,
      "览": 1196,
      "解": 1197,
      "触": 1198,
      "觸": 1199,
      "言": 1200,
      "計": 1201,
      "訊": 1202,
      "討": 1203,
      "記": 1204,
      "訪": 1205,
      "設": 1206,
      "許": 1207,
      "訳": 1208,
      "註": 1209,
      "評": 1210,
      "詞": 1211,
      "詢": 1212,
      "試": 1213,
      "話": 1214,
      "該": 1215,
      "詳": 1216,
      "誌": 1217,
      "認": 1218,
      "語": 1219,
      "誤": 1220,
      "說": 1221,
      "読": 1222,
      "調": 1223,
      "請": 1224,
      "論": 1225,
      "謹": 1226,
      "證": 1227,
      "識": 1228,
      "議": 1229,
      "讀": 1230,
      "變": 1231,
      "讓": 1232,
      "计": 1233,
      "认": 1234,
      "让": 1235,
      "记": 1236,
      "许": 1237,
      "论": 1238,
      "设": 1239,
      "访": 1240,
      "证": 1241,
      "识": 1242,
      "词": 1243,
      "试": 1244,
      "话": 1245,
      "该": 1246,
      "详": 1247,
      "语": 1248,
      "误": 1249,
      "请": 1250,
      "读": 1251,
      "调": 1252,
      "貼": 1253,
      "資": 1254,
      "賦": 1255,
      "質": 1256,
      "贝": 1257,
      "负": 1258,
      "败": 1259,
      "贴": 1260,
      "赋": 1261,
      "赖": 1262,
      "起": 1263,
      "趣": 1264,
      "足": 1265,
      "跟": 1266,
      "跡": 1267,
      "跨": 1268,
      "路": 1269,
      "蹤": 1270,
      "身": 1271,
      "車": 1272,
      "軌": 1273,
      "軟": 1274,
      "転": 1275,
      "軽": 1276,
      "較": 1277,
      "輕": 1278,
      "輯": 1279,
      "輸": 1280,
      "轉": 1281,
      "车": 1282,
      "轨": 1283,
      "转": 1284,
      "软": 1285,
      "轻": 1286,
      "载": 1287,
      "较": 1288,
      "辑": 1289,
      "输": 1290,
      "込": 1291,
      "达": 1292,
      "过": 1293,
      "运": 1294,
      "近": 1295,
      "返": 1296,
      "还": 1297,
      "这": 1298,
      "进": 1299,
      "远": 1300,
      "连": 1301,
      "述": 1302,
      "迴": 1303,
      "迹": 1304,
      "追": 1305,
      "退": 1306,
      "送": 1307,
      "适": 1308,
      "逆": 1309,
      "选": 1310,
      "透": 1311,
      "递": 1312,
      "途": 1313,
      "這": 1314,
      "通": 1315,
      "速": 1316,
      "造": 1317,
      "連": 1318,
      "週": 1319,
      "進": 1320,
      "運": 1321,
      "遍": 1322,
      "過": 1323,
      "道": 1324,
      "違": 1325,
      "遗": 1326,
      "遞": 1327,
      "遠": 1328,
      "適": 1329,
      "選": 1330,
      "避": 1331,
      "那": 1332,
      "部": 1333,
      "都": 1334,
      "配": 1335,
      "酷": 1336,
      "释": 1337,
      "釋": 1338,
      "里": 1339,
      "重": 1340,
      "量": 1341,
      "針": 1342,
      "錄": 1343,
      "錯": 1344,
      "録": 1345,
      "鍵": 1346,
      "链": 1347,
      "错": 1348,
      "键": 1349,
      "長": 1350,
      "长": 1351,
      "閉": 1352,
      "開": 1353,
      "閒": 1354,
      "間": 1355,
      "関": 1356,
      "閱": 1357,
      "關": 1358,
      "闭": 1359,
      "问": 1360,
      "闲": 1361,
      "间": 1362,
      "闻": 1363,
      "阅": 1364,
      "防": 1365,
      "附": 1366,
      "际": 1367,
      "降": 1368,
      "限": 1369,
      "除": 1370,
      "階": 1371,
      "随": 1372,
      "隔": 1373,
      "際": 1374,
      "障": 1375,
      "隧": 1376,
      "隨": 1377,
      "雅": 1378,
      "集": 1379,
      "雑": 1380,
      "雜": 1381,
      "需": 1382,
      "靈": 1383,
      "靜": 1384,
      "非": 1385,
      "面": 1386,
      "音": 1387,
      "響": 1388,
      "頁": 1389,
      "項": 1390,
      "順": 1391,
      "須": 1392,
      "預": 1393,
      "頭": 1394,
      "頻": 1395,
      "頼": 1396,
      "題": 1397,
      "額": 1398,
      "類": 1399,
      "顯": 1400,
      "页": 1401,
      "项": 1402,
      "顺": 1403,
      "预": 1404,
      "题": 1405,
      "额": 1406,
      "風": 1407,
      "风": 1408,
      "首": 1409,
      "験": 1410,
      "驅": 1411,
      "驗": 1412,
      "驱": 1413,
      "验": 1414,
      "體": 1415,
      "高": 1416,
      "鬆": 1417,
      "麼": 1418,
      "默": 1419,
      "黙": 1420,
      "齐": 1421,
      "가": 1422,
      "각": 1423,
      "간": 1424,
      "갈": 1425,
      "감": 1426,
      "값": 1427,
      "강": 1428,
      "같": 1429,
      "개": 1430,
      "거": 1431,
      "걸": 1432,
      "검": 1433,
      "겁": 1434,
      "것": 1435,
      "게": 1436,
      "겠": 1437,
      "겨": 1438,
      "격": 1439,
      "결": 1440,
      "경": 1441,
      "계": 1442,
      "고": 1443,
      "곳": 1444,
      "공": 1445,
      "과": 1446,
      "관": 1447,
      "괄": 1448,
      "교": 1449,
      "구": 1450,
      "권": 1451,
      "규": 1452,
      "그": 1453,
      "근": 1454,
      "글": 1455,
      "금": 1456,
      "급": 1457,
      "기": 1458,
      "길": 1459,
      "김": 1460,
      "깅": 1461,
      "깊": 1462,
      "까": 1463,
      "깨": 1464,
      "께": 1465,
      "꾸": 1466,
      "꿀": 1467,
      "뀌": 1468,
      "뀔": 1469,
      "끔": 1470,
      "끗": 1471,
      "끝": 1472,
      "끼": 1473,
      "나": 1474,
      "난": 1475,
      "날": 1476,
      "남": 1477,
      "납": 1478,
      "낫": 1479,
      "났": 1480,
      "내": 1481,
      "낼": 1482,
      "냅": 1483,
      "너": 1484,
      "널": 1485,
      "넓": 1486,
      "넣": 1487,
      "네": 1488,
      "노": 1489,
      "논": 1490,
      "누": 1491,
      "눅": 1492,
      "눔": 1493,
      "뉴": 1494,
      "느": 1495,
      "는": 1496,
      "능": 1497,
      "니": 1498,
      "닉": 1499,
      "닝": 1500,
      "다": 1501,
      "단": 1502,
      "닫": 1503,
      "달": 1504,
      "당": 1505,
      "대": 1506,
      "더": 1507,
      "던": 1508,
      "덤": 1509,
      "덧": 1510,
      "데": 1511,
      "덱": 1512,
      "도": 1513,
      "돌": 1514,
      "동": 1515,
      "되": 1516,
      "된": 1517,
      "될": 1518,
      "됨": 1519,
      "됩": 1520,
      "두": 1521,
      "둘": 1522,
      "뒤": 1523,
      "듈": 1524,
      "드": 1525,
      "득": 1526,
      "든": 1527,
      "들": 1528,
      "듭": 1529,
      "듯": 1530,
      "등": 1531,
      "디": 1532,
      "딩": 1533,
      "따": 1534,
      "딸": 1535,
      "때": 1536,
      "떠": 1537,
      "떤": 1538,
      "떨": 1539,
      "떻": 1540,
      "떼": 1541,
      "또": 1542,
      "뜨": 1543,
      "뜻": 1544,
      "라": 1545,
      "람": 1546,
      "랑": 1547,
      "래": 1548,
      "랙": 1549,
      "랜": 1550,
      "램": 1551,
      "랫": 1552,
      "략": 1553,
      "량": 1554,
      "러": 1555,
      "런": 1556,
      "럼": 1557,
      "렇": 1558,
      "레": 1559,
      "렉": 1560,
      "렌": 1561,
      "려": 1562,
      "력": 1563,
      "련": 1564,
      "렬": 1565,
      "렵": 1566,
      "령": 1567,
      "례": 1568,
      "로": 1569,
      "록": 1570,
      "론": 1571,
      "롭": 1572,
      "료": 1573,
      "루": 1574,
      "룩": 1575,
      "룰": 1576,
      "룹": 1577,
      "뤄": 1578,
      "류": 1579,
      "륭": 1580,
      "르": 1581,
      "른": 1582,
      "를": 1583,
      "름": 1584,
      "릅": 1585,
      "리": 1586,
      "릭": 1587,
      "린": 1588,
      "릴": 1589,
      "립": 1590,
      "링": 1591,
      "마": 1592,
      "막": 1593,
      "만": 1594,
      "많": 1595,
      "말": 1596,
      "망": 1597,
      "맞": 1598,
      "매": 1599,
      "맨": 1600,
      "먼": 1601,
      "메": 1602,
      "멘": 1603,
      "며": 1604,
      "면": 1605,
      "명": 1606,
      "몇": 1607,
      "모": 1608,
      "목": 1609,
      "못": 1610,
      "묘": 1611,
      "무": 1612,
      "문": 1613,
      "물": 1614,
      "므": 1615,
      "미": 1616,
      "믿": 1617,
      "밀": 1618,
      "및": 1619,
      "밑": 1620,
      "바": 1621,
      "밖": 1622,
      "반": 1623,
      "받": 1624,
      "발": 1625,
      "방": 1626,
      "배": 1627,
      "백": 1628,
      "버": 1629,
      "번": 1630,
      "법": 1631,
      "벤": 1632,
      "벨": 1633,
      "변": 1634,
      "별": 1635,
      "병": 1636,
      "보": 1637,
      "복": 1638,
      "본": 1639,
      "볼": 1640,
      "부": 1641,
      "북": 1642,
      "분": 1643,
      "불": 1644,
      "붙": 1645,
      "브": 1646,
      "블": 1647,
      "비": 1648,
      "빌": 1649,
      "빠": 1650,
      "사": 1651,
      "삭": 1652,
      "산": 1653,
      "살": 1654,
      "삽": 1655,
      "상": 1656,
      "새": 1657,
      "색": 1658,
      "생": 1659,
      "서": 1660,
      "석": 1661,
      "섞": 1662,
      "선": 1663,
      "설": 1664,
      "성": 1665,
      "세": 1666,
      "섹": 1667,
      "센": 1668,
      "션": 1669,
      "셸": 1670,
      "소": 1671,
      "속": 1672,
      "송": 1673,
      "숏": 1674,
      "수": 1675,
      "숙": 1676,
      "순": 1677,
      "술": 1678,
      "숫": 1679,
      "쉘": 1680,
      "쉬": 1681,
      "쉽": 1682,
      "슈": 1683,
      "스": 1684,
      "슨": 1685,
      "슬": 1686,
      "습": 1687,
      "슷": 1688,
      "시": 1689,
      "식": 1690,
      "신": 1691,
      "실": 1692,
      "심": 1693,
      "십": 1694,
      "싱": 1695,
      "싶": 1696,
      "싸": 1697,
      "쌍": 1698,
      "써": 1699,
      "썬": 1700,
      "쓰": 1701,
      "아": 1702,
      "악": 1703,
      "안": 1704,
      "않": 1705,
      "알": 1706,
      "암": 1707,
      "압": 1708,
      "았": 1709,
      "애": 1710,
      "야": 1711,
      "약": 1712,
      "양": 1713,
      "얘": 1714,
      "어": 1715,
      "억": 1716,
      "언": 1717,
      "얻": 1718,
      "얼": 1719,
      "업": 1720,
      "없": 1721,
      "엇": 1722,
      "었": 1723,
      "엉": 1724,
      "에": 1725,
      "엔": 1726,
      "여": 1727,
      "역": 1728,
      "연": 1729,
      "열": 1730,
      "엽": 1731,
      "였": 1732,
      "영": 1733,
      "예": 1734,
      "오": 1735,
      "온": 1736,
      "올": 1737,
      "옮": 1738,
      "옴": 1739,
      "옵": 1740,
      "와": 1741,
      "왜": 1742,
      "외": 1743,
      "요": 1744,
      "용": 1745,
      "우": 1746,
      "운": 1747,
      "울": 1748,
      "움": 1749,
      "웁": 1750,
      "워": 1751,
      "원": 1752,
      "웨": 1753,
      "웹": 1754,
      "위": 1755,
      "유": 1756,
      "율": 1757,
      "으": 1758,
      "은": 1759,
      "을": 1760,
      "음": 1761,
      "응": 1762,
      "의": 1763,
      "이": 1764,
      "익": 1765,
      "인": 1766,
      "일": 1767,
      "읽": 1768,
      "임": 1769,
      "입": 1770,
      "있": 1771,
      "잊": 1772,
      "자": 1773,
      "작": 1774,
      "잘": 1775,
      "잡": 1776,
      "장": 1777,
      "재": 1778,
      "잽": 1779,
      "저": 1780,
      "적": 1781,
      "전": 1782,
      "절": 1783,
      "점": 1784,
      "접": 1785,
      "정": 1786,
      "제": 1787,
      "젝": 1788,
      "져": 1789,
      "졌": 1790,
      "조": 1791,
      "존": 1792,
      "좀": 1793,
      "종": 1794,
      "좋": 1795,
      "죠": 1796,
      "주": 1797,
      "준": 1798,
      "줄": 1799,
      "줍": 1800,
      "중": 1801,
      "즈": 1802,
      "즘": 1803,
      "증": 1804,
      "지": 1805,
      "직": 1806,
      "진": 1807,
      "질": 1808,
      "집": 1809,
      "짜": 1810,
      "째": 1811,
      "쪼": 1812,
      "쪽": 1813,
      "차": 1814,
      "찰": 1815,
      "참": 1816,
      "창": 1817,
      "찾": 1818,
      "처": 1819,
      "첫": 1820,
      "청": 1821,
      "체": 1822,
      "쳐": 1823,
      "초": 1824,
      "최": 1825,
      "추": 1826,
      "축": 1827,
      "출": 1828,
      "충": 1829,
      "취": 1830,
      "츄": 1831,
      "층": 1832,
      "치": 1833,
      "친": 1834,
      "칠": 1835,
      "칭": 1836,
      "카": 1837,
      "커": 1838,
      "컬": 1839,
      "컴": 1840,
      "컷": 1841,
      "케": 1842,
      "켓": 1843,
      "코": 1844,
      "크": 1845,
      "큰": 1846,
      "클": 1847,
      "큼": 1848,
      "키": 1849,
      "킷": 1850,
      "킹": 1851,
      "타": 1852,
      "태": 1853,
      "택": 1854,
      "탭": 1855,
      "터": 1856,
      "턴": 1857,
      "테": 1858,
      "텍": 1859,
      "템": 1860,
      "토": 1861,
      "톱": 1862,
      "통": 1863,
      "툴": 1864,
      "트": 1865,
      "특": 1866,
      "티": 1867,
      "틴": 1868,
      "팁": 1869,
      "팅": 1870,
      "파": 1871,
      "판": 1872,
      "패": 1873,
      "퍼": 1874,
      "페": 1875,
      "펴": 1876,
      "편": 1877,
      "포": 1878,
      "폭": 1879,
      "폴": 1880,
      "폼": 1881,
      "표": 1882,
      "풍": 1883,
      "퓨": 1884,
      "프": 1885,
      "플": 1886,
      "피": 1887,
      "픽": 1888,
      "필": 1889,
      "핑": 1890,
      "하": 1891,
      "한": 1892,
      "할": 1893,
      "함": 1894,
      "합": 1895,
      "항": 1896,
      "해": 1897,
      "핵": 1898,
      "핸": 1899,
      "했": 1900,
      "행": 1901,
      "향": 1902,
      "허": 1903,
      "험": 1904,
      "헥": 1905,
      "혀": 1906,
      "현": 1907,
      "형": 1908,
      "호": 1909,
      "혹": 1910,
      "홈": 1911,
      "홑": 1912,
      "화": 1913,
      "확": 1914,
      "환": 1915,
      "황": 1916,
      "회": 1917,
      "효": 1918,
      "후": 1919,
      "훌": 1920,
      "훑": 1921,
      "히": 1922,
      "️": 1923,
      "（": 1924,
      "）": 1925,
      "＋": 1926,
      "，": 1927,
      "－": 1928,
      "／": 1929,
      "：": 1930,
      "；": 1931,
      "＜": 1932,
      "＝": 1933,
      "＞": 1934,
      "＠": 1935,
      "�": 1936,
      "𒀀": 1937,
      "𒀃": 1938,
      "𒀆": 1939,
      "𒀟": 1940,
      "𒁹": 1941,
      "𒇺": 1942,
      "𒈫": 1943,
      "𒉺": 1944,
      "𒌐": 1945,
      "𝒯": 1946,
      "𝒽": 1947,
      "𝒾": 1948,
      "𝓃": 1949,
      "𝓈": 1950,
      "𝓐": 1951,
      "𝓵": 1952,
      "𝕋": 1953,
      "𝕖": 1954,
      "𝕙": 1955,
      "🐍": 1956,
      "in": 1957,
      "it": 1958,
      "on": 1959,
      "at": 1960,
      "er": 1961,
      "pl": 1962,
      "re": 1963,
      "se": 1964,
      "or": 1965,
      "en": 1966,
      "ex": 1967,
      "ion": 1968,
      "ar": 1969,
      "al": 1970,
      "ct": 1971,
      "ing": 1972,
      "plo": 1973,
      "ploit": 1974,
      "an": 1975,
      "es": 1976,
      "pe": 1977,
      "et": 1978,
      "ch": 1979,
      "ty": 1980,
      "ed": 1981,
      "type": 1982,
      "om": 1983,
      "ity": 1984,
      "ver": 1985,
      "ent": 1986,
      "exploit": 1987,
      "ic": 1988,
      "for": 1989,
      "con": 1990,
      "st": 1991,
      "th": 1992,
      "ig": 1993,
      "lo": 1994,
      "type]": 1995,
      "[type]": 1996,
      "sever": 1997,
      "ul": 1998,
      "severity": 1999,
      "ction": 2000,
      "ain": 2001,
      "ap": 2002,
      "ac": 2003,
      "[severity": 2004,
      "[severity]": 2005,
      "ro": 2006,
      "ation": 2007,
      "il": 2008,
      "em": 2009,
      "im": 2010,
      "ss": 2011,
      "dom": 2012,
      "te": 2013,
      "get": 2014,
      "domain": 2015,
      "ate": 2016,
      "ind": 2017,
      "tar": 2018,
      "target": 2019,
      "un": 2020,
      "we": 2021,
      "to": 2022,
      "and": 2023,
      "is": 2024,
      "form": 2025,
      "web": 2026,
      "no": 2027,
      "cont": 2028,
      "pat": 2029,
      "ur": 2030,
      "igh": 2031,
      "cr": 2032,
      "action": 2033,
      "find": 2034,
      "high": 2035,
      "ings": 2036,
      "ext": 2037,
      "ve": 2038,
      "le": 2039,
      "db": 2040,
      "patch": 2041,
      "findings": 2042,
      "exploitdb": 2043,
      "action]": 2044,
      "[findings": 2045,
      "[action]": 2046,
      "[findings]": 2047,
      "ab": 2048,
      "ser": 2049,
      "ad": 2050,
      "com": 2051,
      "med": 2052,
      "context": 2053,
      "plat": 2054,
      "platform": 2055,
      "exploitdb:": 2056,
      "context]": 2057,
      "id": 2058,
      "am": 2059,
      "ement": 2060,
      "ack": 2061,
      "ps": 2062,
      "the": 2063,
      "po": 2064,
      "of": 2065,
      "vul": 2066,
      "vuln": 2067,
      "as": 2068,
      "medi": 2069,
      "mo": 2070,
      "arch": 2071,
      "ect": 2072,
      "ph": 2073,
      "low": 2074,
      "co": 2075,
      "══": 2076,
      "ith": 2077,
      "impl": 2078,
      "pro": 2079,
      "ical": 2080,
      "implement": 2081,
      "search": 2082,
      "wa": 2083,
      "de": 2084,
      "um": 2085,
      "fo": 2086,
      "ut": 2087,
      "now": 2088,
      "sploit": 2089,
      "searchsploit": 2090,
      "[context]": 2091,
      "ag": 2092,
      "ce": 2093,
      "itical": 2094,
      "pr": 2095,
      "critical": 2096,
      "ho": 2097,
      "pt": 2098,
      "with": 2099,
      "net": 2100,
      "ti": 2101,
      "qu": 2102,
      "att": 2103,
      "pa": 2104,
      "ers": 2105,
      "wor": 2106,
      "cal": 2107,
      "est": 2108,
      "apps": 2109,
      "php": 2110,
      "iti": 2111,
      "webapps": 2112,
      "reat": 2113,
      "fi": 2114,
      "red": 2115,
      "threat": 2116,
      "int": 2117,
      "ly": 2118,
      "remo": 2119,
      "vi": 2120,
      "serv": 2121,
      "sec": 2122,
      "remote": 2123,
      "act": 2124,
      "ected": 2125,
      "und": 2126,
      "log": 2127,
      "us": 2128,
      "ection": 2129,
      "servic": 2130,
      "can": 2131,
      "attack": 2132,
      "ment": 2133,
      "ure": 2134,
      "det": 2135,
      "ht": 2136,
      "ff": 2137,
      "ile": 2138,
      "str": 2139,
      "do": 2140,
      "inj": 2141,
      "work": 2142,
      "abil": 2143,
      "ware": 2144,
      "recon": 2145,
      "ns": 2146,
      "found": 2147,
      "iv": 2148,
      "mediate": 2149,
      "20": 2150,
      "vulner": 2151,
      "secur": 2152,
      "immediate": 2153,
      "security": 2154,
      "ple": 2155,
      "be": 2156,
      "fr": 2157,
      "ql": 2158,
      "tr": 2159,
      "ial": 2160,
      "vulnerabil": 2161,
      "medium": 2162,
      "ess": 2163,
      "cri": 2164,
      "ive": 2165,
      "mul": 2166,
      "au": 2167,
      "ail": 2168,
      "injection": 2169,
      "multi": 2170,
      "sql": 2171,
      "able": 2172,
      "cript": 2173,
      "════": 2174,
      "pre": 2175,
      "requ": 2176,
      "he": 2177,
      "htt": 2178,
      "ary": 2179,
      "ross": 2180,
      "pon": 2181,
      "services": 2182,
      "escal": 2183,
      "end": 2184,
      "ec": 2185,
      "lin": 2186,
      "ite": 2187,
      "script": 2188,
      "scan": 2189,
      "all": 2190,
      "dat": 2191,
      "multiple": 2192,
      "network": 2193,
      "ist": 2194,
      "comm": 2195,
      "sed": 2196,
      "exploits": 2197,
      "ol": 2198,
      "av": 2199,
      "apt": 2200,
      "wh": 2201,
      "ication": 2202,
      "age": 2203,
      "cl": 2204,
      "di": 2205,
      "inter": 2206,
      "ors": 2207,
      "fac": 2208,
      "tech": 2209,
      "map": 2210,
      "pass": 2211,
      "res": 2212,
      "escalate": 2213,
      "detected": 2214,
      "ach": 2215,
      "[scan": 2216,
      "[threat": 2217,
      "[threat]": 2218,
      "sy": 2219,
      "per": 2220,
      "allow": 2221,
      "ident": 2222,
      "cross": 2223,
      "ub": 2224,
      "rul": 2225,
      "file": 2226,
      "ame": 2227,
      "site": 2228,
      "vers": 2229,
      "exec": 2230,
      "aff": 2231,
      "cve": 2232,
      "por": 2233,
      "io": 2234,
      "waf": 2235,
      "by": 2236,
      "ze": 2237,
      "fir": 2238,
      "ke": 2239,
      "seg": 2240,
      "inv": 2241,
      "user": 2242,
      "expo": 2243,
      "within": 2244,
      "segment": 2245,
      "ay": 2246,
      "ard": 2247,
      "ses": 2248,
      "requi": 2249,
      "vulnerability": 2250,
      "urs": 2251,
      "inform": 2252,
      "ter": 2253,
      "so": 2254,
      "auth": 2255,
      "pri": 2256,
      "head": 2257,
      "ents": 2258,
      "affected": 2259,
      "information": 2260,
      "ux": 2261,
      "hours": 2262,
      "eng": 2263,
      "cess": 2264,
      "par": 2265,
      "rules": 2266,
      "logy": 2267,
      "via": 2268,
      "ning": 2269,
      "up": 2270,
      "stem": 2271,
      "dis": 2272,
      "if": 2273,
      "iss": 2274,
      "ls": 2275,
      "conf": 2276,
      "invest": 2277,
      "investig": 2278,
      "prote": 2279,
      "https": 2280,
      "avail": 2281,
      "system": 2282,
      "itor": 2283,
      "run": 2284,
      "ib": 2285,
      "ies": 2286,
      "available": 2287,
      "ck": 2288,
      "compon": 2289,
      "linux": 2290,
      "stack": 2291,
      "man": 2292,
      "mon": 2293,
      "techno": 2294,
      "nmap": 2295,
      "cy": 2296,
      "00": 2297,
      "ew": 2298,
      "segmentation": 2299,
      "unt": 2300,
      "clo": 2301,
      "appl": 2302,
      "how": 2303,
      "scripting": 2304,
      "https:": 2305,
      "internet": 2306,
      "mal": 2307,
      "itize": 2308,
      "prior": 2309,
      "protection": 2310,
      "patching": 2311,
      "components": 2312,
      "bit": 2313,
      "config": 2314,
      "ities": 2315,
      "domain:": 2316,
      "over": 2317,
      "icat": 2318,
      "technology": 2319,
      "](": 2320,
      "ens": 2321,
      "that": 2322,
      "ential": 2323,
      "prioritize": 2324,
      "facing": 2325,
      "rary": 2326,
      "monitor": 2327,
      "ions": 2328,
      "local": 2329,
      "cred": 2330,
      "ll": 2331,
      "activ": 2332,
      "bo": 2333,
      "ip": 2334,
      "fore": 2335,
      "ir": 2336,
      "ge": 2337,
      "bu": 2338,
      "confir": 2339,
      "data": 2340,
      "anc": 2341,
      "arbit": 2342,
      "48": 2343,
      "allows": 2344,
      "arbitrary": 2345,
      "ign": 2346,
      "tif": 2347,
      "confirmed": 2348,
      "nt": 2349,
      "authent": 2350,
      "port": 2351,
      "sess": 2352,
      "load": 2353,
      "════════": 2354,
      "ence": 2355,
      "min": 2356,
      "credential": 2357,
      "code": 2358,
      "immediately": 2359,
      "iz": 2360,
      "activity": 2361,
      "running": 2362,
      "headers": 2363,
      "ifi": 2364,
      "frame": 2365,
      "execut": 2366,
      "ok": 2367,
      "ev": 2368,
      "ba": 2369,
      "asp": 2370,
      "rect": 2371,
      "investigate": 2372,
      "out": 2373,
      "10": 2374,
      "el": 2375,
      "access": 2376,
      "attackers": 2377,
      "cle": 2378,
      "dos": 2379,
      "vulnerabilities": 2380,
      "ory": 2381,
      "required": 2382,
      "contro": 2383,
      "fil": 2384,
      "sure": 2385,
      "command": 2386,
      "xss": 2387,
      "sp": 2388,
      "gr": 2389,
      "view": 2390,
      "ified": 2391,
      "met": 2392,
      "ak": 2393,
      "configur": 2394,
      "server": 2395,
      "configuration": 2396,
      "incl": 2397,
      "os": 2398,
      "priv": 2399,
      "lic": 2400,
      "word": 2401,
      "ni": 2402,
      "ud": 2403,
      "are": 2404,
      "pay": 2405,
      "hard": 2406,
      "ms": 2407,
      "service": 2408,
      "mit": 2409,
      "from": 2410,
      "ml": 2411,
      "active": 2412,
      "ance": 2413,
      "team": 2414,
      "ob": 2415,
      "malware": 2416,
      "vel": 2417,
      "inc": 2418,
      "200": 2419,
      "execution": 2420,
      "ber": 2421,
      "authentication": 2422,
      "aly": 2423,
      "direct": 2424,
      "privile": 2425,
      "sens": 2426,
      "ish": 2427,
      "itive": 2428,
      "level": 2429,
      "li": 2430,
      "ern": 2431,
      "sc": 2432,
      "flow": 2433,
      "mis": 2434,
      "engage": 2435,
      "ie": 2436,
      "sensitive": 2437,
      "request": 2438,
      "def": 2439,
      "bre": 2440,
      "ust": 2441,
      "http": 2442,
      "ute": 2443,
      "oft": 2444,
      "uct": 2445,
      "ans": 2446,
      "analy": 2447,
      "nu": 2448,
      "based": 2449,
      "ow": 2450,
      "day": 2451,
      "password": 2452,
      "yo": 2453,
      "bypass": 2454,
      "hardware": 2455,
      "uld": 2456,
      "miss": 2457,
      "prom": 2458,
      "``": 2459,
      "tem": 2460,
      "den": 2461,
      "sid": 2462,
      "payload": 2463,
      "stri": 2464,
      "identified": 2465,
      "24": 2466,
      "pers": 2467,
      "ffer": 2468,
      "chan": 2469,
      "serve": 2470,
      "set": 2471,
      "des": 2472,
      "val": 2473,
      "lock": 2474,
      "respon": 2475,
      "this": 2476,
      "anced": 2477,
      "isk": 2478,
      "ug": 2479,
      "ful": 2480,
      "lat": 2481,
      "gen": 2482,
      "test": 2483,
      "overflow": 2484,
      "compl": 2485,
      "breach": 2486,
      "manag": 2487,
      "vend": 2488,
      "comprom": 2489,
      "count": 2490,
      "preserve": 2491,
      "point": 2492,
      "ong": 2493,
      "sub": 2494,
      "201": 2495,
      "cook": 2496,
      "risk": 2497,
      "compromi": 2498,
      "ishing": 2499,
      "use": 2500,
      "ash": 2501,
      "param": 2502,
      "indicat": 2503,
      "put": 2504,
      "you": 2505,
      "disclo": 2506,
      "op": 2507,
      "**": 2508,
      "vendor": 2509,
      "exposed": 2510,
      "session": 2511,
      "notif": 2512,
      "isol": 2513,
      "inte": 2514,
      "admin": 2515,
      "account": 2516,
      "misconfiguration": 2517,
      "disclosure": 2518,
      "soft": 2519,
      "cv": 2520,
      "gi": 2521,
      "paramet": 2522,
      "nucle": 2523,
      "incident": 2524,
      "nuclei": 2525,
      "phishing": 2526,
      "](https:": 2527,
      "indicators": 2528,
      "cam": 2529,
      "before": 2530,
      "apply": 2531,
      "ger": 2532,
      "response": 2533,
      "spe": 2534,
      "su": 2535,
      "application": 2536,
      "struct": 2537,
      "notify": 2538,
      "add": 2539,
      "sent": 2540,
      "html": 2541,
      "block": 2542,
      "tool": 2543,
      "denial": 2544,
      "ations": 2545,
      "ant": 2546,
      "ot": 2547,
      "sch": 2548,
      "ww": 2549,
      "review": 2550,
      "me": 2551,
      "controls": 2552,
      "what": 2553,
      "ick": 2554,
      "aba": 2555,
      "uce": 2556,
      "domains": 2557,
      "face": 2558,
      "missing": 2559,
      "na": 2560,
      "polic": 2561,
      "buffer": 2562,
      "credentials": 2563,
      "der": 2564,
      "ious": 2565,
      "execute": 2566,
      "ue": 2567,
      "databa": 2568,
      "vir": 2569,
      "tim": 2570,
      "ft": 2571,
      "ich": 2572,
      "endpoint": 2573,
      "present": 2574,
      "cry": 2575,
      "monitoring": 2576,
      "igns": 2577,
      "fun": 2578,
      "sv": 2579,
      "persist": 2580,
      "idence": 2581,
      "usion": 2582,
      "opt": 2583,
      "forens": 2584,
      "parameter": 2585,
      "stg": 2586,
      "forensic": 2587,
      "sis": 2588,
      "exposes": 2589,
      "\\n": 2590,
      "ces": 2591,
      "soc": 2592,
      "lect": 2593,
      "ule": 2594,
      "reduce": 2595,
      "col": 2596,
      "wind": 2597,
      "across": 2598,
      "analysis": 2599,
      "wo": 2600,
      "cors": 2601,
      "long": 2602,
      "detection": 2603,
      "systems": 2604,
      "ated": 2605,
      "targeting": 2606,
      "evidence": 2607,
      "ine": 2608,
      "window": 2609,
      "name": 2610,
      "isolate": 2611,
      "ating": 2612,
      "ploy": 2613,
      "ass": 2614,
      "recomm": 2615,
      "ments": 2616,
      "recommend": 2617,
      "org": 2618,
      "full": 2619,
      "compromise": 2620,
      "sur": 2621,
      "icious": 2622,
      "one": 2623,
      "ci": 2624,
      "bal": 2625,
      "not": 2626,
      "secure": 2627,
      "'s": 2628,
      "ged": 2629,
      "state": 2630,
      "attacks": 2631,
      "11": 2632,
      "sh": 2633,
      "════════════════": 2634,
      "tra": 2635,
      "acking": 2636,
      "valid": 2637,
      "campa": 2638,
      "cur": 2639,
      "force": 2640,
      "cloud": 2641,
      "function": 2642,
      "logs": 2643,
      "adv": 2644,
      "eral": 2645,
      "mem": 2646,
      "users": 2647,
      "go": 2648,
      "ero": 2649,
      "versal": 2650,
      "email": 2651,
      "version": 2652,
      "attacker": 2653,
      "mitig": 2654,
      "techni": 2655,
      "wstg": 2656,
      "software": 2657,
      "structure": 2658,
      "ject": 2659,
      "directory": 2660,
      "tok": 2661,
      "fl": 2662,
      "oper": 2663,
      "cis": 2664,
      "techniqu": 2665,
      "print": 2666,
      "open": 2667,
      "1)": 2668,
      "windows": 2669,
      "post": 2670,
      "would": 2671,
      "cookie": 2672,
      "framework": 2673,
      "traversal": 2674,
      "](#": 2675,
      "which": 2676,
      "sched": 2677,
      "persistent": 2678,
      "ult": 2679,
      "abl": 2680,
      "mac": 2681,
      "ernal": 2682,
      "ne": 2683,
      "again": 2684,
      "mov": 2685,
      "jacking": 2686,
      "hunt": 2687,
      "cor": 2688,
      "igin": 2689,
      "inclusion": 2690,
      "date": 2691,
      "input": 2692,
      "origin": 2693,
      "emer": 2694,
      "jav": 2695,
      "cvss": 2696,
      "against": 2697,
      "icated": 2698,
      "dit": 2699,
      "advanced": 2700,
      "path": 2701,
      "ugh": 2702,
      "read": 2703,
      "metho": 2704,
      "external": 2705,
      "cms": 2706,
      "fra": 2707,
      "bl": 2708,
      "12": 2709,
      "thro": 2710,
      "fer": 2711,
      "infra": 2712,
      "php'": 2713,
      "lateral": 2714,
      "aw": 2715,
      "when": 2716,
      "csp": 2717,
      "ix": 2718,
      "cyber": 2719,
      "time": 2720,
      "infrastructure": 2721,
      "mod": 2722,
      "management": 2723,
      "escalation": 2724,
      "del": 2725,
      "days": 2726,
      "movement": 2727,
      "login": 2728,
      "hunting": 2729,
      "gor": 2730,
      "202": 2731,
      "key": 2732,
      "ere": 2733,
      "through": 2734,
      "envir": 2735,
      "cs": 2736,
      "environ": 2737,
      "ca": 2738,
      "90": 2739,
      "zero": 2740,
      "poss": 2741,
      "gency": 2742,
      "surface": 2743,
      "files": 2744,
      "payload:": 2745,
      "spec": 2746,
      "show": 2747,
      "fa": 2748,
      "stand": 2749,
      "possib": 2750,
      "ption": 2751,
      "emergency": 2752,
      "`:": 2753,
      "requires": 2754,
      "options": 2755,
      "fe": 2756,
      "art": 2757,
      "comp": 2758,
      "cgi": 2759,
      "patter": 2760,
      "back": 2761,
      "ert": 2762,
      "wt": 2763,
      "tempor": 2764,
      "la": 2765,
      "privilege": 2766,
      "lim": 2767,
      "sum": 2768,
      "algor": 2769,
      "mitigation": 2770,
      "algorith": 2771,
      "detect": 2772,
      "api": 2773,
      "schedule": 2774,
      "ports": 2775,
      "line": 2776,
      "ization": 2777,
      "used": 2778,
      "trust": 2779,
      "acts": 2780,
      "chain": 2781,
      "ome": 2782,
      "pub": 2783,
      "ark": 2784,
      "c2": 2785,
      "gith": 2786,
      "exploitation": 2787,
      "content": 2788,
      "host": 2789,
      "using": 2790,
      "artif": 2791,
      "side": 2792,
      "github": 2793,
      "jwt": 2794,
      "xss)": 2795,
      "know": 2796,
      "firm": 2797,
      "ha": 2798,
      "inject": 2799,
      "(xss)": 2800,
      "ios": 2801,
      "ds": 2802,
      "ma": 2803,
      "commands": 2804,
      "dr": 2805,
      "bea": 2806,
      "fing": 2807,
      "assess": 2808,
      "limit": 2809,
      "ics": 2810,
      "proper": 2811,
      "vent": 2812,
      "finger": 2813,
      "like": 2814,
      "```": 2815,
      "sa": 2816,
      "rent": 2817,
      "employ": 2818,
      "fingerprint": 2819,
      "2)": 2820,
      "rans": 2821,
      "ade": 2822,
      "privileged": 2823,
      "beacon": 2824,
      "gu": 2825,
      "object": 2826,
      "database": 2827,
      "past": 2828,
      "strike": 2829,
      "validation": 2830,
      "artifacts": 2831,
      "exposure": 2832,
      "http:": 2833,
      "process": 2834,
      "temporary": 2835,
      "(1)": 2836,
      "enable": 2837,
      "rot": 2838,
      "aint": 2839,
      "algorithm": 2840,
      "ransom": 2841,
      "patterns": 2842,
      "policy": 2843,
      "ized": 2844,
      "cobal": 2845,
      "cobalt": 2846,
      "ional": 2847,
      "techniques": 2848,
      "nation": 2849,
      "ide": 2850,
      "reconna": 2851,
      "reconnaiss": 2852,
      "80": 2853,
      "reconnaissance": 2854,
      "br": 2855,
      "ari": 2856,
      "memory": 2857,
      "stat": 2858,
      "rule": 2859,
      "wi": 2860,
      "hell": 2861,
      "reg": 2862,
      "list": 2863,
      "exploited": 2864,
      "sider": 2865,
      "15": 2866,
      "tokens": 2867,
      "ual": 2868,
      "prov": 2869,
      "ensive": 2870,
      "tools": 2871,
      "sup": 2872,
      "term": 2873,
      "strict": 2874,
      "summ": 2875,
      "campaign": 2876,
      "nam": 2877,
      "audit": 2878,
      "cover": 2879,
      "commun": 2880,
      "shows": 2881,
      "ete": 2882,
      "appro": 2883,
      "cp": 2884,
      "ret": 2885,
      "without": 2886,
      "summary": 2887,
      "enh": 2888,
      "passwords": 2889,
      "hi": 2890,
      "ient": 2891,
      "ness": 2892,
      "public": 2893,
      "metas": 2894,
      "44": 2895,
      "sto": 2896,
      "metasploit": 2897,
      "ree": 2898,
      "dev": 2899,
      "ify": 2900,
      "pi": 2901,
      "scen": 2902,
      "leg": 2903,
      "scenar": 2904,
      "known": 2905,
      "[`": 2906,
      "dns": 2907,
      "aining": 2908,
      "prevent": 2909,
      "but": 2910,
      "header": 2911,
      "sign": 2912,
      "update": 2913,
      "malicious": 2914,
      "signs": 2915,
      "rotate": 2916,
      "current": 2917,
      "16": 2918,
      "assessment": 2919,
      "link": 2920,
      "testing": 2921,
      "sen": 2922,
      "ific": 2923,
      "gery": 2924,
      "cum": 2925,
      "py": 2926,
      "forgery": 2927,
      "index": 2928,
      "gro": 2929,
      "vect": 2930,
      "quer": 2931,
      "investigation": 2932,
      "actively": 2933,
      "ciso": 2934,
      "metasploit)": 2935,
      "(metasploit)": 2936,
      "implementing": 2937,
      "encry": 2938,
      "dum": 2939,
      "(2)": 2940,
      "ight": 2941,
      "bot": 2942,
      "approach": 2943,
      "nist": 2944,
      "ill": 2945,
      "pted": 2946,
      "urce": 2947,
      "segments": 2948,
      "www": 2949,
      "ste": 2950,
      "8+": 2951,
      "integr": 2952,
      "control": 2953,
      "only": 2954,
      "ault": 2955,
      "ru": 2956,
      "lay": 2957,
      "possible": 2958,
      "non": 2959,
      "exam": 2960,
      "ced": 2961,
      "proto": 2962,
      "cau": 2963,
      "du": 2964,
      "sil": 2965,
      "ures": 2966,
      "ice": 2967,
      "mitre": 2968,
      "standard": 2969,
      "13": 2970,
      "click": 2971,
      "employe": 2972,
      "requests": 2973,
      "25": 2974,
      "ification": 2975,
      "plate": 2976,
      "restrict": 2977,
      "aut": 2978,
      "pload": 2979,
      "versions": 2980,
      "upload": 2981,
      "template": 2982,
      "java": 2983,
      "ous": 2984,
      "page": 2985,
      "enforce": 2986,
      "aware": 2987,
      "trans": 2988,
      "kto": 2989,
      "endpoints": 2990,
      "ache": 2991,
      "under": 2992,
      "complete": 2993,
      "kern": 2994,
      "rate": 2995,
      "ered": 2996,
      "recommended": 2997,
      "compens": 2998,
      "contain": 2999,
      "exfil": 3000,
      "compensating": 3001,
      "wn": 3002,
      "gre": 3003,
      "engine": 3004,
      "kernel": 3005,
      "att&": 3006,
      "sts": 3007,
      "archit": 3008,
      "ace": 3009,
      "cent": 3010,
      "refer": 3011,
      "enhanced": 3012,
      "bro": 3013,
      "subdomains": 3014,
      "architect": 3015,
      "ibut": 3016,
      "cybersecurity": 3017,
      "att&ck": 3018,
      "has": 3019,
      "new": 3020,
      "enum": 3021,
      "reset": 3022,
      "string": 3023,
      "default": 3024,
      "silent": 3025,
      "wr": 3026,
      "ages": 3027,
      "ping": 3028,
      "sqlmap": 3029,
      "ст": 3030,
      "into": 3031,
      "awareness": 3032,
      "controls:": 3033,
      "dated": 3034,
      "methodo": 3035,
      "trusted": 3036,
      "30": 3037,
      "includ": 3038,
      "ransomware": 3039,
      "ues": 3040,
      "authenticated": 3041,
      "consider": 3042,
      "actor": 3043,
      "bin": 3044,
      "model": 3045,
      "ia": 3046,
      "sho": 3047,
      "exfiltr": 3048,
      "14": 3049,
      "advers": 3050,
      "az": 3051,
      "()": 3052,
      "19": 3053,
      "oth": 3054,
      "initi": 3055,
      "cre": 3056,
      "autom": 3057,
      "root": 3058,
      "identify": 3059,
      "bash": 3060,
      "xx": 3061,
      "url": 3062,
      "fol": 3063,
      "cause": 3064,
      "complex": 3065,
      "theft": 3066,
      "ateg": 3067,
      "alert": 3068,
      "cat": 3069,
      "align": 3070,
      "manager": 3071,
      "free": 3072,
      "llig": 3073,
      "nikto": 3074,
      "enumer": 3075,
      "aph": 3076,
      "outdated": 3077,
      "50": 3078,
      "hsts": 3079,
      "js": 3080,
      "lib": 3081,
      "sus": 3082,
      "atch": 3083,
      "dump": 3084,
      "mic": 3085,
      "og": 3086,
      "intellig": 3087,
      "graph": 3088,
      "ear": 3089,
      "ences": 3090,
      "##": 3091,
      "app": 3092,
      "does": 3093,
      "mechan": 3094,
      "fire": 3095,
      "id'": 3096,
      "`](https:": 3097,
      "play": 3098,
      "sd": 3099,
      "posture": 3100,
      "mechanis": 3101,
      "intelligence": 3102,
      "acce": 3103,
      "detail": 3104,
      "ко": 3105,
      "ren": 3106,
      "fingerprinting": 3107,
      "leak": 3108,
      "summary:": 3109,
      "policies": 3110,
      "author": 3111,
      "my": 3112,
      "redi": 3113,
      "hand": 3114,
      "itional": 3115,
      "php?": 3116,
      "clickjacking": 3117,
      "these": 3118,
      "inclu": 3119,
      "select": 3120,
      "vectors": 3121,
      "cket": 3122,
      "appe": 3123,
      "part": 3124,
      "26": 3125,
      "environments": 3126,
      "conn": 3127,
      "off": 3128,
      "enabl": 3129,
      "ang": 3130,
      "ative": 3131,
      "docum": 3132,
      "down": 3133,
      "29": 3134,
      "af": 3135,
      "rel": 3136,
      "operation": 3137,
      "scenario": 3138,
      "micro": 3139,
      "sm": 3140,
      "si": 3141,
      "risk:": 3142,
      "ta": 3143,
      "collect": 3144,
      "cookies": 3145,
      "include": 3146,
      "databases": 3147,
      "inst": 3148,
      "ars": 3149,
      "shell": 3150,
      "err": 3151,
      "ild": 3152,
      "change": 3153,
      "example": 3154,
      "flag": 3155,
      "xt": 3156,
      "press": 3157,
      "remedi": 3158,
      "cap": 3159,
      "complexity": 3160,
      "pos": 3161,
      "gram": 3162,
      "vari": 3163,
      "other": 3164,
      "17": 3165,
      "mfa": 3166,
      "training": 3167,
      "c)": 3168,
      "xml": 3169,
      "susp": 3170,
      "remediation": 3171,
      "rf": 3172,
      "s)": 3173,
      "uk": 3174,
      "al:": 3175,
      "verification": 3176,
      "format": 3177,
      "allowed": 3178,
      "program": 3179,
      "cycle": 3180,
      "22": 3181,
      "strateg": 3182,
      "issues": 3183,
      "some": 3184,
      "roid": 3185,
      "exfiltration": 3186,
      "istr": 3187,
      "на": 3188,
      "ular": 3189,
      "sing": 3190,
      "spo": 3191,
      "hijacking": 3192,
      "android": 3193,
      "pow": 3194,
      "discover": 3195,
      "da": 3196,
      "why": 3197,
      "book": 3198,
      "suspicious": 3199,
      "fin": 3200,
      "ik": 3201,
      "any": 3202,
      "top": 3203,
      "manip": 3204,
      "bet": 3205,
      "suppl": 3206,
      "md": 3207,
      "defen": 3208,
      "passive": 3209,
      "filter": 3210,
      "18": 3211,
      "attr": 3212,
      "hel": 3213,
      "eff": 3214,
      "directive": 3215,
      "manipul": 3216,
      "secret": 3217,
      "aries": 3218,
      "lever": 3219,
      "informational:": 3220,
      "(csp": 3221,
      "disable": 3222,
      "adequ": 3223,
      "t4": 3224,
      "source": 3225,
      "lier": 3226,
      "gistr": 3227,
      "adequate": 3228,
      "mess": 3229,
      "rce": 3230,
      "registr": 3231,
      "uni": 3232,
      "uring": 3233,
      "brow": 3234,
      "txt": 3235,
      "earlier": 3236,
      "appears": 3237,
      "administr": 3238,
      "names": 3239,
      "}}": 3240,
      "probe": 3241,
      "havi": 3242,
      "000": 3243,
      "insecure": 3244,
      "23": 3245,
      "behavi": 3246,
      "40": 3247,
      "`)": 3248,
      "mail": 3249,
      "apple": 3250,
      "soph": 3251,
      "uses": 3252,
      "group": 3253,
      "overview": 3254,
      "oc": 3255,
      "те": 3256,
      "way": 3257,
      "social": 3258,
      "details": 3259,
      "ast": 3260,
      "pack": 3261,
      "════════════════════════════════": 3262,
      "employee": 3263,
      "where": 3264,
      "ancest": 3265,
      "ancestors": 3266,
      "ling": 3267,
      "design": 3268,
      "cves": 3269,
      "flags": 3270,
      "tls": 3271,
      "dy": 3272,
      "ices": 3273,
      "unn": 3274,
      "client": 3275,
      "options)": 3276,
      "ering": 3277,
      "follow": 3278,
      "reso": 3279,
      "communication": 3280,
      "methodology": 3281,
      "по": 3282,
      "class": 3283,
      "pipe": 3284,
      "enter": 3285,
      "jo": 3286,
      "payloads": 3287,
      "{{": 3288,
      "may": 3289,
      "velo": 3290,
      "httpon": 3291,
      "osx": 3292,
      "httponly": 3293,
      "wall": 3294,
      "environment": 3295,
      "sophist": 3296,
      "je": 3297,
      "severity:": 3298,
      "sys": 3299,
      "extr": 3300,
      "36": 3301,
      "ai": 3302,
      "hy": 3303,
      "error": 3304,
      "etc": 3305,
      "stor": 3306,
      "acy": 3307,
      "query": 3308,
      "none": 3309,
      "layered": 3310,
      "ld": 3311,
      "organ": 3312,
      "ро": 3313,
      "limiting": 3314,
      "32": 3315,
      "ри": 3316,
      "ically": 3317,
      "origins": 3318,
      "references": 3319,
      "τε": 3320,
      "gent": 3321,
      "its": 3322,
      "duct": 3323,
      "sophisticated": 3324,
      "ress": 3325,
      "ives": 3326,
      "eck": 3327,
      "botnet": 3328,
      "util": 3329,
      "document": 3330,
      "60": 3331,
      "mechanisms": 3332,
      "goog": 3333,
      "que": 3334,
      "ips": 3335,
      "rout": 3336,
      "ry": 3337,
      "google": 3338,
      "sl": 3339,
      "browser": 3340,
      "develo": 3341,
      "maint": 3342,
      "weak": 3343,
      "encryption": 3344,
      "accepted": 3345,
      "dig": 3346,
      "cust": 3347,
      "cd": 3348,
      "ges": 3349,
      "les": 3350,
      "vo": 3351,
      "니다": 3352,
      "check": 3353,
      "attach": 3354,
      "cryp": 3355,
      "pd": 3356,
      "ssl": 3357,
      "asp'": 3358,
      "gener": 3359,
      "campaigns": 3360,
      "ascript": 3361,
      "could": 3362,
      "supply": 3363,
      "bas": 3364,
      "bsd": 3365,
      "aligned": 3366,
      "behavior": 3367,
      "100": 3368,
      "27": 3369,
      "deploy": 3370,
      "store": 3371,
      "ator": 3372,
      "char": 3373,
      "bug": 3374,
      "('": 3375,
      "perform": 3376,
      "specified": 3377,
      "28": 3378,
      "portal": 3379,
      "37": 3380,
      "atic": 3381,
      "ssh": 3382,
      "report": 3383,
      "pot": 3384,
      "ecess": 3385,
      "base": 3386,
      "crypto": 3387,
      "cod": 3388,
      "3)": 3389,
      "real": 3390,
      "urgent": 3391,
      "actors": 3392,
      "after": 3393,
      "mark": 3394,
      "redirect": 3395,
      "enterpri": 3396,
      "dan": 3397,
      "pent": 3398,
      "ти": 3399,
      "info": 3400,
      "custom": 3401,
      "`ls": 3402,
      "observ": 3403,
      "s:": 3404,
      "geo": 3405,
      "spoof": 3406,
      "34": 3407,
      "chall": 3408,
      "prim": 3409,
      "challeng": 3410,
      "%00": 3411,
      "mach": 3412,
      "s?": 3413,
      "while": 3414,
      "contin": 3415,
      "such": 3416,
      "provid": 3417,
      "64": 3418,
      "username": 3419,
      "macro": 3420,
      "macos": 3421,
      "capabil": 3422,
      "hash": 3423,
      "ates": 3424,
      "max": 3425,
      "create": 3426,
      "unspecified": 3427,
      "including": 3428,
      "apache": 3429,
      "2006": 3430,
      "xy": 3431,
      "logies": 3432,
      "javascript": 3433,
      "ля": 3434,
      "note": 3435,
      "ki": 3436,
      "due": 3437,
      "aws": 3438,
      "module": 3439,
      "differ": 3440,
      "\\n\\n": 3441,
      "\"https:": 3442,
      "wd": 3443,
      "initial": 3444,
      "defense": 3445,
      "να": 3446,
      "igger": 3447,
      "compromised": 3448,
      "enterprise": 3449,
      "mi": 3450,
      "arg": 3451,
      "thon": 3452,
      "applications": 3453,
      "aft": 3454,
      "zy": 3455,
      "orac": 3456,
      "addres": 3457,
      "address": 3458,
      "38": 3459,
      "win": 3460,
      "erial": 3461,
      "relat": 3462,
      "forum": 3463,
      "ah": 3464,
      "download": 3465,
      "21": 3466,
      "39": 3467,
      "lab": 3468,
      "plaint": 3469,
      "ances": 3470,
      "python": 3471,
      "plaintext": 3472,
      "require": 3473,
      "2007": 3474,
      "firewall": 3475,
      "ecessary": 3476,
      "stu": 3477,
      "ird": 3478,
      "backup": 3479,
      "engineering": 3480,
      "addresses": 3481,
      "(po": 3482,
      "kit": 3483,
      "sol": 3484,
      "ured": 3485,
      "ã": 3486,
      "permiss": 3487,
      "protocol": 3488,
      "batch": 3489,
      "icate": 3490,
      "box": 3491,
      "dm": 3492,
      "ten": 3493,
      "craft": 3494,
      "grep": 3495,
      "scenario:": 3496,
      "443": 3497,
      "steal": 3498,
      "itim": 3499,
      "ref": 3500,
      "')": 3501,
      "ви": 3502,
      "](http:": 3503,
      "plug": 3504,
      "ibm": 3505,
      "\\\\": 3506,
      "abuse": 3507,
      "fiel": 3508,
      "distr": 3509,
      "subdomain": 3510,
      "jsp": 3511,
      "lead": 3512,
      "mode": 3513,
      "token": 3514,
      "ata": 3515,
      "feed": 3516,
      "35": 3517,
      "less": 3518,
      "но": 3519,
      "ort": 3520,
      "effect": 3521,
      "cer": 3522,
      "blind": 3523,
      "legitim": 3524,
      "oracle": 3525,
      "od": 3526,
      "functions": 3527,
      "bus": 3528,
      "storage": 3529,
      "modi": 3530,
      "2008": 3531,
      "attribut": 3532,
      "proced": 3533,
      "enumeration": 3534,
      "chr": 3535,
      "cvss:": 3536,
      "microsoft": 3537,
      "iance": 3538,
      "ature": 3539,
      "interface": 3540,
      "executive": 3541,
      "legitimate": 3542,
      "vis": 3543,
      "то": 3544,
      "inf": 3545,
      "ites": 3546,
      "represent": 3547,
      "should": 3548,
      "blog": 3549,
      "her": 3550,
      "compre": 3551,
      "text": 3552,
      "json": 3553,
      "ital": 3554,
      "ull": 3555,
      "deserial": 3556,
      "authorized": 3557,
      "typ": 3558,
      "(poc)": 3559,
      "script>": 3560,
      "defensive": 3561,
      "have": 3562,
      "manipulation": 3563,
      "signific": 3564,
      "archive": 3565,
      "ax": 3566,
      "rl": 3567,
      "使用": 3568,
      "loc": 3569,
      "operations": 3570,
      "ped": 3571,
      "che": 3572,
      "their": 3573,
      "been": 3574,
      "container": 3575,
      "unnecessary": 3576,
      "observed": 3577,
      "ban": 3578,
      "nal": 3579,
      "traff": 3580,
      "meas": 3581,
      "during": 3582,
      "ner": 3583,
      "image": 3584,
      "traffic": 3585,
      "urces": 3586,
      "technique": 3587,
      "significant": 3588,
      "rc": 3589,
      "το": 3590,
      "basic": 3591,
      "board": 3592,
      "accounts": 3593,
      "specific": 3594,
      "kill": 3595,
      "ер": 3596,
      "para": 3597,
      "powers": 3598,
      "47": 3599,
      "ια": 3600,
      "recor": 3601,
      "ali": 3602,
      "edit": 3603,
      "forms": 3604,
      "proxy": 3605,
      "\\\\n": 3606,
      "context:": 3607,
      "ffing": 3608,
      "continu": 3609,
      "distribut": 3610,
      "ran": 3611,
      "additional": 3612,
      "deserialization": 3613,
      "ва": 3614,
      "arning": 3615,
      "anom": 3616,
      "proc": 3617,
      "33": 3618,
      "plugin": 3619,
      "unauthorized": 3620,
      "analysis:": 3621,
      "ian": 3622,
      "spear": 3623,
      "devices": 3624,
      "strategies": 3625,
      "powershell": 3626,
      "product": 3627,
      "challenges": 3628,
      "stuffing": 3629,
      "impa": 3630,
      "value": 3631,
      "caus": 3632,
      "41": 3633,
      "ween": 3634,
      "message": 3635,
      "45": 3636,
      "num": 3637,
      "tel": 3638,
      "cache": 3639,
      "dep": 3640,
      "controll": 3641,
      "keys": 3642,
      "encrypted": 3643,
      "automated": 3644,
      "between": 3645,
      "build": 3646,
      "ctrl": 3647,
      "party": 3648,
      "causal": 3649,
      "was": 3650,
      "za": 3651,
      "bucket": 3652,
      "common": 3653,
      "crafted": 3654,
      "01": 3655,
      "action:": 3656,
      "mapping": 3657,
      "detecting": 3658,
      "might": 3659,
      "oauth": 3660,
      "для": 3661,
      "emon": 3662,
      "install": 3663,
      "attachments": 3664,
      "related": 3665,
      "'ã": 3666,
      "ging": 3667,
      "lines": 3668,
      "2025": 3669,
      "sim": 3670,
      "proces": 3671,
      "olv": 3672,
      "adversaries": 3673,
      "potential": 3674,
      "s;": 3675,
      "εί": 3676,
      "attem": 3677,
      "systematic": 3678,
      "recommend:": 3679,
      "queries": 3680,
      "harden": 3681,
      "**ctrl": 3682,
      "framework's": 3683,
      "spearphishing": 3684,
      "impact": 3685,
      "(3)": 3686,
      "mp": 3687,
      "sam": 3688,
      "extract": 3689,
      "iness": 3690,
      "heap": 3691,
      "compreh": 3692,
      "third": 3693,
      "person": 3694,
      "capabilities": 3695,
      "note:": 3696,
      "injections": 3697,
      "fs": 3698,
      "esting": 3699,
      "lf": 3700,
      "ained": 3701,
      "crash": 3702,
      "trad": 3703,
      "cisco": 3704,
      "connection": 3705,
      "fail": 3706,
      "ask": 3707,
      "ko": 3708,
      "ма": 3709,
      "enabled": 3710,
      "):": 3711,
      "intro": 3712,
      "ruption": 3713,
      "ра": 3714,
      "arc": 3715,
      "forced": 3716,
      "modif": 3717,
      "'index": 3718,
      "cu": 3719,
      "πο": 3720,
      "ни": 3721,
      "several": 3722,
      "core": 3723,
      "iot": 3724,
      "lfi": 3725,
      "anti": 3726,
      "partic": 3727,
      "comprehensive": 3728,
      "ond": 3729,
      "ets": 3730,
      "write": 3731,
      "charact": 3732,
      "machine": 3733,
      "pan": 3734,
      "var": 3735,
      "import": 3736,
      "obt": 3737,
      "possibly": 3738,
      "stored": 3739,
      "secrets": 3740,
      "ily": 3741,
      "passwd": 3742,
      "isolation": 3743,
      "operational": 3744,
      "creat": 3745,
      "nc": 3746,
      "attempt": 3747,
      "regist": 3748,
      "internal": 3749,
      "йте": 3750,
      "expl": 3751,
      "ability": 3752,
      "interactive": 3753,
      "usernames": 3754,
      "2021": 3755,
      "business": 3756,
      "glo": 3757,
      "lar": 3758,
      "simpl": 3759,
      "extens": 3760,
      "dir": 3761,
      "ples": 3762,
      "they": 3763,
      "ument": 3764,
      "result": 3765,
      "cart": 3766,
      "led": 3767,
      "pn": 3768,
      "iven": 3769,
      "::": 3770,
      "hist": 3771,
      "encod": 3772,
      "domain\"": 3773,
      "ids": 3774,
      "scenarios": 3775,
      "card": 3776,
      "cmd": 3777,
      "ker": 3778,
      "31": 3779,
      "care": 3780,
      "protect": 3781,
      "ible": 3782,
      "adversary": 3783,
      "permissions": 3784,
      "ency": 3785,
      "alth": 3786,
      "analyt": 3787,
      "()'": 3788,
      "resource": 3789,
      "infection": 3790,
      "dk": 3791,
      "router": 3792,
      "s3": 3793,
      "likely": 3794,
      "filtering": 3795,
      "46": 3796,
      "profile": 3797,
      "behavioral": 3798,
      "null": 3799,
      "55": 3800,
      "native": 3801,
      "ado": 3802,
      "ution": 3803,
      "changed": 3804,
      "compliance": 3805,
      "ль": 3806,
      "often": 3807,
      "ables": 3808,
      "gress": 3809,
      "dynam": 3810,
      "different": 3811,
      "news": 3812,
      "gate": 3813,
      "order": 3814,
      "provide": 3815,
      "ep": 3816,
      "more": 3817,
      "bound": 3818,
      "2014": 3819,
      "2017": 3820,
      "icating": 3821,
      "need": 3822,
      "continuous": 3823,
      "ize": 3824,
      "sw": 3825,
      "san": 3826,
      "ть": 3827,
      "ili": 3828,
      "dark": 3829,
      "ier": 3830,
      "scal": 3831,
      "τα": 3832,
      "ont": 3833,
      "them": 3834,
      "foc": 3835,
      "employees": 3836,
      "handling": 3837,
      "unix": 3838,
      "health": 3839,
      "socket": 3840,
      "2009": 3841,
      "device": 3842,
      "architecture": 3843,
      "har": 3844,
      "mob": 3845,
      "coun": 3846,
      "###": 3847,
      "traditional": 3848,
      "99": 3849,
      "cert": 3850,
      "finding": 3851,
      "older": 3852,
      "kan": 3853,
      "lan": 3854,
      "comput": 3855,
      "techn": 3856,
      "2013": 3857,
      "ftp": 3858,
      "ciph": 3859,
      "particular": 3860,
      "objectives": 3861,
      "pipeline": 3862,
      "field": 3863,
      "ream": 3864,
      "exist": 3865,
      "vulnerable": 3866,
      "help": 3867,
      "t10": 3868,
      "aging": 3869,
      "protoco": 3870,
      "mysql": 3871,
      "very": 3872,
      "ational": 3873,
      "osint": 3874,
      "digital": 3875,
      "records": 3876,
      "gap": 3877,
      "ster": 3878,
      "trick": 3879,
      "close": 3880,
      "2005": 3881,
      "virt": 3882,
      "frameworks": 3883,
      "wiki": 3884,
      "(e": 3885,
      "sect": 3886,
      "alter": 3887,
      "exploiting": 3888,
      "learning": 3889,
      "send": 3890,
      "protocols": 3891,
      "))": 3892,
      "clean": 3893,
      "large": 3894,
      "(`": 3895,
      "07": 3896,
      "jan": 3897,
      "ra": 3898,
      "κα": 3899,
      "progress": 3900,
      "render": 3901,
      "procedure": 3902,
      "alt": 3903,
      "nointeractive": 3904,
      "aka": 3905,
      "each": 3906,
      "sin": 3907,
      "tab": 3908,
      "vol": 3909,
      "restore": 3910,
      "authenticated)": 3911,
      "technical": 3912,
      "49": 3913,
      "\\\"": 3914,
      "eas": 3915,
      "men": 3916,
      "ny": 3917,
      "tcp": 3918,
      "start": 3919,
      "csv": 3920,
      "than": 3921,
      "critical:": 3922,
      "diff": 3923,
      "eval": 3924,
      "cryptograph": 3925,
      "spoofed": 3926,
      "gover": 3927,
      "nor": 3928,
      "eth": 3929,
      "condit": 3930,
      "ural": 3931,
      "servers": 3932,
      "certif": 3933,
      "uc": 3934,
      "vm": 3935,
      "cyg": 3936,
      "blocking": 3937,
      "ception": 3938,
      "fix": 3939,
      "communicating": 3940,
      "(cs": 3941,
      "4)": 3942,
      "reading": 3943,
      "ase": 3944,
      "ben": 3945,
      "sk": 3946,
      "tick": 3947,
      "ți": 3948,
      "repos": 3949,
      "strong": 3950,
      "mapped": 3951,
      "initiate": 3952,
      "virtual": 3953,
      "\":": 3954,
      "43": 3955,
      "bed": 3956,
      "git": 3957,
      "table": 3958,
      "arr": 3959,
      "defend": 3960,
      "discovered": 3961,
      "scanning": 3962,
      "izations": 3963,
      "govern": 3964,
      "${": 3965,
      "(un": 3966,
      "hid": 3967,
      "zu": 3968,
      "privileges": 3969,
      "sha": 3970,
      "method": 3971,
      "effective": 3972,
      "will": 3973,
      "та": 3974,
      "plan": 3975,
      "metad": 3976,
      "repositor": 3977,
      "aj": 3978,
      "fully": 3979,
      "methods": 3980,
      "42": 3981,
      "про": 3982,
      "logic": 3983,
      "iocs": 3984,
      "properly": 3985,
      "tt": 3986,
      "agent": 3987,
      "2010": 3988,
      "understand": 3989,
      "mobile": 3990,
      "kub": 3991,
      "ler": 3992,
      "ison": 3993,
      "sty": 3994,
      "revo": 3995,
      "deli": 3996,
      "2024": 3997,
      "untuk": 3998,
      "persistence": 3999,
      "must": 4000,
      "sn": 4001,
      "și": 4002,
      "σε": 4003,
      "ago": 4004,
      "══════════════════": 4005,
      "particularly": 4006,
      "fam": 4007,
      "uri": 4008,
      "ada": 4009,
      "threats": 4010,
      "event": 4011,
      "packet": 4012,
      "metadata": 4013,
      "revoke": 4014,
      ");": 4015,
      "cir": 4016,
      "ery": 4017,
      "ament": 4018,
      "first": 4019,
      "involv": 4020,
      "parameters": 4021,
      "══════════════════════════════════════════════════": 4022,
      "03": 4023,
      "08": 4024,
      "ung": 4025,
      "dynamic": 4026,
      "56": 4027,
      "insider": 4028,
      "ernet": 4029,
      "support": 4030,
      "overview:": 4031,
      "measures": 4032,
      "kubernet": 4033,
      "kubernetes": 4034,
      "ui": 4035,
      "ups": 4036,
      "ustr": 4037,
      "cho": 4038,
      "ssrf": 4039,
      "because": 4040,
      "develop": 4041,
      "exe": 4042,
      "look": 4043,
      "une": 4044,
      "diam": 4045,
      "alerting": 4046,
      "organization": 4047,
      "gateway": 4048,
      "ein": 4049,
      "ов": 4050,
      "quant": 4051,
      "networks": 4052,
      "corruption": 4053,
      "includes": 4054,
      "bank": 4055,
      "main": 4056,
      "leverage": 4057,
      "references:": 4058,
      "home": 4059,
      "exp": 4060,
      "igning": 4061,
      "ility": 4062,
      "organizations": 4063,
      "%00%00": 4064,
      "registered": 4065,
      "`](http:": 4066,
      "extensive": 4067,
      "legacy": 4068,
      "financ": 4069,
      "diamond": 4070,
      "για": 4071,
      "unknown": 4072,
      "establ": 4073,
      "your": 4074,
      "ла": 4075,
      "component": 4076,
      "spf": 4077,
      "`s": 4078,
      "entity": 4079,
      "asp?": 4080,
      "backdo": 4081,
      "sender": 4082,
      "panel": 4083,
      "kerber": 4084,
      "fet": 4085,
      "land": 4086,
      "princ": 4087,
      "vict": 4088,
      "identity": 4089,
      "sessions": 4090,
      "surface:": 4091,
      "argument": 4092,
      "financial": 4093,
      "`p": 4094,
      "gh": 4095,
      "ming": 4096,
      "zing": 4097,
      "test:": 4098,
      "attribution": 4099,
      "distributed": 4100,
      "gain": 4101,
      "pect": 4102,
      "debug": 4103,
      "resh": 4104,
      "vector": 4105,
      "registrar": 4106,
      "global": 4107,
      "τη": 4108,
      "dmarc": 4109,
      "(\"": 4110,
      "sist": 4111,
      "ting": 4112,
      "ition": 4113,
      "combin": 4114,
      "both": 4115,
      "shop": 4116,
      "stealer": 4117,
      "analytics": 4118,
      "dkim": 4119,
      "æ": 4120,
      "about": 4121,
      "project": 4122,
      "victim": 4123,
      "aix": 4124,
      "cti": 4125,
      "enumerated": 4126,
      "connect": 4127,
      "depend": 4128,
      "ality": 4129,
      "output": 4130,
      "share": 4131,
      "cpu": 4132,
      "connections": 4133,
      "harv": 4134,
      "5000": 4135,
      "86": 4136,
      "verse": 4137,
      "2012": 4138,
      "portsw": 4139,
      "integration": 4140,
      "registry": 4141,
      "ка": 4142,
      "methodologies": 4143,
      "portswigger": 4144,
      "mak": 4145,
      "issue": 4146,
      "duction": 4147,
      "actor:": 4148,
      "discovery": 4149,
      "random": 4150,
      "simple": 4151,
      "adobe": 4152,
      "06": 4153,
      "`，": 4154,
      "most": 4155,
      "circum": 4156,
      "gall": 4157,
      "constr": 4158,
      "then": 4159,
      "ime": 4160,
      "industr": 4161,
      "ji": 4162,
      "let": 4163,
      "wy": 4164,
      "ży": 4165,
      "го": 4166,
      "ators": 4167,
      "brid": 4168,
      "centr": 4169,
      "resources": 4170,
      "fund": 4171,
      "mat": 4172,
      "мо": 4173,
      "aligns": 4174,
      "8080": 4175,
      "single": 4176,
      "hp": 4177,
      "tro": 4178,
      "tag": 4179,
      "counter": 4180,
      "cryptographic": 4181,
      "a)": 4182,
      "aim": 4183,
      "bb": 4184,
      "din": 4185,
      "pc": 4186,
      "vpn": 4187,
      "lection": 4188,
      "fingerprinted": 4189,
      "gnu": 4190,
      "|wstg": 4191,
      "findings:": 4192,
      "asset": 4193,
      "scripts": 4194,
      "brute": 4195,
      "кори": 4196,
      "processes": 4197,
      "certain": 4198,
      "objectives:": 4199,
      "car": 4200,
      "|id": 4201,
      "als": 4202,
      "vert": 4203,
      "sti": 4204,
      "camer": 4205,
      "artic": 4206,
      "office": 4207,
      "cut": 4208,
      "uf": 4209,
      "uży": 4210,
      "zar": 4211,
      "zip": 4212,
      "self": 4213,
      "website": 4214,
      "poll": 4215,
      "element": 4216,
      "akan": 4217,
      "schem": 4218,
      "legal": 4219,
      "certificate": 4220,
      "æã": 4221,
      "gallery": 4222,
      "mb": 4223,
      "με": 4224,
      "pour": 4225,
      "coll": 4226,
      "configured": 4227,
      "crypt": 4228,
      "represents": 4229,
      "number": 4230,
      "quantum": 4231,
      "hack": 4232,
      "sand": 4233,
      "tam": 4234,
      "pop": 4235,
      "2020": 4236,
      "flash": 4237,
      "inputs": 4238,
      "2023": 4239,
      "center": 4240,
      "rfi": 4241,
      "son": 4242,
      "atures": 4243,
      "ico": 4244,
      "`man": 4245,
      "gin": 4246,
      "pages": 4247,
      "wild": 4248,
      "also": 4249,
      "comment": 4250,
      "technologies": 4251,
      "2015": 4252,
      "safe": 4253,
      "following": 4254,
      "anomal": 4255,
      "cf": 4256,
      "pur": 4257,
      "ен": 4258,
      "stream": 4259,
      "serial": 4260,
      "call": 4261,
      "option": 4262,
      "cygwin": 4263,
      "><": 4264,
      "`w": 4265,
      "curs": 4266,
      "asion": 4267,
      "trigger": 4268,
      "wordpress": 4269,
      "2019": 4270,
      "black": 4271,
      "library": 4272,
      "administration": 4273,
      "05": 4274,
      "p)": 4275,
      "τι": 4276,
      "plit": 4277,
      "pho": 4278,
      "configs": 4279,
      "reflect": 4280,
      "(de": 4281,
      "recent": 4282,
      "type:": 4283,
      "assist": 4284,
      "automation": 4285,
      "langu": 4286,
      "bi": 4287,
      "emet": 4288,
      "implementation": 4289,
      "integrity": 4290,
      "extension": 4291,
      "ou": 4292,
      "targeted": 4293,
      "credent": 4294,
      "correl": 4295,
      "make": 4296,
      "pdf": 4297,
      "character": 4298,
      "02": 4299,
      "ga": 4300,
      "ай": 4301,
      "recover": 4302,
      "fox": 4303,
      "pract": 4304,
      "descript": 4305,
      "playbook": 4306,
      "78": 4307,
      "ration": 4308,
      "node": 4309,
      "lev": 4310,
      "evasion": 4311,
      "schedul": 4312,
      "wiresh": 4313,
      "modeling": 4314,
      "models": 4315,
      "dll": 4316,
      "she": 4317,
      "}`": 4318,
      "ис": 4319,
      "ли": 4320,
      "уйте": 4321,
      "reve": 4322,
      "ctions": 4323,
      "usage": 4324,
      "case": 4325,
      "location": 4326,
      "encoding": 4327,
      "rendering": 4328,
      "(authenticated)": 4329,
      "enance": 4330,
      "defin": 4331,
      "blue": 4332,
      "enabling": 4333,
      "ghsa": 4334,
      "wireshark": 4335,
      "blo": 4336,
      "embed": 4337,
      "modern": 4338,
      "architectural": 4339,
      "maintain": 4340,
      "pentru": 4341,
      "pentesting": 4342,
      "και": 4343,
      "l`": 4344,
      "rt": 4345,
      "ów": 4346,
      "사용": 4347,
      "postg": 4348,
      "deception": 4349,
      "identified:": 4350,
      "variable": 4351,
      "rce)": 4352,
      "chrome": 4353,
      "development": 4354,
      "ded": 4355,
      "fü": 4356,
      "gn": 4357,
      "nel": 4358,
      "wer": 4359,
      "за": 4360,
      "owasp": 4361,
      "regul": 4362,
      "usual": 4363,
      "clust": 4364,
      "telemet": 4365,
      "hidden": 4366,
      "[finding": 4367,
      "tor": 4368,
      "urn": 4369,
      "commer": 4370,
      "transfer": 4371,
      "freebsd": 4372,
      "fundament": 4373,
      "big": 4374,
      "до": 4375,
      "습니다": 4376,
      "parameterized": 4377,
      "fast": 4378,
      "processing": 4379,
      "requirements": 4380,
      "telemetry": 4381,
      "ek": 4382,
      "lif": 4383,
      "sites": 4384,
      "repl": 4385,
      "exer": 4386,
      "contr": 4387,
      "pol": 4388,
      "guest": 4389,
      "take": 4390,
      "'ãæã": 4391,
      "easy": 4392,
      "8443": 4393,
      "fu": 4394,
      "v1": 4395,
      "ки": 4396,
      "porate": 4397,
      "ibility": 4398,
      "crash)": 4399,
      "modify": 4400,
      "trickbot": 4401,
      "style": 4402,
      "[finding]": 4403,
      "09": 4404,
      "що": 4405,
      "ermin": 4406,
      "poison": 4407,
      "media": 4408,
      "ugg": 4409,
      "fundamental": 4410,
      "d`": 4411,
      "race": 4412,
      "αρ": 4413,
      "sequ": 4414,
      "illa": 4415,
      "repositories": 4416,
      "(rce)": 4417,
      "kas": 4418,
      "s`": 4419,
      "sco": 4420,
      "task": 4421,
      "ale": 4422,
      "sole": 4423,
      "2011": 4424,
      "suc": 4425,
      "firefox": 4426,
      "maxtime": 4427,
      "wildcard": 4428,
      "pen": 4429,
      "бо": 4430,
      "可以": 4431,
      "runtime": 4432,
      "objective": 4433,
      "mechanism": 4434,
      "ticket": 4435,
      "\")": 4436,
      "gun": 4437,
      "mss": 4438,
      "命令": 4439,
      "research": 4440,
      "exce": 4441,
      "forc": 4442,
      "ldap": 4443,
      "tenant": 4444,
      "significantly": 4445,
      "fal": 4446,
      "ja": 4447,
      "mer": 4448,
      "lazar": 4449,
      "identifying": 4450,
      "exerci": 4451,
      "spr": 4452,
      "same": 4453,
      "ση": 4454,
      "фай": 4455,
      "0000": 4456,
      "maintaining": 4457,
      "sanitize": 4458,
      "backdoor": 4459,
      "postgre": 4460,
      "66": 4461,
      "hat": 4462,
      "ise": 4463,
      "zilla": 4464,
      "many": 4465,
      "cape": 4466,
      "guide": 4467,
      "objects": 4468,
      "stat`": 4469,
      "architectures": 4470,
      "hybrid": 4471,
      "performance": 4472,
      "types": 4473,
      "[state": 4474,
      "[current": 4475,
      "dro": 4476,
      "세요": 4477,
      "calend": 4478,
      "exposing": 4479,
      "tool]": 4480,
      "modul": 4481,
      "creation": 4482,
      "beta": 4483,
      "since": 4484,
      "lazarus": 4485,
      "postgresql": 4486,
      "[state]": 4487,
      "bur": 4488,
      "cm": 4489,
      "f)": 4490,
      "ts": 4491,
      "cker": 4492,
      "2004": 4493,
      "colum": 4494,
      "firmware": 4495,
      "xxe": 4496,
      "evalu": 4497,
      "04": 4498,
      "demon": 4499,
      "src": 4500,
      "tun": 4501,
      "t15": 4502,
      "who": 4503,
      "文件": 4504,
      "exchange": 4505,
      "tek": 4506,
      "sync": 4507,
      "signature": 4508,
      "approaches": 4509,
      "hypo": 4510,
      "kerberos": 4511,
      "dist": 4512,
      "kon": 4513,
      "ov": 4514,
      "webkit": 4515,
      "super": 4516,
      "campaign:": 4517,
      "normal": 4518,
      "understanding": 4519,
      "demonstr": 4520,
      "ez": 4521,
      "nl": 4522,
      "escape": 4523,
      "chat": 4524,
      "omin": 4525,
      "there": 4526,
      "unauthenticated": 4527,
      "actions": 4528,
      "functionality": 4529,
      "integrating": 4530,
      "(4)": 4531,
      "`d": 4532,
      "aring": 4533,
      "role": 4534,
      "dot": 4535,
      "bust": 4536,
      "channel": 4537,
      "primary": 4538,
      "central": 4539,
      "корист": 4540,
      "language": 4541,
      "65": 4542,
      "vr": 4543,
      "unk": 4544,
      "die": 4545,
      "termin": 4546,
      "display": 4547,
      "validate": 4548,
      "2022": 4549,
      "pipelines": 4550,
      "deployment": 4551,
      "\\\\n\\\\n": 4552,
      "princi": 4553,
      "calendar": 4554,
      "air": 4555,
      "bind": 4556,
      "d'": 4557,
      "tact": 4558,
      "imperson": 4559,
      "lockout": 4560,
      "integer": 4561,
      "fake": 4562,
      "groups": 4563,
      "xxx": 4564,
      "daemon": 4565,
      "customer": 4566,
      "ере": 4567,
      "article": 4568,
      "ddos": 4569,
      "χρ": 4570,
      "합니다": 4571,
      "determin": 4572,
      "relations": 4573,
      "leveraging": 4574,
      "obtain": 4575,
      "bar": 4576,
      "ves": 4577,
      "yang": 4578,
      "ле": 4579,
      "’s": 4580,
      "plik": 4581,
      "env": 4582,
      "fich": 4583,
      "ended": 4584,
      "accessible": 4585,
      "nels": 4586,
      "azure": 4587,
      "═══════════════════════════════════════════════════": 4588,
      "rap": 4589,
      "ward": 4590,
      "ει": 4591,
      "ре": 4592,
      "aml": 4593,
      "phone": 4594,
      "cgi'": 4595,
      "tools:": 4596,
      "unique": 4597,
      "join": 4598,
      "scheduled": 4599,
      "%20": 4600,
      "`h": 4601,
      "ві": 4602,
      "reverse": 4603,
      "dbs": 4604,
      "loader": 4605,
      "access:": 4606,
      "driven": 4607,
      "leakage": 4608,
      "cheat": 4609,
      "histor": 4610,
      "photo": 4611,
      "sheet": 4612,
      "reveal": 4613,
      "'id'": 4614,
      "<script>": 4615,
      "ní": 4616,
      "ди": 4617,
      "не": 4618,
      "ня": 4619,
      "online": 4620,
      "edge": 4621,
      "aci": 4622,
      "targets": 4623,
      "true": 4624,
      "upal": 4625,
      "analyzing": 4626,
      "hosts": 4627,
      "drupal": 4628,
      "simul": 4629,
      "creating": 4630,
      "attempts": 4631,
      "mssql": 4632,
      "modules": 4633,
      "`set": 4634,
      "ien": 4635,
      "rd": 4636,
      "파일": 4637,
      "robust": 4638,
      "manage": 4639,
      "mining": 4640,
      "space": 4641,
      "grade": 4642,
      "2018": 4643,
      "virus": 4644,
      "emails": 4645,
      "static": 4646,
      "commerce": 4647,
      "88": 4648,
      "bers": 4649,
      "hip": 4650,
      "lu": 4651,
      "mid": 4652,
      "oci": 4653,
      "copy": 4654,
      "power": 4655,
      "conditions": 4656,
      "(s": 4657,
      "icient": 4658,
      "mozilla": 4659,
      "docker": 4660,
      "recon:": 4661,
      "bear": 4662,
      "istics": 4663,
      "affect": 4664,
      "own": 4665,
      "structured": 4666,
      "industrial": 4667,
      "collab": 4668,
      "120": 4669,
      "cach": 4670,
      "gl": 4671,
      "ka": 4672,
      "thes": 4673,
      "teams": 4674,
      "notification": 4675,
      "intel": 4676,
      "associ": 4677,
      "corporate": 4678,
      "variant": 4679,
      "circumst": 4680,
      "poisoning": 4681,
      "success": 4682,
      "%0": 4683,
      "59": 4684,
      "nes": 4685,
      "при": 4686,
      "ins": 4687,
      "come": 4688,
      "try": 4689,
      "aud": 4690,
      "changes": 4691,
      "**alt": 4692,
      "publicly": 4693,
      "siem": 4694,
      "defenses": 4695,
      "messages": 4696,
      "administrator": 4697,
      "obtained": 4698,
      "history": 4699,
      "gap:": 4700,
      "reflected": 4701,
      "circumstances": 4702,
      "ape": 4703,
      "да": 4704,
      "nosql": 4705,
      "tial": 4706,
      "2000": 4707,
      "berkas": 4708,
      "prompt": 4709,
      "reless": 4710,
      "\\\\\\\"": 4711,
      "encrypted)": 4712,
      "ман": 4713,
      "(unencrypted)": 4714,
      "false": 4715,
      "\">": 4716,
      "upor": 4717,
      "arily": 4718,
      "channels": 4719,
      "drive": 4720,
      "fingerprints": 4721,
      "wireless": 4722,
      "anomaly": 4723,
      "'`": 4724,
      "1:": 4725,
      "gol": 4726,
      "meng": 4727,
      "sun": 4728,
      "tp": 4729,
      "있습니다": 4730,
      "section": 4731,
      "apis": 4732,
      "amp": 4733,
      "intr": 4734,
      "syn": 4735,
      "events": 4736,
      "special": 4737,
      "cryptomin": 4738,
      "tamper": 4739,
      "(aka": 4740,
      "`su": 4741,
      "jack": 4742,
      "mass": 4743,
      "sit": 4744,
      "ws": 4745,
      "ando": 4746,
      "resili": 4747,
      "minim": 4748,
      "c:": 4749,
      "css": 4750,
      "live": 4751,
      "mag": 4752,
      "som": 4753,
      "tak": 4754,
      "yaml": 4755,
      "ρο": 4756,
      "express": 4757,
      "logging": 4758,
      "usr": 4759,
      "doub": 4760,
      "auto": 4761,
      "cli": 4762,
      "confirm": 4763,
      "break": 4764,
      "169": 4765,
      "wrap": 4766,
      "використ": 4767,
      "(csrf": 4768,
      "(de)": 4769,
      "`x": 4770,
      "fre": 4771,
      "hr": 4772,
      "ied": 4773,
      "images": 4774,
      "utions": 4775,
      "private": 4776,
      "rupt": 4777,
      "occurs": 4778,
      "cipher": 4779,
      "government": 4780,
      "(d": 4781,
      "53": 4782,
      "[]": 4783,
      "job": 4784,
      "conduct": 4785,
      "sources": 4786,
      "pattern": 4787,
      "layer": 4788,
      "254": 4789,
      "graphql": 4790,
      "leaked": 4791,
      "controlled": 4792,
      "establish": 4793,
      "principles": 4794,
      "(csrf)": 4795,
      "(p": 4796,
      "best": 4797,
      "pg": 4798,
      "στε": 4799,
      "ми": 4800,
      "eted": 4801,
      "edr": 4802,
      "abb": 4803,
      "comments": 4804,
      "optim": 4805,
      "collection": 4806,
      "documents": 4807,
      "personal": 4808,
      "scale": 4809,
      "deliver": 4810,
      "sandbox": 4811,
      "wan": 4812,
      "σι": 4813,
      "atory": 4814,
      "rest": 4815,
      "enc": 4816,
      "usions": 4817,
      "company": 4818,
      "publ": 4819,
      "guard": 4820,
      "authorization": 4821,
      "provides": 4822,
      "grep`": 4823,
      "focus": 4824,
      "defenders": 4825,
      "combining": 4826,
      "icode": 4827,
      "\"http:": 4828,
      "2+": 4829,
      "5)": 4830,
      "ін": 4831,
      "inher": 4832,
      "unicode": 4833,
      "foo": 4834,
      "trac": 4835,
      "sqlite": 4836,
      "parsing": 4837,
      "коман": 4838,
      "ways": 4839,
      "political": 4840,
      "tuning": 4841,
      "thesis": 4842,
      "capt": 4843,
      "pas": 4844,
      "tex": 4845,
      "μο": 4846,
      "ці": 4847,
      "ines": 4848,
      "essen": 4849,
      "pose": 4850,
      "prof": 4851,
      "tri": 4852,
      "faces": 4853,
      "evil": 4854,
      "logins": 4855,
      "player": 4856,
      "variables": 4857,
      "danger": 4858,
      "spoofing": 4859,
      "ciphers": 4860,
      "family": 4861,
      "rapid": 4862,
      "resilience": 4863,
      "dz": 4864,
      "iver": 4865,
      "m)": 4866,
      "pag": 4867,
      "λο": 4868,
      "editor": 4869,
      "implementations": 4870,
      "activities": 4871,
      "boot": 4872,
      "privacy": 4873,
      "incor": 4874,
      "smb": 4875,
      "strategy": 4876,
      "primarily": 4877,
      "failure": 4878,
      "explain": 4879,
      "fetch": 4880,
      "description": 4881,
      "`t": 4882,
      "e`": 4883,
      "light": 4884,
      "ón": 4885,
      "си": 4886,
      "ation:": 4887,
      "world": 4888,
      "workflow": 4889,
      "ensure": 4890,
      "suff": 4891,
      "leading": 4892,
      "trojan": 4893,
      "correlation": 4894,
      "nesses": 4895,
      "double": 4896,
      "dangerous": 4897,
      "lang": 4898,
      "np": 4899,
      "rub": 4900,
      "wiz": 4901,
      "ener": 4902,
      "ently": 4903,
      "construct": 4904,
      "tho": 4905,
      "utf": 4906,
      "apt29": 4907,
      "respond": 4908,
      "suite": 4909,
      "master": 4910,
      "contains": 4911,
      "weaknesses": 4912,
      "modification": 4913,
      "'t": 4914,
      "1`": 4915,
      "ire": 4916,
      "pid": 4917,
      "atau": 4918,
      "front": 4919,
      "general": 4920,
      "suites": 4921,
      "readme": 4922,
      "return": 4923,
      "smart": 4924,
      "generation": 4925,
      "shared": 4926,
      "gunakan": 4927,
      "ric": 4928,
      "wide": 4929,
      "зна": 4930,
      "cept": 4931,
      "quick": 4932,
      "perint": 4933,
      "values": 4934,
      "saas": 4935,
      "designed": 4936,
      "pollution": 4937,
      "файл": 4938,
      "'search": 4939,
      "57": 4940,
      "`r": 4941,
      "fus": 4942,
      "mim": 4943,
      "wid": 4944,
      "ys": 4945,
      "ερ": 4946,
      "usa": 4947,
      "udp": 4948,
      "ieve": 4949,
      "descri": 4950,
      "points": 4951,
      "unnel": 4952,
      "various": 4953,
      "objective:": 4954,
      "collabor": 4955,
      "perintah": 4956,
      "mu": 4957,
      "mir": 4958,
      "next": 4959,
      "μα": 4960,
      "во": 4961,
      "orch": 4962,
      "stru": 4963,
      "obfus": 4964,
      "scape": 4965,
      "markets": 4966,
      "fuz": 4967,
      "tactics": 4968,
      "uporab": 4969,
      "використов": 4970,
      "(select": 4971,
      "\\x": 4972,
      "cas": 4973,
      "echo": 4974,
      "frequ": 4975,
      "nat": 4976,
      "wp": 4977,
      "ува": 4978,
      "esp": 4979,
      "pod": 4980,
      "istic": 4981,
      "designing": 4982,
      "sharing": 4983,
      "curl": 4984,
      "communications": 4985,
      "alias": 4986,
      "`，`": 4987,
      "aa": 4988,
      "ky": 4989,
      "l'": 4990,
      "ετε": 4991,
      "inside": 4992,
      "nove": 4993,
      "folo": 4994,
      "templat": 4995,
      "associated": 4996,
      "cryptomining": 4997,
      "tm": 4998,
      "tunnel": 4999,
      "ні": 5000,
      "begin": 5001,
      "nie": 5002,
      "breach:": 5003,
      "path'": 5004,
      "controller": 5005,
      "characters": 5006,
      "bounds": 5007,
      "drop": 5008,
      "ruby": 5009,
      "obfusc": 5010,
      "kl": 5011,
      "pu": 5012,
      "ring": 5013,
      "rics": 5014,
      "vide": 5015,
      "x86": 5016,
      "alid": 5017,
      "fort": 5018,
      "emph": 5019,
      "ami": 5020,
      "irix": 5021,
      "2002": 5022,
      "overflows": 5023,
      "name:": 5024,
      "status": 5025,
      "camera": 5026,
      "anomalies": 5027,
      "für": 5028,
      "takeover": 5029,
      "exercise": 5030,
      "profess": 5031,
      "<?": 5032,
      "ave": 5033,
      "rat": 5034,
      "two": 5035,
      "wie": 5036,
      "'ã": 5037,
      "consist": 5038,
      "lot": 5039,
      "improper": 5040,
      "unusual": 5041,
      "containing": 5042,
      "buil": 5043,
      "hosting": 5044,
      "links": 5045,
      "leverages": 5046,
      "package": 5047,
      "recovery": 5048,
      "professional": 5049,
      "68": 5050,
      ">`": 5051,
      "categ": 5052,
      "jte": 5053,
      "ng": 5054,
      "př": 5055,
      "în": 5056,
      "επ": 5057,
      "inspe": 5058,
      "production": 5059,
      "quest": 5060,
      "itiz": 5061,
      "docs": 5062,
      "updat": 5063,
      "ift": 5064,
      "features": 5065,
      "guid": 5066,
      "binary": 5067,
      "classified": 5068,
      "solutions": 5069,
      "typically": 5070,
      "volum": 5071,
      "schema": 5072,
      "orchest": 5073,
      "novell": 5074,
      "duce": 5075,
      "plus": 5076,
      "consum": 5077,
      "adapt": 5078,
      "versity": 5079,
      "directly": 5080,
      "**:": 5081,
      "```sql": 5082,
      "emphas": 5083,
      "'ãâ": 5084,
      "58": 5085,
      "cz": 5086,
      "dal": 5087,
      "tw": 5088,
      "tit": 5089,
      "už": 5090,
      "ές": 5091,
      "item": 5092,
      "enforc": 5093,
      "forward": 5094,
      "disk": 5095,
      "ibute": 5096,
      "payment": 5097,
      "forensics": 5098,
      "mitigations": 5099,
      "brand": 5100,
      "hijack": 5101,
      "products": 5102,
      "льз": 5103,
      "мож": 5104,
      "hypothesis": 5105,
      "%2": 5106,
      "cc": 5107,
      "f`": 5108,
      "jak": 5109,
      "leng": 5110,
      "ri": 5111,
      "v`": 5112,
      "disrupt": 5113,
      "польз": 5114,
      "geopolitical": 5115,
      "fields": 5116,
      "healthcare": 5117,
      "category": 5118,
      "predi": 5119,
      "xsl": 5120,
      "{\"": 5121,
      "byte": 5122,
      "invo": 5123,
      "izes": 5124,
      "reference": 5125,
      "administrative": 5126,
      "computing": 5127,
      "harvesting": 5128,
      "aus": 5129,
      "gy": 5130,
      "u`": 5131,
      "wat": 5132,
      "、`": 5133,
      "aro": 5134,
      "clone": 5135,
      "claim": 5136,
      "mitigate": 5137,
      "127": 5138,
      "feature": 5139,
      "```powershell": 5140,
      "alert(1)": 5141,
      "pected": 5142,
      "demonstrated": 5143,
      "length": 5144,
      "*`": 5145,
      "dc": 5146,
      "fusion": 5147,
      "kom": 5148,
      "αν": 5149,
      "する": 5150,
      "place": 5151,
      "export": 5152,
      "asci": 5153,
      "probl": 5154,
      "wordlist": 5155,
      "scre": 5156,
      "step": 5157,
      "writ": 5158,
      "accept": 5159,
      "enables": 5160,
      "botnets": 5161,
      "addressing": 5162,
      "sectors": 5163,
      "involves": 5164,
      "лад": 5165,
      "scope": 5166,
      "77": 5167,
      "band": 5168,
      "ote": 5169,
      "piv": 5170,
      "tables": 5171,
      "εν": 5172,
      "ів": 5173,
      "イル": 5174,
      "ony": 5175,
      "reports": 5176,
      "filen": 5177,
      "svg": 5178,
      "shad": 5179,
      "effic": 5180,
      "iveness": 5181,
      "banking": 5182,
      "countermeasures": 5183,
      "guestbook": 5184,
      "determine": 5185,
      "`un": 5186,
      "`str": 5187,
      "`select": 5188,
      "don": 5189,
      "gers": 5190,
      "just": 5191,
      "mtr": 5192,
      "p`": 5193,
      "rig": 5194,
      "raz": 5195,
      "tur": 5196,
      "ор": 5197,
      "exper": 5198,
      "icon": 5199,
      "db2": 5200,
      "ider": 5201,
      "amaz": 5202,
      "being": 5203,
      "invalid": 5204,
      "izing": 5205,
      "aspx": 5206,
      "uniq": 5207,
      "regulatory": 5208,
      "sufficient": 5209,
      "54": 5210,
      "bes": 5211,
      "every": 5212,
      "де": 5213,
      "ся": 5214,
      "ファ": 5215,
      "restri": 5216,
      "another": 5217,
      "console": 5218,
      "sta": 5219,
      "pointer": 5220,
      "tiv": 5221,
      "2003": 5222,
      "html)": 5223,
      "presents": 5224,
      "backend": 5225,
      "algorithms": 5226,
      "```javascript": 5227,
      "saf": 5228,
      "examples": 5229,
      "leaks": 5230,
      "occur": 5231,
      "cves:": 5232,
      "`sort": 5233,
      "embedded": 5234,
      "situ": 5235,
      "pivot": 5236,
      "';": 5237,
      "`。": 5238,
      "hn": 5239,
      "hor": 5240,
      "hal": 5241,
      "συ": 5242,
      "itch": 5243,
      "ica": 5244,
      "emul": 5245,
      "unch": 5246,
      "contents": 5247,
      "avo": 5248,
      "facil": 5249,
      "perl": 5250,
      "misconfig": 5251,
      "deskto": 5252,
      "misconfigurations": 5253,
      "ftpd": 5254,
      "ready": 5255,
      "csf": 5256,
      "prototype": 5257,
      "university": 5258,
      "methodology)": 5259,
      "visual": 5260,
      "extensions": 5261,
      "results": 5262,
      "sector": 5263,
      "delivery": 5264,
      "harvest": 5265,
      "constraint": 5266,
      "ファイル": 5267,
      "%3": 5268,
      "6)": 5269,
      "lub": 5270,
      "ικ": 5271,
      "ων": 5272,
      "ink": 5273,
      "atically": 5274,
      "secon": 5275,
      "convert": 5276,
      "fram": 5277,
      "manual": 5278,
      "evade": 5279,
      "metrics": 5280,
      "awk": 5281,
      "ground": 5282,
      "methodology:": 5283,
      "methodology](#": 5284,
      "base64": 5285,
      "introdu": 5286,
      "uggling": 5287,
      "burp": 5288,
      "essential": 5289,
      "використовуйте": 5290,
      "(r": 5291,
      "0x": 5292,
      "300": 5293,
      "ef": 5294,
      "iers": 5295,
      "uch": 5296,
      "war": 5297,
      "檔案": 5298,
      "nov": 5299,
      "abc": 5300,
      "pha": 5301,
      "decis": 5302,
      "ference": 5303,
      "csrf": 5304,
      "statist": 5305,
      "505": 5306,
      "attribute": 5307,
      "capability": 5308,
      "effectiveness": 5309,
      "ttps": 5310,
      "mingw": 5311,
      "использ": 5312,
      "tampering": 5313,
      "publish": 5314,
      "ascii": 5315,
      "(5)": 5316,
      "eco": 5317,
      "mt": 5318,
      "exh": 5319,
      "thing": 5320,
      "asi": 5321,
      "propag": 5322,
      "workload": 5323,
      "dio": 5324,
      "parser": 5325,
      "miner": 5326,
      "timest": 5327,
      "dra": 5328,
      "important": 5329,
      "involving": 5330,
      "expand": 5331,
      "την": 5332,
      "problem": 5333,
      "52": 5334,
      "67": 5335,
      "95": 5336,
      "`<": 5337,
      "deng": 5338,
      "factors": 5339,
      "match": 5340,
      "ны": 5341,
      "rev": 5342,
      "rele": 5343,
      "reas": 5344,
      "cha": 5345,
      "crm": 5346,
      "cour": 5347,
      "proactive": 5348,
      "quiv": 5349,
      "intended": 5350,
      "logon": 5351,
      "fraud": 5352,
      "analyze": 5353,
      "misconfiguration:": 5354,
      "launch": 5355,
      "tools)": 5356,
      "transport": 5357,
      "handle": 5358,
      "maintenance": 5359,
      "ποι": 5360,
      "lifec": 5361,
      "excel": 5362,
      "wrapper": 5363,
      "&#": 5364,
      "($": 5365,
      "(b": 5366,
      "`b": 5367,
      "`diff": 5368,
      "b2": 5369,
      "lm": 5370,
      "pada": 5371,
      "例如": 5372,
      "inct": 5373,
      "reli": 5374,
      "stix": 5375,
      "tec": 5376,
      "craw": 5377,
      "track": 5378,
      "interpre": 5379,
      "nuke": 5380,
      "sett": 5381,
      "otet": 5382,
      "timing": 5383,
      "assign": 5384,
      "brie": 5385,
      "community": 5386,
      "ста": 5387,
      "strategic": 5388,
      "hells": 5389,
      "routers": 5390,
      "provider": 5391,
      "hashes": 5392,
      "introduction": 5393,
      "antivirus": 5394,
      "explor": 5395,
      "cluster": 5396,
      "σιμο": 5397,
      "video": 5398,
      "enforcement": 5399,
      "amazon": 5400,
      "lifecy": 5401,
      "98": 5402,
      "[portswigger": 5403,
      "dt": 5404,
      "dim": 5405,
      "ted": 5406,
      "zen": 5407,
      "â": 5408,
      "μέ": 5409,
      "це": 5410,
      "에서": 5411,
      "arm": 5412,
      "log4": 5413,
      "identifi": 5414,
      "director": 5415,
      "useful": 5416,
      "joom": 5417,
      "market": 5418,
      "distribution": 5419,
      "alternative": 5420,
      "array": 5421,
      "sistem": 5422,
      "desktop": 5423,
      "dengan": 5424,
      "\";": 5425,
      "(i": 5426,
      "70": 5427,
      "das": 5428,
      "ionage": 5429,
      "este": 5430,
      "verify": 5431,
      "stud": 5432,
      "emotet": 5433,
      "tele": 5434,
      "untu": 5435,
      "size": 5436,
      "checks": 5437,
      "encoded": 5438,
      "organizational": 5439,
      "practices": 5440,
      "espionage": 5441,
      "&a": 5442,
      "74": 5443,
      "here": 5444,
      "tu": 5445,
      "uro": 5446,
      "ether": 5447,
      "stol": 5448,
      "img": 5449,
      "target:": 5450,
      "union": 5451,
      "phase": 5452,
      "trig": 5453,
      "preserv": 5454,
      "ses:": 5455,
      "confusion": 5456,
      "sp2": 5457,
      "misconfigured": 5458,
      "broad": 5459,
      "introduce": 5460,
      "(csf)": 5461,
      "`watch": 5462,
      "distinct": 5463,
      "updates": 5464,
      "safari": 5465,
      "`sort`": 5466,
      "settings": 5467,
      "(c": 5468,
      "(cve": 5469,
      "`f": 5470,
      "dem": 5471,
      "spre": 5472,
      "że": 5473,
      "ло": 5474,
      "う。": 5475,
      "inser": 5476,
      "dec": 5477,
      "ties": 5478,
      "works": 5479,
      "ubuntu": 5480,
      "parse": 5481,
      "temporal": 5482,
      "limitations": 5483,
      "adversar": 5484,
      "alert(": 5485,
      "rency": 5486,
      "finance": 5487,
      "potentially": 5488,
      "tmux": 5489,
      "hypothesis:": 5490,
      "lifecycle": 5491,
      "bs": 5492,
      "dl": 5493,
      "ks": 5494,
      "ln": 5495,
      "tes": 5496,
      "itate": 5497,
      "dbms": 5498,
      "archiv": 5499,
      "manuf": 5500,
      "clear": 5501,
      "desk": 5502,
      "feh": 5503,
      "driver": 5504,
      "safet": 5505,
      "hips": 5506,
      "integrate": 5507,
      "developer": 5508,
      "actors:": 5509,
      "chron": 5510,
      "mapping:": 5511,
      "cfm": 5512,
      "'ãæã'ãâ": 5513,
      "inherent": 5514,
      "shadow": 5515,
      "crawl": 5516,
      "triggers": 5517,
      "flo": 5518,
      "gs": 5519,
      "hit": 5520,
      "ket": 5521,
      "yes": 5522,
      "ordin": 5523,
      "ara": 5524,
      "alle": 5525,
      "entry": 5526,
      "conver": 5527,
      "roll": 5528,
      "well": 5529,
      "poz": 5530,
      "phys": 5531,
      "przy": 5532,
      "calc": 5533,
      "threat:": 5534,
      "auf": 5535,
      "risks": 5536,
      "reader": 5537,
      "exfiltrate": 5538,
      "visibility": 5539,
      "someth": 5540,
      "second": 5541,
      "manufact": 5542,
      "safety": 5543,
      "(add": 5544,
      "1;": 5545,
      "500": 5546,
      "a2": 5547,
      "elect": 5548,
      "mut": 5549,
      "v3": 5550,
      "ου": 5551,
      "하는": 5552,
      "rely": 5553,
      "orm": 5554,
      "ano": 5555,
      "ements": 5556,
      "usb": 5557,
      "answer": 5558,
      "compil": 5559,
      "exposures": 5560,
      "enhance": 5561,
      "handler": 5562,
      "condition": 5563,
      "establishing": 5564,
      "landscape": 5565,
      "energy": 5566,
      "joomla": 5567,
      "stolen": 5568,
      "something": 5569,
      "83": 5570,
      "[methodology](#": 5571,
      "a`": 5572,
      "dest": 5573,
      "iframe": 5574,
      "mas": 5575,
      "oder": 5576,
      "rpc": 5577,
      "sap": 5578,
      "tom": 5579,
      "ãâ": 5580,
      "reach": 5581,
      "chunk": 5582,
      "ention": 5583,
      "ilies": 5584,
      "absol": 5585,
      "pole": 5586,
      "meta": 5587,
      "serverless": 5588,
      "inclusions": 5589,
      "delete": 5590,
      "chain:": 5591,
      "host:": 5592,
      "generate": 5593,
      "procedures": 5594,
      "defined": 5595,
      "fichiers": 5596,
      "rdp": 5597,
      "folosi": 5598,
      "adversarial": 5599,
      "[methodology](#methodology)": 5600,
      "'login": 5601,
      "97": 5602,
      "fd": 5603,
      "fall": 5604,
      "jen": 5605,
      "nature": 5606,
      "ool": 5607,
      "pom": 5608,
      "rich": 5609,
      "right": 5610,
      "split": 5611,
      "tren": 5612,
      "zer": 5613,
      "χεί": 5614,
      "бы": 5615,
      "）。": 5616,
      "inste": 5617,
      "ana": 5618,
      "lower": 5619,
      "redhat": 5620,
      "perio": 5621,
      "bypassing": 5622,
      "oney": 5623,
      "flux": 5624,
      "cast": 5625,
      "listing": 5626,
      "provenance": 5627,
      "causes": 5628,
      "append": 5629,
      "268": 5630,
      "ta505": 5631,
      "extraction": 5632,
      "infostealer": 5633,
      "ναι": 5634,
      "edition": 5635,
      "είναι": 5636,
      "profile:": 5637,
      "impersonation": 5638,
      "those": 5639,
      "templates": 5640,
      "72": 5641,
      "['": 5642,
      "[tools": 5643,
      "lack": 5644,
      "tree": 5645,
      "чи": 5646,
      "atz": 5647,
      "remain": 5648,
      "alia": 5649,
      "educ": 5650,
      "stage": 5651,
      "thread": 5652,
      "ember": 5653,
      "imap": 5654,
      "anda": 5655,
      "como": 5656,
      "comes": 5657,
      "platforms": 5658,
      "deep": 5659,
      "dia": 5660,
      "soub": 5661,
      "executed": 5662,
      "107": 5663,
      "](#tools)": 5664,
      "suppress": 5665,
      "напри": 5666,
      "universal": 5667,
      "leads": 5668,
      "making": 5669,
      "cameras": 5670,
      "cut`": 5671,
      "penet": 5672,
      "relationships": 5673,
      "від": 5674,
      "команд": 5675,
      "wizard": 5676,
      "screen": 5677,
      "instead": 5678,
      "[tools](#tools)": 5679,
      "0)": 5680,
      "51": 5681,
      "96": 5682,
      "`~": 5683,
      "gad": 5684,
      "kt": 5685,
      "raw": 5686,
      "vim": 5687,
      "xpath": 5688,
      "ści": 5689,
      "rece": 5690,
      "icial": 5691,
      "lol": 5692,
      "aby": 5693,
      "quot": 5694,
      "itives": 5695,
      "body": 5696,
      "sets": 5697,
      "admin)": 5698,
      "sence": 5699,
      "tax": 5700,
      "`ls`": 5701,
      "families": 5702,
      "shopping": 5703,
      "щоб": 5704,
      "centralized": 5705,
      "mimik": 5706,
      "mirai": 5707,
      "constraints": 5708,
      "absolute": 5709,
      "penetration": 5710,
      "cate": 5711,
      "dle": 5712,
      "i)": 5713,
      "lite": 5714,
      "nd": 5715,
      "ops": 5716,
      "v2": 5717,
      "ία": 5718,
      "see": 5719,
      "three": 5720,
      "series": 5721,
      "hol": 5722,
      "scanner": 5723,
      "icates": 5724,
      "transform": 5725,
      "microservices": 5726,
      "solar": 5727,
      "victims": 5728,
      "encies": 5729,
      "tunneling": 5730,
      "volume": 5731,
      "predict": 5732,
      "explorer": 5733,
      "++": 5734,
      "75": 5735,
      "`m": 5736,
      "pf": 5737,
      "pal": 5738,
      "shells": 5739,
      "wen": 5740,
      "ем": 5741,
      "oring": 5742,
      "hook": 5743,
      "logfile": 5744,
      "olution": 5745,
      "affili": 5746,
      "disruption": 5747,
      "specif": 5748,
      "property": 5749,
      "signed": 5750,
      "signatures": 5751,
      "containers": 5752,
      "libc": 5753,
      "installation": 5754,
      "protected": 5755,
      "nya": 5756,
      "governance": 5757,
      "constrained": 5758,
      "χρη": 5759,
      "`rsync": 5760,
      "brief": 5761,
      "σιμοποι": 5762,
      "dimens": 5763,
      "mimikatz": 5764,
      "92": 5765,
      "?>": 5766,
      "[root": 5767,
      "`net": 5768,
      "`du": 5769,
      "honey": 5770,
      "pv": 5771,
      "spon": 5772,
      "ters": 5773,
      "von": 5774,
      "warning": 5775,
      "zap": 5776,
      "ão": 5777,
      "вер": 5778,
      "insufficient": 5779,
      "itions": 5780,
      "pedia": 5781,
      "forge": 5782,
      "accur": 5783,
      "websocket": 5784,
      "urls": 5785,
      "compar": 5786,
      "howe": 5787,
      "worm": 5788,
      "ews": 5789,
      "shark": 5790,
      "operating": 5791,
      "original": 5792,
      "login\"": 5793,
      "national": 5794,
      "[`s": 5795,
      "steps": 5796,
      "utilise": 5797,
      "labs": 5798,
      "того": 5799,
      "columns": 5800,
      "join`": 5801,
      "physical": 5802,
      "χρησιμοποι": 5803,
      "(v": 5804,
      "`$": 5805,
      "ae": 5806,
      "cen": 5807,
      "dn": 5808,
      "ding": 5809,
      "kin": 5810,
      "mes": 5811,
      "oct": 5812,
      "oing": 5813,
      "pac": 5814,
      "ron": 5815,
      "rip": 5816,
      "sort": 5817,
      "ssti": 5818,
      "vs": 5819,
      "wifi": 5820,
      "wmi": 5821,
      "ype": 5822,
      "ισ": 5823,
      "со": 5824,
      "rection": 5825,
      "theth": 5826,
      "apon": 5827,
      "weapon": 5828,
      "hop": 5829,
      "trace": 5830,
      "alltheth": 5831,
      "identification": 5832,
      "clob": 5833,
      "ongoing": 5834,
      "submit": 5835,
      "prevention": 5836,
      "permission": 5837,
      "');": 5838,
      "cached": 5839,
      "avoid": 5840,
      "manufacturing": 5841,
      "specifically": 5842,
      "allthethings": 5843,
      "(t": 5844,
      "71": 5845,
      "hum": 5846,
      "ii": 5847,
      "ku": 5848,
      "night": 5849,
      "pick": 5850,
      "tal": 5851,
      "해서": 5852,
      "ora": 5853,
      "alog": 5854,
      "compress": 5855,
      "phere": 5856,
      "doc": 5857,
      "perf": 5858,
      "kee": 5859,
      "config`": 5860,
      "ntlm": 5861,
      "lich": 5862,
      "brew": 5863,
      "chains": 5864,
      "drag": 5865,
      "environments?": 5866,
      "classification": 5867,
      "hardening": 5868,
      "sanitiz": 5869,
      "ajax": 5870,
      "historical": 5871,
      "c:\\": 5872,
      "capture": 5873,
      "incorrect": 5874,
      "utilisez": 5875,
      "<!": 5876,
      "`u": 5877,
      "eine": 5878,
      "game": 5879,
      "hu": 5880,
      "jed": 5881,
      "rb": 5882,
      "ton": 5883,
      "τή": 5884,
      "або": 5885,
      "пере": 5886,
      "як": 5887,
      "하세요": 5888,
      "sem": 5889,
      "acqu": 5890,
      "použ": 5891,
      "mount": 5892,
      "motiv": 5893,
      "cop": 5894,
      "coordin": 5895,
      "vious": 5896,
      "even": 5897,
      "flu": 5898,
      "flaws": 5899,
      "regular": 5900,
      "examin": 5901,
      "libr": 5902,
      "asting": 5903,
      "generated": 5904,
      "providing": 5905,
      "simil": 5906,
      "adversary:": 5907,
      "wikipedia": 5908,
      "dependency": 5909,
      "anomalous": 5910,
      "assisted": 5911,
      "αρχεί": 5912,
      "spring": 5913,
      "terminal": 5914,
      "middle": 5915,
      "intrusion": 5916,
      "dalam": 5917,
      "filename": 5918,
      "gadget": 5919,
      "']": 5920,
      "(crash)": 5921,
      "62": 5922,
      "c`": 5923,
      "kat": 5924,
      "nb": 5925,
      "nx": 5926,
      "ngrep": 5927,
      "pam": 5928,
      "rix": 5929,
      "va": 5930,
      "ven": 5931,
      "ye": 5932,
      "zi": 5933,
      "ча": 5934,
      "relev": 5935,
      "formed": 5936,
      "nost": 5937,
      "move": 5938,
      "tive": 5939,
      "whether": 5940,
      "clip": 5941,
      "syman": 5942,
      "appliance": 5943,
      "ip`": 5944,
      "area": 5945,
      "service)": 5946,
      "incidents": 5947,
      "name'": 5948,
      "member": 5949,
      "knowled": 5950,
      "stats": 5951,
      "stat`:": 5952,
      "model:": 5953,
      "{{[": 5954,
      "benut": 5955,
      "(unauthenticated)": 5956,
      "repository": 5957,
      "używa": 5958,
      "tasks": 5959,
      "column": 5960,
      "similar": 5961,
      "symantec": 5962,
      "knowledge": 5963,
      "cial": 5964,
      "euro": 5965,
      "mel": 5966,
      "nas": 5967,
      "rain": 5968,
      "zone": 5969,
      "γρ": 5970,
      "мен": 5971,
      "па": 5972,
      "ру": 5973,
      "ini": 5974,
      "instru": 5975,
      "er)": 5976,
      "ane": 5977,
      "anel": 5978,
      "contact": 5979,
      "cruc": 5980,
      "abo": 5981,
      "compa": 5982,
      "apt28": 5983,
      "white": 5984,
      "requiring": 5985,
      "malformed": 5986,
      "grant": 5987,
      "school": 5988,
      "timeline": 5989,
      "official": 5990,
      "smuggling": 5991,
      "manipulate": 5992,
      "providers": 5993,
      "cvss:7": 5994,
      "finding:": 5995,
      "guidance": 5996,
      "however": 5997,
      "%25": 5998,
      "61": 5999,
      "89": 6000,
      "biz": 6001,
      "bian": 6002,
      "dga": 6003,
      "elev": 6004,
      "gt": 6005,
      "ken": 6006,
      "pace": 6007,
      "want": 6008,
      "ρί": 6009,
      "iter": 6010,
      "una": 6011,
      "untrusted": 6012,
      "ising": 6013,
      "nodes": 6014,
      "implemented": 6015,
      "injection:": 6016,
      "scada": 6017,
      "httpd": 6018,
      "setup": 6019,
      "2016": 6020,
      "nebo": 6021,
      "paths": 6022,
      "cpanel": 6023,
      "linked": 6024,
      "russ": 6025,
      "connected": 6026,
      "deployments": 6027,
      "`lsof": 6028,
      "labs:": 6029,
      "attributed": 6030,
      "switch": 6031,
      "computer": 6032,
      "alternat": 6033,
      "effectively": 6034,
      "unknown;": 6035,
      "plit`": 6036,
      "assistance": 6037,
      "`xarg": 6038,
      "title": 6039,
      "period": 6040,
      "(m": 6041,
      "fed": 6042,
      "hex": 6043,
      "nap": 6044,
      "pus": 6045,
      "rm": 6046,
      "る。": 6047,
      "rea": 6048,
      "separ": 6049,
      "entr": 6050,
      "roz": 6051,
      "least": 6052,
      "cozy": 6053,
      "cogn": 6054,
      "netho": 6055,
      "discu": 6056,
      "iftop": 6057,
      "data:": 6058,
      "configurations": 6059,
      "responses": 6060,
      "dere": 6061,
      "attacks?": 6062,
      "openbsd": 6063,
      "enumerate": 6064,
      "programs": 6065,
      "focused": 6066,
      "exists": 6067,
      "debugging": 6068,
      "purple": 6069,
      "`sudo": 6070,
      "используйте": 6071,
      "clobber": 6072,
      "crucial": 6073,
      "1000": 6074,
      "73": 6075,
      "city": 6076,
      "e107": 6077,
      "i`": 6078,
      "iam": 6079,
      "jet": 6080,
      "n)": 6081,
      "nav": 6082,
      "rand": 6083,
      "signing": 6084,
      "watch": 6085,
      "zed": 6086,
      "ες": 6087,
      "ння": 6088,
      "init": 6089,
      "repe": 6090,
      "star": 6091,
      "unified": 6092,
      "crlf": 6093,
      "idual": 6094,
      "ps1": 6095,
      "called": 6096,
      "below": 6097,
      "presence": 6098,
      "confidence": 6099,
      "buster": 6100,
      "msg": 6101,
      "2001": 6102,
      "subject": 6103,
      "incident:": 6104,
      "balances": 6105,
      "signal": 6106,
      "containment": 6107,
      "folder": 6108,
      "instance": 6109,
      "administrators": 6110,
      "feed:": 6111,
      "obfuscation": 6112,
      "<?php": 6113,
      "folosiți": 6114,
      "libraries": 6115,
      "'view": 6116,
      "]}}": 6117,
      "`ss": 6118,
      "dream": 6119,
      "lr": 6120,
      "l`)": 6121,
      "né": 6122,
      "uid": 6123,
      "ystem": 6124,
      "zo": 6125,
      "influ": 6126,
      "ath": 6127,
      "repre": 6128,
      "enews": 6129,
      "finder": 6130,
      "comando": 6131,
      "utile": 6132,
      "calls": 6133,
      "befeh": 6134,
      "allowing": 6135,
      "bypas": 6136,
      "sp1": 6137,
      "later": 6138,
      "members": 6139,
      "timeout": 6140,
      "assessment:": 6141,
      "integrated": 6142,
      "1999": 6143,
      "early": 6144,
      "registration": 6145,
      "attachment": 6146,
      "attributes": 6147,
      "building": 6148,
      "characteristics": 6149,
      "sequence": 6150,
      "classifieds": 6151,
      "restrictions": 6152,
      "'p": 6153,
      "([": 6154,
      "`grep": 6155,
      "`kill": 6156,
      "`csv": 6157,
      "`uniq": 6158,
      "flat": 6159,
      "gam": 6160,
      "tre": 6161,
      "tap": 6162,
      "xp": 6163,
      "alan": 6164,
      "ania": 6165,
      "apr": 6166,
      "imin": 6167,
      "uts": 6168,
      "parent": 6169,
      "become": 6170,
      "previous": 6171,
      "commonly": 6172,
      "symb": 6173,
      "sock": 6174,
      "filters": 6175,
      "naj": 6176,
      "balance": 6177,
      "dateien": 6178,
      "modular": 6179,
      "last": 6180,
      "integrates": 6181,
      "small": 6182,
      "references)": 6183,
      "baseline": 6184,
      "defender": 6185,
      "snap": 6186,
      "golden": 6187,
      "`tail": 6188,
      "width": 6189,
      "orchestration": 6190,
      "spread": 6191,
      "\"`": 6192,
      "(apt": 6193,
      "[references": 6194,
      "bag": 6195,
      "bol": 6196,
      "fish": 6197,
      "href": 6198,
      "kot": 6199,
      "lt": 6200,
      "sau": 6201,
      "tl": 6202,
      "что": 6203,
      "マン": 6204,
      "retr": 6205,
      "semb": 6206,
      "exem": 6207,
      "apat": 6208,
      "patient": 6209,
      "deco": 6210,
      "ptime": 6211,
      "frag": 6212,
      "guess": 6213,
      "measure": 6214,
      "created": 6215,
      "gaps": 6216,
      "relationship": 6217,
      "manageengine": 6218,
      "successful": 6219,
      "constructor": 6220,
      "uporabite": 6221,
      "release": 6222,
      "human": 6223,
      "[references](#": 6224,
      "'user": 6225,
      "63": 6226,
      ">&": 6227,
      "]+": 6228,
      "`io": 6229,
      "dari": 6230,
      "ej": 6231,
      "f5": 6232,
      "gal": 6233,
      "liv": 6234,
      "mere": 6235,
      "made": 6236,
      "qak": 6237,
      "were": 6238,
      "ąc": 6239,
      "вы": 6240,
      "клад": 6241,
      "хо": 6242,
      "іль": 6243,
      "ino": 6244,
      "ange": 6245,
      "eto": 6246,
      "icit": 6247,
      "prob": 6248,
      "sqli": 6249,
      "olve": 6250,
      "sou": 6251,
      "spam": 6252,
      "tester": 6253,
      "notes": 6254,
      "validating": 6255,
      "eroute": 6256,
      "opera": 6257,
      "blu": 6258,
      "dumps": 6259,
      "considerations": 6260,
      "behaviors": 6261,
      "aster": 6262,
      "documentation": 6263,
      "typical": 6264,
      "depth": 6265,
      "saml": 6266,
      "analytical": 6267,
      "attribution:": 6268,
      "%0a": 6269,
      "εργ": 6270,
      "joomla!": 6271,
      "[references](#references)": 6272,
      "%26": 6273,
      "'cat": 6274,
      "(o": 6275,
      "019": 6276,
      "]'": 6277,
      "bat": 6278,
      "cit": 6279,
      "mand": 6280,
      "pis": 6281,
      "rad": 6282,
      "vy": 6283,
      "ved": 6284,
      "ήστε": 6285,
      "фор": 6286,
      "を使": 6287,
      "ione": 6288,
      "ading": 6289,
      "contexts": 6290,
      "poly": 6291,
      "hot": 6292,
      "hosp": 6293,
      "serves": 6294,
      "ioc": 6295,
      "disabl": 6296,
      "availability": 6297,
      "blockchain": 6298,
      "assum": 6299,
      "background": 6300,
      "paste`": 6301,
      "lists": 6302,
      "coverage": 6303,
      "included": 6304,
      "alignment": 6305,
      "się": 6306,
      "sysibm": 6307,
      "geograph": 6308,
      "banner": 6309,
      "τολ": 6310,
      "που": 6311,
      "vmware": 6312,
      "princip": 6313,
      "makes": 6314,
      "traceroute": 6315,
      "widely": 6316,
      "\\x00": 6317,
      "εντολ": 6318,
      "situations": 6319,
      "tomcat": 6320,
      "dereference": 6321,
      "qakbot": 6322,
      "'admin": 6323,
      "aver": 6324,
      "dans": 6325,
      "dash": 6326,
      "fat": 6327,
      "fig": 6328,
      "gd": 6329,
      "iel": 6330,
      "ju": 6331,
      "jun": 6332,
      "jest": 6333,
      "ку": 6334,
      "には": 6335,
      "有用": 6336,
      "inet": 6337,
      "it's": 6338,
      "repo": 6339,
      "ioni": 6340,
      "abusing": 6341,
      "redu": 6342,
      "activex": 6343,
      "scient": 6344,
      "times": 6345,
      "operator": 6346,
      "dsl": 6347,
      "limited": 6348,
      "transmit": 6349,
      "markdown": 6350,
      "continue": 6351,
      "cvss:0": 6352,
      "expans": 6353,
      "kerbero": 6354,
      "ación": 6355,
      "magic": 6356,
      "educational": 6357,
      "relevant": 6358,
      "używaj": 6359,
      "europe": 6360,
      "110": 6361,
      "87": 6362,
      "94": 6363,
      "`z": 6364,
      "font": 6365,
      "mx": 6366,
      "peng": 6367,
      "yond": 6368,
      "||": 6369,
      "άλ": 6370,
      "δια": 6371,
      "παρ": 6372,
      "ών": 6373,
      "ши": 6374,
      "コマン": 6375,
      "acces": 6376,
      "webmail": 6377,
      "websites": 6378,
      "adsl": 6379,
      "pool": 6380,
      "ager": 6381,
      "beyond": 6382,
      "commix": 6383,
      "diag": 6384,
      "achieve": 6385,
      "file'": 6386,
      "minor": 6387,
      "tooling": 6388,
      "balanc": 6389,
      "gobuster": 6390,
      "flex": 6391,
      "faq": 6392,
      "```ps1": 6393,
      "stores": 6394,
      "сти": 6395,
      "ukrain": 6396,
      "hydra": 6397,
      "storm": 6398,
      "circumvent": 6399,
      "solely": 6400,
      "affects": 6401,
      "describe": 6402,
      "fuzz": 6403,
      "propagation": 6404,
      "insert": 6405,
      "`uniq`": 6406,
      "форма": 6407,
      "コマンド": 6408,
      "'ls": 6409,
      "(linux": 6410,
      "(ics": 6411,
      "060": 6412,
      "800": 6413,
      "`${": 6414,
      "bill": 6415,
      "dur": 6416,
      "fact": 6417,
      "het": 6418,
      "pin": 6419,
      "pwn": 6420,
      "sle": 6421,
      "sms": 6422,
      "tmp": 6423,
      "u00": 6424,
      "zn": 6425,
      "ως": 6426,
      "ет": 6427,
      "ени": 6428,
      "，使用": 6429,
      "onload": 6430,
      "station": 6431,
      "ision": 6432,
      "lear": 6433,
      "id:": 6434,
      "psite": 6435,
      "printer": 6436,
      "strings": 6437,
      "mult": 6438,
      "synt": 6439,
      "systemtap": 6440,
      "overrun": 6441,
      "mine": 6442,
      "retention": 6443,
      "errors": 6444,
      "hashcat": 6445,
      "тор": 6446,
      "range": 6447,
      "cmd)": 6448,
      "existing": 6449,
      "tickets": 6450,
      "ginx": 6451,
      "clusters": 6452,
      "evaluate": 6453,
      "lotus": 6454,
      "pří": 6455,
      "water": 6456,
      "csf's": 6457,
      "'ãæã'ãâ": 6458,
      "trend": 6459,
      "hospital": 6460,
      "(or": 6461,
      "`：": 6462,
      "adb": 6463,
      "ele": 6464,
      "kaz": 6465,
      "pse": 6466,
      "ré": 6467,
      "sip": 6468,
      "zw": 6469,
      "лю": 6470,
      "от": 6471,
      "して": 6472,
      "으로": 6473,
      "itter": 6474,
      "arquiv": 6475,
      "concept": 6476,
      "stdo": 6477,
      "indiv": 6478,
      "phar": 6479,
      "prove": 6480,
      "profiles": 6481,
      "aged": 6482,
      "php;": 6483,
      "remove": 6484,
      "cannot": 6485,
      "paralle": 6486,
      "loaded": 6487,
      "short": 6488,
      "currency": 6489,
      "operators": 6490,
      "nego": 6491,
      "standar": 6492,
      "beaconing": 6493,
      "pii": 6494,
      "dumping": 6495,
      "restricted": 6496,
      "php?page": 6497,
      "ryuk": 6498,
      "macros": 6499,
      "locate": 6500,
      "του": 6501,
      "product:": 6502,
      "cmd`](https:": 6503,
      "%00%00%00": 6504,
      "sequences": 6505,
      "synchron": 6506,
      "triage": 6507,
      "inspect": 6508,
      "consumption": 6509,
      "emphasizes": 6510,
      "μέν": 6511,
      "directories": 6512,
      "discuss": 6513,
      "(ics)": 6514,
      "stdout": 6515,
      "individual": 6516,
      "'1": 6517,
      "'ãâ": 6518,
      ":warning": 6519,
      "`ssh": 6520,
      "`cut`": 6521,
      "ați": 6522,
      "bg": 6523,
      "bom": 6524,
      "c'": 6525,
      "hg": 6526,
      "ně": 6527,
      "nis": 6528,
      "p2": 6529,
      "sphere": 6530,
      "uary": 6531,
      "uje": 6532,
      "αλ": 6533,
      "απ": 6534,
      "φο": 6535,
      "ну": 6536,
      "可能": 6537,
      "工具": 6538,
      "sel": 6539,
      "enrich": 6540,
      "ther": 6541,
      "improv": 6542,
      "get`": 6543,
      "agg": 6544,
      "aust": 6545,
      "file`": 6546,
      "001": 6547,
      "overwrite": 6548,
      "obj": 6549,
      "analysis\\n\\n": 6550,
      "surfaces": 6551,
      "structures": 6552,
      "filesystem": 6553,
      "lah": 6554,
      "arise": 6555,
      "wire": 6556,
      "encrypt": 6557,
      "transaction": 6558,
      "();": 6559,
      "alert('": 6560,
      "suspected": 6561,
      "redirection": 6562,
      "remediation:": 6563,
      "228": 6564,
      "spot": 6565,
      "astic": 6566,
      "modifi": 6567,
      "είτε": 6568,
      "cube": 6569,
      "boundaries": 6570,
      "χρή": 6571,
      "masscan": 6572,
      "clients": 6573,
      "знайте": 6574,
      "collaboration": 6575,
      "built": 6576,
      "calcul": 6577,
      "answer:": 6578,
      "26855": 6579,
      "symbol": 6580,
      "sembly": 6581,
      "scientific": 6582,
      "''": 6583,
      "<svg": 6584,
      "`!": 6585,
      "d`:": 6586,
      "june": 6587,
      "n`": 6588,
      "ners": 6589,
      "pb": 6590,
      "zt": 6591,
      "бу": 6592,
      "мі": 6593,
      "ito": 6594,
      "ons": 6595,
      "ato": 6596,
      "roles": 6597,
      "units": 6598,
      "cron": 6599,
      "medical": 6600,
      "ffuf": 6601,
      "foundation": 6602,
      "audio": 6603,
      "sym": 6604,
      "soar": 6605,
      "headless": 6606,
      "systematically": 6607,
      "gear": 6608,
      "loading": 6609,
      "miners": 6610,
      "regex": 6611,
      "preventing": 6612,
      "192": 6613,
      "john": 6614,
      "deployed": 6615,
      "cryptojacking": 6616,
      "stealth": 6617,
      "telnet": 6618,
      "controllers": 6619,
      "assets": 6620,
      "gold": 6621,
      "explainshell": 6622,
      "workflows": 6623,
      "preserving": 6624,
      "comparison": 6625,
      "dragon": 6626,
      "syntax": 6627,
      ":warning:": 6628,
      "69": 6629,
      "76": 6630,
      "csc": 6631,
      "dla": 6632,
      "dapat": 6633,
      "g`": 6634,
      "jinj": 6635,
      "¬": 6636,
      "¢â": 6637,
      "še": 6638,
      "περ": 6639,
      "ба": 6640,
      "се": 6641,
      "以及": 6642,
      "plac": 6643,
      "recogn": 6644,
      "ancy": 6645,
      "still": 6646,
      "stdin": 6647,
      "thet": 6648,
      "iso": 6649,
      "aber": 6650,
      "adap": 6651,
      "struts": 6652,
      "prefetch": 6653,
      "idential": 6654,
      "mini": 6655,
      "executing": 6656,
      "else": 6657,
      "1337": 6658,
      "root'": 6659,
      "365": 6660,
      "challenge": 6661,
      "containerized": 6662,
      "north": 6663,
      "purpose": 6664,
      "'ãæã¢â": 6665,
      "fundamentally": 6666,
      "plików": 6667,
      "сист": 6668,
      "emulation": 6669,
      "facilitate": 6670,
      "exhaust": 6671,
      "assignment": 6672,
      "acquis": 6673,
      "retrieve": 6674,
      "merely": 6675,
      "learn": 6676,
      "¬â": 6677,
      "'ãæã¢â¬â": 6678,
      "(g": 6679,
      "(multiple": 6680,
      "(c2": 6681,
      "1\"": 6682,
      "`ch": 6683,
      "eb": 6684,
      "fur": 6685,
      "kal": 6686,
      "pp": 6687,
      "rc2": 6688,
      "uj": 6689,
      "λη": 6690,
      "一个": 6691,
      "이용": 6692,
      "insur": 6693,
      "ones": 6694,
      "ati": 6695,
      "orph": 6696,
      "pety": 6697,
      "child": 6698,
      "entire": 6699,
      "stop": 6700,
      "adem": 6701,
      "deleg": 6702,
      "hole": 6703,
      "atter": 6704,
      "trade": 6705,
      "prefer": 6706,
      "manif": 6707,
      "evolv": 6708,
      "spider": 6709,
      "scoring": 6710,
      "flaw": 6711,
      "specifi": 6712,
      "binaries": 6713,
      "acceler": 6714,
      "format:": 6715,
      "source:": 6716,
      "developers": 6717,
      "checking": 6718,
      "machines": 6719,
      "username'": 6720,
      "forums": 6721,
      "internalallthethings": 6722,
      "bench": 6723,
      "iocs:": 6724,
      "sandworm": 6725,
      "popular": 6726,
      "τις": 6727,
      "correlate": 6728,
      "usually": 6729,
      "glances": 6730,
      "expression": 6731,
      "λογ": 6732,
      "soubor": 6733,
      "instructions": 6734,
      "analysis\\n\\ndirect": 6735,
      "insurance": 6736,
      "petya": 6737,
      "0;": 6738,
      "5c": 6739,
      "?lower": 6740,
      "d)": 6741,
      "div": 6742,
      "iency": 6743,
      "lap": 6744,
      "mar": 6745,
      "march": 6746,
      "nginx": 6747,
      "r2": 6748,
      "xs": 6749,
      "über": 6750,
      "ασ": 6751,
      "гра": 6752,
      "ше": 6753,
      "‐team": 6754,
      "），": 6755,
      "ctl": 6756,
      "peg": 6757,
      "stav": 6758,
      "acc": 6759,
      "cost": 6760,
      "aug": 6761,
      "injection)": 6762,
      "ications": 6763,
      "interfaces": 6764,
      "invent": 6765,
      "man`": 6766,
      "mongo": 6767,
      "ensuring": 6768,
      "bud": 6769,
      "data;": 6770,
      "adding": 6771,
      "named": 6772,
      "notpetya": 6773,
      "moved": 6774,
      "```bash": 6775,
      "regional": 6776,
      "сть": 6777,
      "bashrc": 6778,
      "rfc": 6779,
      "supplied": 6780,
      "md5": 6781,
      "{{path": 6782,
      "customers": 6783,
      "dmx": 6784,
      "cvss:8": 6785,
      "τον": 6786,
      "plugins": 6787,
      "easier": 6788,
      "τικ": 6789,
      "specialized": 6790,
      "abbing": 6791,
      "twitter": 6792,
      "invoice": 6793,
      "timestamp": 6794,
      "affiliate": 6795,
      "periodic": 6796,
      "manifest": 6797,
      "(application": 6798,
      "(denial": 6799,
      "[c": 6800,
      "`sh": 6801,
      "a5": 6802,
      "gem": 6803,
      "irect": 6804,
      "jq": 6805,
      "lass": 6806,
      "nic": 6807,
      "our": 6808,
      "rmi": 6809,
      "sgi": 6810,
      "tail": 6811,
      "σα": 6812,
      "гу": 6813,
      "му": 6814,
      "сно": 6815,
      "ци": 6816,
      "一個": 6817,
      "itative": 6818,
      "onom": 6819,
      "chen": 6820,
      "concat": 6821,
      "ungen": 6822,
      "conti": 6823,
      "crack": 6824,
      "prox": 6825,
      "decode": 6826,
      "netgear": 6827,
      "intent": 6828,
      "vi`": 6829,
      "multi‐": 6830,
      "premi": 6831,
      "interact": 6832,
      "sysd": 6833,
      "user's": 6834,
      "soap": 6835,
      "confidential": 6836,
      "bitwizard": 6837,
      "grad": 6838,
      "mission": 6839,
      "tests": 6840,
      "[`mtr": 6841,
      "xxxx": 6842,
      "environment:": 6843,
      "utils": 6844,
      "utility": 6845,
      "browsers": 6846,
      "generic": 6847,
      "coding": 6848,
      "coded": 6849,
      "differences": 6850,
      "register": 6851,
      "png": 6852,
      "t1078": 6853,
      "elements": 6854,
      "blob": 6855,
      "00000000": 6856,
      "minimal": 6857,
      "modifications": 6858,
      "frequently": 6859,
      "avec": 6860,
      "claims": 6861,
      "efficiency": 6862,
      "`strace": 6863,
      "polecen": 6864,
      "quotes": 6865,
      "categor": 6866,
      "χρησιμοποιήστε": 6867,
      "bypasses": 6868,
      "snapsho": 6869,
      "kerberoasting": 6870,
      "sysdig": 6871,
      "[`mtr`](http:": 6872,
      "'get": 6873,
      "0%": 6874,
      "7*": 6875,
      "82": 6876,
      "85": 6877,
      "`join`": 6878,
      "bad": 6879,
      "b**": 6880,
      "fp": 6881,
      "hl": 6882,
      "lc": 6883,
      "msys": 6884,
      "pap": 6885,
      "pci": 6886,
      "r**": 6887,
      "scr": 6888,
      "scri": 6889,
      "tent": 6890,
      "із": 6891,
      "ina": 6892,
      "sebu": 6893,
      "verwen": 6894,
      "convent": 6895,
      "rog": 6896,
      "improve": 6897,
      "extort": 6898,
      "contextual": 6899,
      "debian": 6900,
      "qual": 6901,
      "prem": 6902,
      "achi": 6903,
      "mant": 6904,
      "evolution": 6905,
      "latex": 6906,
      "advant": 6907,
      "cases": 6908,
      "mais": 6909,
      "layers": 6910,
      "centers": 6911,
      "url'": 6912,
      "кон": 6913,
      "instances": 6914,
      "position": 6915,
      "python3": 6916,
      "cvss:6": 6917,
      "needs": 6918,
      "ται": 6919,
      "sockets": 6920,
      "tricks": 6921,
      "snmp": 6922,
      "σετε": 6923,
      "cutenews": 6924,
      "sonic": 6925,
      "practical": 6926,
      "forcing": 6927,
      "fichier": 6928,
      "insight": 6929,
      "texto": 6930,
      "written": 6931,
      "efficacy": 6932,
      "log4shell": 6933,
      "archivos": 6934,
      "chunked": 6935,
      "чтобы": 6936,
      "etooth": 6937,
      "bluetooth": 6938,
      "adaptive": 6939,
      "extortion": 6940,
      "%23": 6941,
      "'r": 6942,
      "79": 6943,
      ":\"": 6944,
      "`cs": 6945,
      "a'": 6946,
      "dg": 6947,
      "dé": 6948,
      "fut": 6949,
      "f**": 6950,
      "jk": 6951,
      "ram": 6952,
      "squ": 6953,
      "til": 6954,
      "v4": 6955,
      "ání": 6956,
      "ве": 6957,
      "или": 6958,
      "пра": 6959,
      "들을": 6960,
      "er:": 6961,
      "alo": 6962,
      "allocation": 6963,
      "anie": 6964,
      "stit": 6965,
      "row": 6966,
      "ampl": 6967,
      "four": 6968,
      "viol": 6969,
      "logical": 6970,
      "fri": 6971,
      "heur": 6972,
      "intercept": 6973,
      "maps": 6974,
      "syst": 6975,
      "systemic": 6976,
      "ira": 6977,
      "viewstate": 6978,
      "words": 6979,
      "based:": 6980,
      "owner": 6981,
      "latest": 6982,
      "opport": 6983,
      "mean": 6984,
      "cia": 6985,
      "windows)": 6986,
      "pathpick": 6987,
      "mai": 6988,
      "save": 6989,
      "gui": 6990,
      "regions": 6991,
      "transl": 6992,
      "alerts": 6993,
      "positives": 6994,
      "classic": 6995,
      "utilities": 6996,
      "queue": 6997,
      "них": 6998,
      "kann": 6999,
      "csvkit": 7000,
      "`pip`": 7001,
      "menggunakan": 7002,
      "consistent": 7003,
      "experi": 7004,
      "abc+": 7005,
      "\"><": 7006,
      "'re": 7007,
      "(n": 7008,
      "(w": 7009,
      ")。": 7010,
      "2:": 7011,
      "7)": 7012,
      "`ld": 7013,
      "a:": 7014,
      "gb": 7015,
      "gence": 7016,
      "hom": 7017,
      "ih": 7018,
      "pand": 7019,
      "rom": 7020,
      "tv": 7021,
      "wps": 7022,
      "δο": 7023,
      "μά": 7024,
      "ύν": 7025,
      "га": 7026,
      "мер": 7027,
      "пі": 7028,
      "맨드": 7029,
      "커맨드": 7030,
      "once": 7031,
      "rek": 7032,
      "expected": 7033,
      "ante": 7034,
      "eter": 7035,
      "cons": 7036,
      "loop": 7037,
      "ctional": 7038,
      "compo": 7039,
      "asoft": 7040,
      "asia": 7041,
      "codes": 7042,
      "decl": 7043,
      "tip": 7044,
      "ails": 7045,
      "prefix": 7046,
      "commit": 7047,
      "lsass": 7048,
      "boun": 7049,
      "iran": 7050,
      "executable": 7051,
      "password)": 7052,
      "opc": 7053,
      "svn": 7054,
      "cold": 7055,
      "notable": 7056,
      "datei": 7057,
      "delta": 7058,
      "20260": 7059,
      "properties": 7060,
      "covert": 7061,
      "endpoints;": 7062,
      "architecting": 7063,
      "301": 7064,
      "programming": 7065,
      "hyper": 7066,
      "generator": 7067,
      "aws`](https:": 7068,
      "them?": 7069,
      "της": 7070,
      "randomness": 7071,
      "industry": 7072,
      "replace": 7073,
      "exercises": 7074,
      "ції": 7075,
      "frequency": 7076,
      "inspection": 7077,
      "%2f": 7078,
      "xslt": 7079,
      "solaris": 7080,
      "clobbering": 7081,
      "%26%23": 7082,
      "0199": 7083,
      "disabled": 7084,
      "aggreg": 7085,
      "dmxready": 7086,
      "sebuah": 7087,
      "\"[": 7088,
      "'default": 7089,
      "(6)": 7090,
      "(ubuntu": 7091,
      "0a": 7092,
      "`ab": 7093,
      "`alias": 7094,
      "bum": 7095,
      "border": 7096,
      "eph": 7097,
      "ghost": 7098,
      "hind": 7099,
      "mk": 7100,
      "pite": 7101,
      "s4": 7102,
      "sung": 7103,
      "vý": 7104,
      "v**": 7105,
      "yara": 7106,
      "έχ": 7107,
      "εξ": 7108,
      "би": 7109,
      "ある": 7110,
      "って": 7111,
      "같은": 7112,
      "정보": 7113,
      "relay": 7114,
      "eno": 7115,
      "exif": 7116,
      "ani": 7117,
      "los": 7118,
      "acji": 7119,
      "emeral": 7120,
      "unit": 7121,
      "wei": 7122,
      "touch": 7123,
      "comand": 7124,
      "id`": 7125,
      "idor": 7126,
      "utor": 7127,
      "cell": 7128,
      "prze": 7129,
      "stride": 7130,
      "interaction": 7131,
      "percol": 7132,
      "sored": 7133,
      "10)": 7134,
      "viewer": 7135,
      "subfinder": 7136,
      "toolkit": 7137,
      "facebook": 7138,
      "goph": 7139,
      "openssl": 7140,
      "artifact": 7141,
      "44228": 7142,
      "button": 7143,
      "linksys": 7144,
      "256": 7145,
      "стро": 7146,
      "instit": 7147,
      "namespace": 7148,
      "followed": 7149,
      "numbers": 7150,
      "раз": 7151,
      "sending": 7152,
      "nych": 7153,
      "certificates": 7154,
      "dependencies": 7155,
      "playbooks": 7156,
      "bigquery": 7157,
      "cheatsheet": 7158,
      "simulation": 7159,
      "caching": 7160,
      "variants": 7161,
      "optimization": 7162,
      "awk`": 7163,
      "statistik": 7164,
      "workloads": 7165,
      "brief:": 7166,
      "sponsored": 7167,
      "compression": 7168,
      "dashboard": 7169,
      "jinja2": 7170,
      "exhaustion": 7171,
      "benchmark": 7172,
      "ephemeral": 7173,
      "(x": 7174,
      "(data": 7175,
      "\\u00": 7176,
      "`g": 7177,
      "`{": 7178,
      "`cd": 7179,
      "`less": 7180,
      "`>`": 7181,
      "`c:\\": 7182,
      "cand": 7183,
      "dv": 7184,
      "dual": 7185,
      "gs)": 7186,
      "hive": 7187,
      "jar": 7188,
      "kb": 7189,
      "mc": 7190,
      "mix": 7191,
      "nabbing": 7192,
      "ole": 7193,
      "oce": 7194,
      "sal": 7195,
      "sind": 7196,
      "tle": 7197,
      "w3": 7198,
      "ένα": 7199,
      "ιο": 7200,
      "пу": 7201,
      "려면": 7202,
      "erp": 7203,
      "rec": 7204,
      "alah": 7205,
      "anager": 7206,
      "andra": 7207,
      "weblogic": 7208,
      "asy": 7209,
      "dok": 7210,
      "foundational": 7211,
      "bec": 7212,
      "tru": 7213,
      "auction": 7214,
      "datote": 7215,
      "ober": 7216,
      "despite": 7217,
      "respons": 7218,
      "whatweb": 7219,
      "correct": 7220,
      "modem": 7221,
      "cafe": 7222,
      "backed": 7223,
      "assessments": 7224,
      "formats": 7225,
      "final": 7226,
      "performing": 7227,
      "pentest": 7228,
      "info`": 7229,
      "chr(": 7230,
      "cvss:5": 7231,
      "continuity": 7232,
      "installed": 7233,
      "ться": 7234,
      "sink": 7235,
      "2024](https:": 7236,
      "einer": 7237,
      "backdoors": 7238,
      "사용하세요": 7239,
      "contract": 7240,
      "contractor": 7241,
      "npm": 7242,
      "%2e": 7243,
      "horse": 7244,
      "decision": 7245,
      "aliases:": 7246,
      "`rsync`": 7247,
      "accuracy": 7248,
      "influence": 7249,
      "fragment": 7250,
      "expansion": 7251,
      "pathpicker": 7252,
      "'f": 7253,
      "'web": 7254,
      "`comm": 7255,
      "`md": 7256,
      "`ln": 7257,
      "a**": 7258,
      "bor": 7259,
      "cing": 7260,
      "dp": 7261,
      "fz": 7262,
      "had": 7263,
      "ients": 7264,
      "jn": 7265,
      "kol": 7266,
      "mig": 7267,
      "n't": 7268,
      "pul": 7269,
      "r`": 7270,
      "v6": 7271,
      "vault": 7272,
      "year": 7273,
      "zaw": 7274,
      "όπ": 7275,
      "管理": 7276,
      "거나": 7277,
      "입니다": 7278,
      "instr": 7279,
      "orient": 7280,
      "ense": 7281,
      "omet": 7282,
      "ac)": 7283,
      "acro": 7284,
      "imal": 7285,
      "weaver": 7286,
      "former": 7287,
      "highly": 7288,
      "depart": 7289,
      "ques": 7290,
      "fiș": 7291,
      "working": 7292,
      "file:": 7293,
      "keep": 7294,
      "investigators": 7295,
      "irc": 7296,
      "sp3": 7297,
      "obsc": 7298,
      "flows": 7299,
      "gene": 7300,
      "managed": 7301,
      "compromises": 7302,
      "campsite": 7303,
      "assandra": 7304,
      "'show": 7305,
      "shyaml": 7306,
      "shift": 7307,
      "correlat": 7308,
      "123": 7309,
      "hostname": 7310,
      "injecting": 7311,
      "сто": 7312,
      "handled": 7313,
      "packages": 7314,
      "pdw": 7315,
      "ahui": 7316,
      "feeds": 7317,
      "proxylogon": 7318,
      "failures": 7319,
      "focusing": 7320,
      "helpdesk": 7321,
      "tabnabbing": 7322,
      "\":\"": 7323,
      "σει": 7324,
      "`split`": 7325,
      "rather": 7326,
      "acceptable": 7327,
      "published": 7328,
      "marketplace": 7329,
      "наприклад": 7330,
      "honeypot": 7331,
      "october": 7332,
      "brew`": 7333,
      "`ucon": 7334,
      "april": 7335,
      "living": 7336,
      "gdpr": 7337,
      "standardi": 7338,
      "acquisition": 7339,
      "inventory": 7340,
      "sonicwall": 7341,
      "future": 7342,
      "friend": 7343,
      "wpscan": 7344,
      "(1": 7345,
      ")`": 7346,
      "2e": 7347,
      "3x": 7348,
      "8)": 7349,
      "`icon": 7350,
      "`brew`": 7351,
      "aur": 7352,
      "bt": 7353,
      "done": 7354,
      "dvr": 7355,
      "iphone": 7356,
      "jvm": 7357,
      "kins": 7358,
      "mask": 7359,
      "necess": 7360,
      "vary": 7361,
      "yet": 7362,
      "なら": 7363,
      "ディ": 7364,
      "系统": 7365,
      "알아": 7366,
      "inline": 7367,
      "onion": 7368,
      "alstr": 7369,
      "edes": 7370,
      "staging": 7371,
      "ultim": 7372,
      "unc": 7373,
      "week": 7374,
      "extended": 7375,
      "compat": 7376,
      "uma": 7377,
      "becomes": 7378,
      "faceted": 7379,
      "perim": 7380,
      "sob": 7381,
      "updated": 7382,
      "ntp": 7383,
      "elastic": 7384,
      "sp;": 7385,
      "httpie": 7386,
      "setting": 7387,
      "latency": 7388,
      "completed": 7389,
      "vendors": 7390,
      "substring": 7391,
      "god": 7392,
      "awn": 7393,
      "statement": 7394,
      "provision": 7395,
      "enhances": 7396,
      "stell": 7397,
      "broken": 7398,
      "automatic": 7399,
      "smtp": 7400,
      "ukaz": 7401,
      "top`": 7402,
      "topic": 7403,
      "developing": 7404,
      "bugs": 7405,
      "maxim": 7406,
      "record": 7407,
      "proc`": 7408,
      "samba": 7409,
      "swiss": 7410,
      "looking": 7411,
      "serialize": 7412,
      "`hex": 7413,
      "quicktime": 7414,
      "{\"$": 7415,
      "around": 7416,
      "frames": 7417,
      "log4j": 7418,
      "study": 7419,
      "predictable": 7420,
      "nbsp;": 7421,
      "feder": 7422,
      "navig": 7423,
      "principal": 7424,
      "p2p": 7425,
      "enrichment": 7426,
      "(c2)": 7427,
      "instrument": 7428,
      "`iconv`": 7429,
      "alstrasoft": 7430,
      "#**": 7431,
      "'+": 7432,
      "(a)": 7433,
      "+[]": 7434,
      "0b": 7435,
      "4b": 7436,
      "`vm": 7437,
      "`grep`": 7438,
      "b`": 7439,
      "bany": 7440,
      "bird": 7441,
      "factor": 7442,
      "glibc": 7443,
      "hub": 7444,
      "ilo": 7445,
      "jam": 7446,
      "jalan": 7447,
      "lms": 7448,
      "oz": 7449,
      "sr": 7450,
      "tend": 7451,
      "vous": 7452,
      "xel": 7453,
      "yum": 7454,
      "προ": 7455,
      "же": 7456,
      "кри": 7457,
      "ме": 7458,
      "其他": 7459,
      "하고": 7460,
      "itself": 7461,
      "atom": 7462,
      "seco": 7463,
      "ing:": 7464,
      "anch": 7465,
      "accor": 7466,
      "rop": 7467,
      "route": 7468,
      "imes": 7469,
      "cracking": 7470,
      "offer": 7471,
      "dell": 7472,
      "decry": 7473,
      "uments": 7474,
      "hour": 7475,
      "htaccess": 7476,
      "apt41": 7477,
      "diverse": 7478,
      "expose": 7479,
      "priate": 7480,
      "overlay": 7481,
      "ntfs": 7482,
      "vulnerabilities?": 7483,
      "vendor:": 7484,
      "surve": 7485,
      "backups": 7486,
      "hosted": 7487,
      "limits": 7488,
      "appropriate": 7489,
      "update:": 7490,
      "silver": 7491,
      "()`": 7492,
      "ukan": 7493,
      "report:": 7494,
      "64)": 7495,
      "locations": 7496,
      "ncdu": 7497,
      "льно": 7498,
      "`pac": 7499,
      "sharepoint": 7500,
      "evaluation": 7501,
      "`dn": 7502,
      "vrst": 7503,
      "파일을": 7504,
      "begins": 7505,
      "builder": 7506,
      "scope:": 7507,
      "`uname": 7508,
      "phases": 7509,
      "decisions": 7510,
      "ecosystem": 7511,
      "exhib": 7512,
      "reliable": 7513,
      "falls": 7514,
      "`xargs`": 7515,
      "`tail`": 7516,
      "asterisk": 7517,
      "geographically": 7518,
      "znak": 7519,
      "příkaz": 7520,
      "modified": 7521,
      "mongodb": 7522,
      "7*7": 7523,
      "verwende": 7524,
      "conventional": 7525,
      "achiev": 7526,
      "pandoc": 7527,
      "oriented": 7528,
      "\");": 7529,
      "'news": 7530,
      "81": 7531,
      "`를": 7532,
      "`apt": 7533,
      "`dm": 7534,
      "`paste`": 7535,
      "bull": 7536,
      "dh": 7537,
      "dar": 7538,
      "dail": 7539,
      "dawn": 7540,
      "fle": 7541,
      "fid": 7542,
      "ipt": 7543,
      "ijte": 7544,
      "kind": 7545,
      "mill": 7546,
      "nut": 7547,
      "pie": 7548,
      "sg": 7549,
      "tid": 7550,
      "treat": 7551,
      "voc": 7552,
      "w00": 7553,
      "xec": 7554,
      "ás": 7555,
      "из": 7556,
      "лу": 7557,
      "пи": 7558,
      "した": 7559,
      "유용": 7560,
      "atu": 7561,
      "orange": 7562,
      "ení": 7563,
      "exit": 7564,
      "album": 7565,
      "ank": 7566,
      "eternal": 7567,
      "staff": 7568,
      "stder": 7569,
      "apa": 7570,
      "academ": 7571,
      "emac": 7572,
      "imag": 7573,
      "gets": 7574,
      "highlight": 7575,
      "ley": 7576,
      "id)": 7577,
      "amb": 7578,
      "amer": 7579,
      "poc": 7580,
      "as)": 7581,
      "asses": 7582,
      "mosh": 7583,
      "implications": 7584,
      "deal": 7585,
      "netware": 7586,
      "servlet": 7587,
      "canary": 7588,
      "htm": 7589,
      "old": 7590,
      "wafw00": 7591,
      "engines": 7592,
      "views": 7593,
      "sudo": 7594,
      "analysis?": 7595,
      "emerging": 7596,
      "1234": 7597,
      "compan": 7598,
      "statements": 7599,
      "region": 7600,
      "ually": 7601,
      "retur": 7602,
      "retail": 7603,
      "referer": 7604,
      "ază": 7605,
      "offset": 7606,
      "instal": 7607,
      "prime": 7608,
      "provided": 7609,
      "javascript:": 7610,
      "arguments": 7611,
      "vision": 7612,
      "axis": 7613,
      "creates": 7614,
      "dir'": 7615,
      "volat": 7616,
      "cryptography": 7617,
      "method:": 7618,
      "einen": 7619,
      "%00%00%00%00": 7620,
      "tags": 7621,
      "blacklist": 7622,
      "descriptor": 7623,
      "modifying": 7624,
      "except": 7625,
      "binding": 7626,
      "`hd`": 7627,
      "bear)": 7628,
      "siemens": 7629,
      "επι": 7630,
      "`strings": 7631,
      "reason": 7632,
      "(b)": 7633,
      "sistema": 7634,
      "student": 7635,
      "pomoc": 7636,
      "dimensional": 7637,
      "<!entity": 7638,
      "hua": 7639,
      "použijte": 7640,
      "ukraine": 7641,
      "sleep": 7642,
      "από": 7643,
      "recognition": 7644,
      "систем": 7645,
      "opportun": 7646,
      "acrobat": 7647,
      "secops": 7648,
      "daily": 7649,
      "wafw00f": 7650,
      "\"1": 7651,
      "&nbsp;": 7652,
      "'page": 7653,
      "(h": 7654,
      "*)": 7655,
      "93": 7656,
      "`find": 7657,
      "`some": 7658,
      "`dig": 7659,
      "`git": 7660,
      "ders": 7661,
      "e**": 7662,
      "gg": 7663,
      "mime": 7664,
      "nac": 7665,
      "necessary": 7666,
      "p`)": 7667,
      "tz": 7668,
      "x)": 7669,
      "xe": 7670,
      "zes": 7671,
      "és": 7672,
      "ří": 7673,
      "εκ": 7674,
      "πρ": 7675,
      "こと": 7676,
      "或者": 7677,
      "실행": 7678,
      "alk": 7679,
      "cht": 7680,
      "entities": 7681,
      "ula": 7682,
      "unter": 7683,
      "unsafe": 7684,
      "crimin": 7685,
      "com\"": 7686,
      "am)": 7687,
      "amass": 7688,
      "cos": 7689,
      "ested": 7690,
      "php:": 7691,
      "reduc": 7692,
      "tracking": 7693,
      "aux": 7694,
      "pres": 7695,
      "dato": 7696,
      "partial": 7697,
      "ifconfig`": 7698,
      "conflu": 7699,
      "month": 7700,
      "applied": 7701,
      "authenticate": 7702,
      "malware:": 7703,
      "misuse": 7704,
      "define": 7705,
      "uga": 7706,
      "complicate": 7707,
      "indicator": 7708,
      "speed": 7709,
      "credentials;": 7710,
      "color": 7711,
      "goal": 7712,
      "posts": 7713,
      "deleted": 7714,
      "causing": 7715,
      "168": 7716,
      "dupl": 7717,
      "detailed": 7718,
      "php?id'": 7719,
      "angular": 7720,
      "messaging": 7721,
      "ocation": 7722,
      "jour": 7723,
      "slip": 7724,
      "developed": 7725,
      "cryptocurrency": 7726,
      "zyxel": 7727,
      "boundary": 7728,
      "ення": 7729,
      "definitions": 7730,
      "env`:": 7731,
      "simulate": 7732,
      "somet": 7733,
      "struction": 7734,
      "question": 7735,
      "можна": 7736,
      "συν": 7737,
      "keeping": 7738,
      "sanitization": 7739,
      "push": 7740,
      "accessed": 7741,
      "banyak": 7742,
      "according": 7743,
      "você": 7744,
      "huawei": 7745,
      "confluence": 7746,
      "1b": 7747,
      "4linux": 7748,
      ":n": 7749,
      ">logfile": 7750,
      "`j": 7751,
      "cg": 7752,
      "cact": 7753,
      "df": 7754,
      "f3": 7755,
      "fly": 7756,
      "jor": 7757,
      "jpeg": 7758,
      "las": 7759,
      "mind": 7760,
      "pix": 7761,
      "spl": 7762,
      "tshark": 7763,
      "των": 7764,
      "клю": 7765,
      "이나": 7766,
      "incomplete": 7767,
      "infin": 7768,
      "onerror": 7769,
      "seen": 7770,
      "escap": 7771,
      "tee": 7772,
      "domain)": 7773,
      "webserver": 7774,
      "lebi": 7775,
      "mente": 7776,
      "doct": 7777,
      "bytes": 7778,
      "zeich": 7779,
      "llm": 7780,
      "10g": 7781,
      "payroll": 7782,
      "operate": 7783,
      "date`": 7784,
      "listen": 7785,
      "più": 7786,
      "layout": 7787,
      "att&ck:": 7788,
      "catalog": 7789,
      "php?g": 7790,
      "offensive": 7791,
      "somefile": 7792,
      "anych": 7793,
      "documentroot'": 7794,
      "campaigns;": 7795,
      "downloads": 7796,
      "label": 7797,
      "scalable": 7798,
      "ethical": 7799,
      "planning": 7800,
      "проце": 7801,
      "financially": 7802,
      "vector:": 7803,
      "dependent": 7804,
      "triggering": 7805,
      "spray": 7806,
      "own`": 7807,
      "delivering": 7808,
      "family:": 7809,
      "questions": 7810,
      "jako": 7811,
      "watering": 7812,
      "wordlists": 7813,
      "timestam": 7814,
      "tracker": 7815,
      "compiled": 7816,
      "jenkins": 7817,
      "splitting": 7818,
      "например": 7819,
      "γρα": 7820,
      "entries": 7821,
      "εργασ": 7822,
      "polyglo": 7823,
      "figur": 7824,
      "cubecart": 7825,
      "specifiers": 7826,
      "systè": 7827,
      "jndi": 7828,
      "swissky": 7829,
      "`pacman`": 7830,
      "`dnf`": 7831,
      "datotek": 7832,
      "$(": 7833,
      "'u": 7834,
      "(a": 7835,
      "(com": 7836,
      "1a": 7837,
      "`tr": 7838,
      "`head": 7839,
      "cassandra": 7840,
      "dor": 7841,
      "fancy": 7842,
      "got": 7843,
      "happ": 7844,
      "jul": 7845,
      "jdk": 7846,
      "mus": 7847,
      "nem": 7848,
      "p1": 7849,
      "pk": 7850,
      "ões": 7851,
      "útil": 7852,
      "ακ": 7853,
      "μία": 7854,
      "νο": 7855,
      "τρ": 7856,
      "τό": 7857,
      "оп": 7858,
      "чере": 7859,
      "예를": 7860,
      "적인": 7861,
      "itas": 7862,
      "eren": 7863,
      "req": 7864,
      "seam": 7865,
      "enia": 7866,
      "anno": 7867,
      "espe": 7868,
      "omni": 7869,
      "conversion": 7870,
      "think": 7871,
      "loss": 7872,
      "sso": 7873,
      "indicate": 7874,
      "isc": 7875,
      "urm": 7876,
      "adoption": 7877,
      "comen": 7878,
      "assembly": 7879,
      "modes": 7880,
      "archives": 7881,
      "devi": 7882,
      "quote": 7883,
      "estate": 7884,
      "fiși": 7885,
      "reconstruction": 7886,
      "ived": 7887,
      "bel": 7888,
      "ecms": 7889,
      "clam": 7890,
      "district": 7891,
      "localhost": 7892,
      "outside": 7893,
      "analyzer": 7894,
      "bypass)": 7895,
      "opens": 7896,
      "\\n\\": 7897,
      "blade": 7898,
      "delay": 7899,
      "sense": 7900,
      "standards": 7901,
      "сті": 7902,
      "automate": 7903,
      "automatically": 7904,
      "txt`": 7905,
      "тек": 7906,
      "помо": 7907,
      "поле": 7908,
      "digest": 7909,
      "')<": 7910,
      "extracting": 7911,
      "scaling": 7912,
      "scalability": 7913,
      "menu": 7914,
      "hiding": 7915,
      "supported": 7916,
      "lookup": 7917,
      "material": 7918,
      "sti)": 7919,
      "μετα": 7920,
      "life": 7921,
      "affecting": 7922,
      "%0d": 7923,
      "ція": 7924,
      "pacific": 7925,
      "motivated": 7926,
      "russian": 7927,
      "decoy": 7928,
      "ptime`": 7929,
      "balancing": 7930,
      "psexec": 7931,
      "arquivos": 7932,
      "orphic": 7933,
      "`shuf": 7934,
      "candid": 7935,
      "yum`": 7936,
      "decryption": 7937,
      "eternalblue": 7938,
      "stderr": 7939,
      "reducing": 7940,
      "lebih": 7941,
      "через": 7942,
      "fișiere": 7943,
      "0\"": 7944,
      "600": 7945,
      "`ap": 7946,
      "`sed": 7947,
      "`open": 7948,
      "bc": 7949,
      "ey": 7950,
      "ecommerce": 7951,
      "ior": 7952,
      "ium": 7953,
      "kes": 7954,
      "lign": 7955,
      "mil": 7956,
      "nar": 7957,
      "nom": 7958,
      "pm": 7959,
      "spa": 7960,
      "v8": 7961,
      "vc": 7962,
      "xo": 7963,
      "zmi": 7964,
      "~pdw": 7965,
      "μπο": 7966,
      "στο": 7967,
      "мін": 7968,
      "ря": 7969,
      "сь": 7970,
      "イン": 7971,
      "如果": 7972,
      "다른": 7973,
      "스크": 7974,
      "enix": 7975,
      "arte": 7976,
      "aligning": 7977,
      "anal": 7978,
      "typo": 7979,
      "stshark": 7980,
      "roy": 7981,
      "uran": 7982,
      "adig": 7983,
      "adopt": 7984,
      "platform:": 7985,
      "implicit": 7986,
      "wait": 7987,
      "cel": 7988,
      "pr`:": 7989,
      "hold": 7990,
      "netbsd": 7991,
      "fictional": 7992,
      "ly?": 7993,
      "injected": 7994,
      "dating": 7995,
      "networking": 7996,
      "clan": 7997,
      "paradig": 7998,
      "disc": 7999
    },
    "merges": [
      [
        "i",
        "n"
      ],
      [
        "i",
        "t"
      ],
      [
        "o",
        "n"
      ],
      [
        "a",
        "t"
      ],
      [
        "e",
        "r"
      ],
      [
        "p",
        "l"
      ],
      [
        "r",
        "e"
      ],
      [
        "s",
        "e"
      ],
      [
        "o",
        "r"
      ],
      [
        "e",
        "n"
      ],
      [
        "e",
        "x"
      ],
      [
        "i",
        "on"
      ],
      [
        "a",
        "r"
      ],
      [
        "a",
        "l"
      ],
      [
        "c",
        "t"
      ],
      [
        "in",
        "g"
      ],
      [
        "pl",
        "o"
      ],
      [
        "plo",
        "it"
      ],
      [
        "a",
        "n"
      ],
      [
        "e",
        "s"
      ],
      [
        "p",
        "e"
      ],
      [
        "e",
        "t"
      ],
      [
        "c",
        "h"
      ],
      [
        "t",
        "y"
      ],
      [
        "e",
        "d"
      ],
      [
        "ty",
        "pe"
      ],
      [
        "o",
        "m"
      ],
      [
        "it",
        "y"
      ],
      [
        "v",
        "er"
      ],
      [
        "en",
        "t"
      ],
      [
        "ex",
        "ploit"
      ],
      [
        "i",
        "c"
      ],
      [
        "f",
        "or"
      ],
      [
        "c",
        "on"
      ],
      [
        "s",
        "t"
      ],
      [
        "t",
        "h"
      ],
      [
        "i",
        "g"
      ],
      [
        "l",
        "o"
      ],
      [
        "type",
        "]"
      ],
      [
        "[",
        "type]"
      ],
      [
        "se",
        "ver"
      ],
      [
        "u",
        "l"
      ],
      [
        "sever",
        "ity"
      ],
      [
        "ct",
        "ion"
      ],
      [
        "a",
        "in"
      ],
      [
        "a",
        "p"
      ],
      [
        "a",
        "c"
      ],
      [
        "[",
        "severity"
      ],
      [
        "[severity",
        "]"
      ],
      [
        "r",
        "o"
      ],
      [
        "at",
        "ion"
      ],
      [
        "i",
        "l"
      ],
      [
        "e",
        "m"
      ],
      [
        "i",
        "m"
      ],
      [
        "s",
        "s"
      ],
      [
        "d",
        "om"
      ],
      [
        "t",
        "e"
      ],
      [
        "g",
        "et"
      ],
      [
        "dom",
        "ain"
      ],
      [
        "at",
        "e"
      ],
      [
        "in",
        "d"
      ],
      [
        "t",
        "ar"
      ],
      [
        "tar",
        "get"
      ],
      [
        "u",
        "n"
      ],
      [
        "w",
        "e"
      ],
      [
        "t",
        "o"
      ],
      [
        "an",
        "d"
      ],
      [
        "i",
        "s"
      ],
      [
        "for",
        "m"
      ],
      [
        "we",
        "b"
      ],
      [
        "n",
        "o"
      ],
      [
        "con",
        "t"
      ],
      [
        "p",
        "at"
      ],
      [
        "u",
        "r"
      ],
      [
        "ig",
        "h"
      ],
      [
        "c",
        "r"
      ],
      [
        "a",
        "ction"
      ],
      [
        "f",
        "ind"
      ],
      [
        "h",
        "igh"
      ],
      [
        "ing",
        "s"
      ],
      [
        "ex",
        "t"
      ],
      [
        "v",
        "e"
      ],
      [
        "l",
        "e"
      ],
      [
        "d",
        "b"
      ],
      [
        "pat",
        "ch"
      ],
      [
        "find",
        "ings"
      ],
      [
        "exploit",
        "db"
      ],
      [
        "action",
        "]"
      ],
      [
        "[",
        "findings"
      ],
      [
        "[",
        "action]"
      ],
      [
        "[findings",
        "]"
      ],
      [
        "a",
        "b"
      ],
      [
        "s",
        "er"
      ],
      [
        "a",
        "d"
      ],
      [
        "c",
        "om"
      ],
      [
        "m",
        "ed"
      ],
      [
        "cont",
        "ext"
      ],
      [
        "pl",
        "at"
      ],
      [
        "plat",
        "form"
      ],
      [
        "exploitdb",
        ":"
      ],
      [
        "context",
        "]"
      ],
      [
        "i",
        "d"
      ],
      [
        "a",
        "m"
      ],
      [
        "em",
        "ent"
      ],
      [
        "ac",
        "k"
      ],
      [
        "p",
        "s"
      ],
      [
        "th",
        "e"
      ],
      [
        "p",
        "o"
      ],
      [
        "o",
        "f"
      ],
      [
        "v",
        "ul"
      ],
      [
        "vul",
        "n"
      ],
      [
        "a",
        "s"
      ],
      [
        "med",
        "i"
      ],
      [
        "m",
        "o"
      ],
      [
        "ar",
        "ch"
      ],
      [
        "e",
        "ct"
      ],
      [
        "p",
        "h"
      ],
      [
        "lo",
        "w"
      ],
      [
        "c",
        "o"
      ],
      [
        "═",
        "═"
      ],
      [
        "it",
        "h"
      ],
      [
        "im",
        "pl"
      ],
      [
        "p",
        "ro"
      ],
      [
        "ic",
        "al"
      ],
      [
        "impl",
        "ement"
      ],
      [
        "se",
        "arch"
      ],
      [
        "w",
        "a"
      ],
      [
        "d",
        "e"
      ],
      [
        "u",
        "m"
      ],
      [
        "f",
        "o"
      ],
      [
        "u",
        "t"
      ],
      [
        "no",
        "w"
      ],
      [
        "s",
        "ploit"
      ],
      [
        "search",
        "sploit"
      ],
      [
        "[",
        "context]"
      ],
      [
        "a",
        "g"
      ],
      [
        "c",
        "e"
      ],
      [
        "it",
        "ical"
      ],
      [
        "p",
        "r"
      ],
      [
        "cr",
        "itical"
      ],
      [
        "h",
        "o"
      ],
      [
        "p",
        "t"
      ],
      [
        "w",
        "ith"
      ],
      [
        "n",
        "et"
      ],
      [
        "t",
        "i"
      ],
      [
        "q",
        "u"
      ],
      [
        "at",
        "t"
      ],
      [
        "p",
        "a"
      ],
      [
        "er",
        "s"
      ],
      [
        "w",
        "or"
      ],
      [
        "c",
        "al"
      ],
      [
        "es",
        "t"
      ],
      [
        "ap",
        "ps"
      ],
      [
        "ph",
        "p"
      ],
      [
        "it",
        "i"
      ],
      [
        "web",
        "apps"
      ],
      [
        "re",
        "at"
      ],
      [
        "f",
        "i"
      ],
      [
        "re",
        "d"
      ],
      [
        "th",
        "reat"
      ],
      [
        "in",
        "t"
      ],
      [
        "l",
        "y"
      ],
      [
        "re",
        "mo"
      ],
      [
        "v",
        "i"
      ],
      [
        "ser",
        "v"
      ],
      [
        "se",
        "c"
      ],
      [
        "remo",
        "te"
      ],
      [
        "a",
        "ct"
      ],
      [
        "ect",
        "ed"
      ],
      [
        "un",
        "d"
      ],
      [
        "lo",
        "g"
      ],
      [
        "u",
        "s"
      ],
      [
        "e",
        "ction"
      ],
      [
        "serv",
        "ic"
      ],
      [
        "c",
        "an"
      ],
      [
        "att",
        "ack"
      ],
      [
        "m",
        "ent"
      ],
      [
        "u",
        "re"
      ],
      [
        "d",
        "et"
      ],
      [
        "h",
        "t"
      ],
      [
        "f",
        "f"
      ],
      [
        "il",
        "e"
      ],
      [
        "st",
        "r"
      ],
      [
        "d",
        "o"
      ],
      [
        "in",
        "j"
      ],
      [
        "wor",
        "k"
      ],
      [
        "ab",
        "il"
      ],
      [
        "wa",
        "re"
      ],
      [
        "re",
        "con"
      ],
      [
        "n",
        "s"
      ],
      [
        "fo",
        "und"
      ],
      [
        "i",
        "v"
      ],
      [
        "medi",
        "ate"
      ],
      [
        "2",
        "0"
      ],
      [
        "vuln",
        "er"
      ],
      [
        "sec",
        "ur"
      ],
      [
        "im",
        "mediate"
      ],
      [
        "secur",
        "ity"
      ],
      [
        "pl",
        "e"
      ],
      [
        "b",
        "e"
      ],
      [
        "f",
        "r"
      ],
      [
        "q",
        "l"
      ],
      [
        "t",
        "r"
      ],
      [
        "i",
        "al"
      ],
      [
        "vulner",
        "abil"
      ],
      [
        "medi",
        "um"
      ],
      [
        "es",
        "s"
      ],
      [
        "cr",
        "i"
      ],
      [
        "i",
        "ve"
      ],
      [
        "m",
        "ul"
      ],
      [
        "a",
        "u"
      ],
      [
        "a",
        "il"
      ],
      [
        "inj",
        "ection"
      ],
      [
        "mul",
        "ti"
      ],
      [
        "s",
        "ql"
      ],
      [
        "ab",
        "le"
      ],
      [
        "cri",
        "pt"
      ],
      [
        "══",
        "══"
      ],
      [
        "p",
        "re"
      ],
      [
        "re",
        "qu"
      ],
      [
        "h",
        "e"
      ],
      [
        "ht",
        "t"
      ],
      [
        "ar",
        "y"
      ],
      [
        "ro",
        "ss"
      ],
      [
        "p",
        "on"
      ],
      [
        "servic",
        "es"
      ],
      [
        "es",
        "cal"
      ],
      [
        "en",
        "d"
      ],
      [
        "e",
        "c"
      ],
      [
        "l",
        "in"
      ],
      [
        "it",
        "e"
      ],
      [
        "s",
        "cript"
      ],
      [
        "s",
        "can"
      ],
      [
        "al",
        "l"
      ],
      [
        "d",
        "at"
      ],
      [
        "multi",
        "ple"
      ],
      [
        "net",
        "work"
      ],
      [
        "i",
        "st"
      ],
      [
        "com",
        "m"
      ],
      [
        "se",
        "d"
      ],
      [
        "exploit",
        "s"
      ],
      [
        "o",
        "l"
      ],
      [
        "a",
        "v"
      ],
      [
        "ap",
        "t"
      ],
      [
        "w",
        "h"
      ],
      [
        "ic",
        "ation"
      ],
      [
        "ag",
        "e"
      ],
      [
        "c",
        "l"
      ],
      [
        "d",
        "i"
      ],
      [
        "int",
        "er"
      ],
      [
        "or",
        "s"
      ],
      [
        "f",
        "ac"
      ],
      [
        "te",
        "ch"
      ],
      [
        "m",
        "ap"
      ],
      [
        "pa",
        "ss"
      ],
      [
        "re",
        "s"
      ],
      [
        "escal",
        "ate"
      ],
      [
        "det",
        "ected"
      ],
      [
        "a",
        "ch"
      ],
      [
        "[",
        "scan"
      ],
      [
        "[",
        "threat"
      ],
      [
        "[threat",
        "]"
      ],
      [
        "s",
        "y"
      ],
      [
        "p",
        "er"
      ],
      [
        "al",
        "low"
      ],
      [
        "id",
        "ent"
      ],
      [
        "c",
        "ross"
      ],
      [
        "u",
        "b"
      ],
      [
        "r",
        "ul"
      ],
      [
        "f",
        "ile"
      ],
      [
        "am",
        "e"
      ],
      [
        "s",
        "ite"
      ],
      [
        "ver",
        "s"
      ],
      [
        "ex",
        "ec"
      ],
      [
        "a",
        "ff"
      ],
      [
        "c",
        "ve"
      ],
      [
        "p",
        "or"
      ],
      [
        "i",
        "o"
      ],
      [
        "wa",
        "f"
      ],
      [
        "b",
        "y"
      ],
      [
        "z",
        "e"
      ],
      [
        "fi",
        "r"
      ],
      [
        "k",
        "e"
      ],
      [
        "se",
        "g"
      ],
      [
        "in",
        "v"
      ],
      [
        "u",
        "ser"
      ],
      [
        "ex",
        "po"
      ],
      [
        "with",
        "in"
      ],
      [
        "seg",
        "ment"
      ],
      [
        "a",
        "y"
      ],
      [
        "ar",
        "d"
      ],
      [
        "se",
        "s"
      ],
      [
        "requ",
        "i"
      ],
      [
        "vulnerabil",
        "ity"
      ],
      [
        "ur",
        "s"
      ],
      [
        "in",
        "form"
      ],
      [
        "t",
        "er"
      ],
      [
        "s",
        "o"
      ],
      [
        "au",
        "th"
      ],
      [
        "pr",
        "i"
      ],
      [
        "he",
        "ad"
      ],
      [
        "ent",
        "s"
      ],
      [
        "aff",
        "ected"
      ],
      [
        "inform",
        "ation"
      ],
      [
        "u",
        "x"
      ],
      [
        "ho",
        "urs"
      ],
      [
        "en",
        "g"
      ],
      [
        "c",
        "ess"
      ],
      [
        "p",
        "ar"
      ],
      [
        "rul",
        "es"
      ],
      [
        "log",
        "y"
      ],
      [
        "vi",
        "a"
      ],
      [
        "n",
        "ing"
      ],
      [
        "u",
        "p"
      ],
      [
        "st",
        "em"
      ],
      [
        "d",
        "is"
      ],
      [
        "i",
        "f"
      ],
      [
        "i",
        "ss"
      ],
      [
        "l",
        "s"
      ],
      [
        "con",
        "f"
      ],
      [
        "inv",
        "est"
      ],
      [
        "invest",
        "ig"
      ],
      [
        "pro",
        "te"
      ],
      [
        "htt",
        "ps"
      ],
      [
        "av",
        "ail"
      ],
      [
        "sy",
        "stem"
      ],
      [
        "it",
        "or"
      ],
      [
        "r",
        "un"
      ],
      [
        "i",
        "b"
      ],
      [
        "i",
        "es"
      ],
      [
        "avail",
        "able"
      ],
      [
        "c",
        "k"
      ],
      [
        "com",
        "pon"
      ],
      [
        "lin",
        "ux"
      ],
      [
        "st",
        "ack"
      ],
      [
        "m",
        "an"
      ],
      [
        "m",
        "on"
      ],
      [
        "tech",
        "no"
      ],
      [
        "n",
        "map"
      ],
      [
        "c",
        "y"
      ],
      [
        "0",
        "0"
      ],
      [
        "e",
        "w"
      ],
      [
        "segment",
        "ation"
      ],
      [
        "un",
        "t"
      ],
      [
        "c",
        "lo"
      ],
      [
        "ap",
        "pl"
      ],
      [
        "ho",
        "w"
      ],
      [
        "script",
        "ing"
      ],
      [
        "https",
        ":"
      ],
      [
        "inter",
        "net"
      ],
      [
        "m",
        "al"
      ],
      [
        "iti",
        "ze"
      ],
      [
        "pri",
        "or"
      ],
      [
        "prote",
        "ction"
      ],
      [
        "patch",
        "ing"
      ],
      [
        "compon",
        "ents"
      ],
      [
        "b",
        "it"
      ],
      [
        "conf",
        "ig"
      ],
      [
        "iti",
        "es"
      ],
      [
        "domain",
        ":"
      ],
      [
        "o",
        "ver"
      ],
      [
        "ic",
        "at"
      ],
      [
        "techno",
        "logy"
      ],
      [
        "]",
        "("
      ],
      [
        "en",
        "s"
      ],
      [
        "th",
        "at"
      ],
      [
        "ent",
        "ial"
      ],
      [
        "prior",
        "itize"
      ],
      [
        "fac",
        "ing"
      ],
      [
        "r",
        "ary"
      ],
      [
        "mon",
        "itor"
      ],
      [
        "ion",
        "s"
      ],
      [
        "lo",
        "cal"
      ],
      [
        "c",
        "red"
      ],
      [
        "l",
        "l"
      ],
      [
        "act",
        "iv"
      ],
      [
        "b",
        "o"
      ],
      [
        "i",
        "p"
      ],
      [
        "fo",
        "re"
      ],
      [
        "i",
        "r"
      ],
      [
        "g",
        "e"
      ],
      [
        "b",
        "u"
      ],
      [
        "con",
        "fir"
      ],
      [
        "dat",
        "a"
      ],
      [
        "an",
        "c"
      ],
      [
        "ar",
        "bit"
      ],
      [
        "4",
        "8"
      ],
      [
        "allow",
        "s"
      ],
      [
        "arbit",
        "rary"
      ],
      [
        "ig",
        "n"
      ],
      [
        "ti",
        "f"
      ],
      [
        "confir",
        "med"
      ],
      [
        "n",
        "t"
      ],
      [
        "auth",
        "ent"
      ],
      [
        "por",
        "t"
      ],
      [
        "se",
        "ss"
      ],
      [
        "lo",
        "ad"
      ],
      [
        "════",
        "════"
      ],
      [
        "en",
        "ce"
      ],
      [
        "m",
        "in"
      ],
      [
        "cred",
        "ential"
      ],
      [
        "co",
        "de"
      ],
      [
        "immediate",
        "ly"
      ],
      [
        "i",
        "z"
      ],
      [
        "activ",
        "ity"
      ],
      [
        "run",
        "ning"
      ],
      [
        "head",
        "ers"
      ],
      [
        "i",
        "fi"
      ],
      [
        "fr",
        "ame"
      ],
      [
        "exec",
        "ut"
      ],
      [
        "o",
        "k"
      ],
      [
        "e",
        "v"
      ],
      [
        "b",
        "a"
      ],
      [
        "as",
        "p"
      ],
      [
        "re",
        "ct"
      ],
      [
        "investig",
        "ate"
      ],
      [
        "o",
        "ut"
      ],
      [
        "1",
        "0"
      ],
      [
        "e",
        "l"
      ],
      [
        "ac",
        "cess"
      ],
      [
        "attack",
        "ers"
      ],
      [
        "c",
        "le"
      ],
      [
        "do",
        "s"
      ],
      [
        "vulnerabil",
        "ities"
      ],
      [
        "or",
        "y"
      ],
      [
        "requi",
        "red"
      ],
      [
        "cont",
        "ro"
      ],
      [
        "f",
        "il"
      ],
      [
        "s",
        "ure"
      ],
      [
        "comm",
        "and"
      ],
      [
        "x",
        "ss"
      ],
      [
        "s",
        "p"
      ],
      [
        "g",
        "r"
      ],
      [
        "vi",
        "ew"
      ],
      [
        "ifi",
        "ed"
      ],
      [
        "m",
        "et"
      ],
      [
        "a",
        "k"
      ],
      [
        "config",
        "ur"
      ],
      [
        "ser",
        "ver"
      ],
      [
        "configur",
        "ation"
      ],
      [
        "in",
        "cl"
      ],
      [
        "o",
        "s"
      ],
      [
        "pr",
        "iv"
      ],
      [
        "l",
        "ic"
      ],
      [
        "wor",
        "d"
      ],
      [
        "n",
        "i"
      ],
      [
        "u",
        "d"
      ],
      [
        "a",
        "re"
      ],
      [
        "pa",
        "y"
      ],
      [
        "h",
        "ard"
      ],
      [
        "m",
        "s"
      ],
      [
        "servic",
        "e"
      ],
      [
        "m",
        "it"
      ],
      [
        "fr",
        "om"
      ],
      [
        "m",
        "l"
      ],
      [
        "act",
        "ive"
      ],
      [
        "an",
        "ce"
      ],
      [
        "te",
        "am"
      ],
      [
        "o",
        "b"
      ],
      [
        "mal",
        "ware"
      ],
      [
        "ve",
        "l"
      ],
      [
        "in",
        "c"
      ],
      [
        "20",
        "0"
      ],
      [
        "execut",
        "ion"
      ],
      [
        "b",
        "er"
      ],
      [
        "authent",
        "ication"
      ],
      [
        "al",
        "y"
      ],
      [
        "di",
        "rect"
      ],
      [
        "priv",
        "ile"
      ],
      [
        "se",
        "ns"
      ],
      [
        "is",
        "h"
      ],
      [
        "iti",
        "ve"
      ],
      [
        "le",
        "vel"
      ],
      [
        "l",
        "i"
      ],
      [
        "er",
        "n"
      ],
      [
        "s",
        "c"
      ],
      [
        "f",
        "low"
      ],
      [
        "m",
        "is"
      ],
      [
        "eng",
        "age"
      ],
      [
        "i",
        "e"
      ],
      [
        "sens",
        "itive"
      ],
      [
        "requ",
        "est"
      ],
      [
        "de",
        "f"
      ],
      [
        "b",
        "re"
      ],
      [
        "u",
        "st"
      ],
      [
        "htt",
        "p"
      ],
      [
        "u",
        "te"
      ],
      [
        "of",
        "t"
      ],
      [
        "u",
        "ct"
      ],
      [
        "an",
        "s"
      ],
      [
        "an",
        "aly"
      ],
      [
        "n",
        "u"
      ],
      [
        "ba",
        "sed"
      ],
      [
        "o",
        "w"
      ],
      [
        "d",
        "ay"
      ],
      [
        "pass",
        "word"
      ],
      [
        "y",
        "o"
      ],
      [
        "by",
        "pass"
      ],
      [
        "hard",
        "ware"
      ],
      [
        "ul",
        "d"
      ],
      [
        "m",
        "iss"
      ],
      [
        "pr",
        "om"
      ],
      [
        "`",
        "`"
      ],
      [
        "t",
        "em"
      ],
      [
        "d",
        "en"
      ],
      [
        "s",
        "id"
      ],
      [
        "pay",
        "load"
      ],
      [
        "str",
        "i"
      ],
      [
        "ident",
        "ified"
      ],
      [
        "2",
        "4"
      ],
      [
        "p",
        "ers"
      ],
      [
        "ff",
        "er"
      ],
      [
        "ch",
        "an"
      ],
      [
        "ser",
        "ve"
      ],
      [
        "se",
        "t"
      ],
      [
        "d",
        "es"
      ],
      [
        "v",
        "al"
      ],
      [
        "lo",
        "ck"
      ],
      [
        "res",
        "pon"
      ],
      [
        "th",
        "is"
      ],
      [
        "anc",
        "ed"
      ],
      [
        "is",
        "k"
      ],
      [
        "u",
        "g"
      ],
      [
        "f",
        "ul"
      ],
      [
        "l",
        "at"
      ],
      [
        "g",
        "en"
      ],
      [
        "t",
        "est"
      ],
      [
        "over",
        "flow"
      ],
      [
        "com",
        "pl"
      ],
      [
        "bre",
        "ach"
      ],
      [
        "man",
        "ag"
      ],
      [
        "v",
        "end"
      ],
      [
        "com",
        "prom"
      ],
      [
        "co",
        "unt"
      ],
      [
        "pre",
        "serve"
      ],
      [
        "po",
        "int"
      ],
      [
        "on",
        "g"
      ],
      [
        "s",
        "ub"
      ],
      [
        "20",
        "1"
      ],
      [
        "co",
        "ok"
      ],
      [
        "r",
        "isk"
      ],
      [
        "comprom",
        "i"
      ],
      [
        "ish",
        "ing"
      ],
      [
        "u",
        "se"
      ],
      [
        "as",
        "h"
      ],
      [
        "par",
        "am"
      ],
      [
        "ind",
        "icat"
      ],
      [
        "p",
        "ut"
      ],
      [
        "yo",
        "u"
      ],
      [
        "dis",
        "clo"
      ],
      [
        "o",
        "p"
      ],
      [
        "*",
        "*"
      ],
      [
        "vend",
        "or"
      ],
      [
        "expo",
        "sed"
      ],
      [
        "sess",
        "ion"
      ],
      [
        "no",
        "tif"
      ],
      [
        "is",
        "ol"
      ],
      [
        "in",
        "te"
      ],
      [
        "ad",
        "min"
      ],
      [
        "ac",
        "count"
      ],
      [
        "mis",
        "configuration"
      ],
      [
        "disclo",
        "sure"
      ],
      [
        "s",
        "oft"
      ],
      [
        "c",
        "v"
      ],
      [
        "g",
        "i"
      ],
      [
        "param",
        "et"
      ],
      [
        "nu",
        "cle"
      ],
      [
        "inc",
        "ident"
      ],
      [
        "nucle",
        "i"
      ],
      [
        "ph",
        "ishing"
      ],
      [
        "](",
        "https:"
      ],
      [
        "indicat",
        "ors"
      ],
      [
        "c",
        "am"
      ],
      [
        "be",
        "fore"
      ],
      [
        "appl",
        "y"
      ],
      [
        "g",
        "er"
      ],
      [
        "respon",
        "se"
      ],
      [
        "s",
        "pe"
      ],
      [
        "s",
        "u"
      ],
      [
        "appl",
        "ication"
      ],
      [
        "str",
        "uct"
      ],
      [
        "notif",
        "y"
      ],
      [
        "ad",
        "d"
      ],
      [
        "se",
        "nt"
      ],
      [
        "ht",
        "ml"
      ],
      [
        "b",
        "lock"
      ],
      [
        "to",
        "ol"
      ],
      [
        "den",
        "ial"
      ],
      [
        "ation",
        "s"
      ],
      [
        "an",
        "t"
      ],
      [
        "o",
        "t"
      ],
      [
        "s",
        "ch"
      ],
      [
        "w",
        "w"
      ],
      [
        "re",
        "view"
      ],
      [
        "m",
        "e"
      ],
      [
        "contro",
        "ls"
      ],
      [
        "wh",
        "at"
      ],
      [
        "ic",
        "k"
      ],
      [
        "ab",
        "a"
      ],
      [
        "u",
        "ce"
      ],
      [
        "domain",
        "s"
      ],
      [
        "fac",
        "e"
      ],
      [
        "miss",
        "ing"
      ],
      [
        "n",
        "a"
      ],
      [
        "po",
        "lic"
      ],
      [
        "bu",
        "ffer"
      ],
      [
        "credential",
        "s"
      ],
      [
        "d",
        "er"
      ],
      [
        "io",
        "us"
      ],
      [
        "exec",
        "ute"
      ],
      [
        "u",
        "e"
      ],
      [
        "dat",
        "aba"
      ],
      [
        "vi",
        "r"
      ],
      [
        "t",
        "im"
      ],
      [
        "f",
        "t"
      ],
      [
        "i",
        "ch"
      ],
      [
        "end",
        "point"
      ],
      [
        "pre",
        "sent"
      ],
      [
        "cr",
        "y"
      ],
      [
        "monitor",
        "ing"
      ],
      [
        "ig",
        "ns"
      ],
      [
        "f",
        "un"
      ],
      [
        "s",
        "v"
      ],
      [
        "pers",
        "ist"
      ],
      [
        "id",
        "ence"
      ],
      [
        "us",
        "ion"
      ],
      [
        "o",
        "pt"
      ],
      [
        "fore",
        "ns"
      ],
      [
        "paramet",
        "er"
      ],
      [
        "st",
        "g"
      ],
      [
        "forens",
        "ic"
      ],
      [
        "s",
        "is"
      ],
      [
        "expo",
        "ses"
      ],
      [
        "\\",
        "n"
      ],
      [
        "c",
        "es"
      ],
      [
        "so",
        "c"
      ],
      [
        "le",
        "ct"
      ],
      [
        "ul",
        "e"
      ],
      [
        "red",
        "uce"
      ],
      [
        "co",
        "l"
      ],
      [
        "w",
        "ind"
      ],
      [
        "ac",
        "ross"
      ],
      [
        "analy",
        "sis"
      ],
      [
        "w",
        "o"
      ],
      [
        "c",
        "ors"
      ],
      [
        "l",
        "ong"
      ],
      [
        "det",
        "ection"
      ],
      [
        "system",
        "s"
      ],
      [
        "at",
        "ed"
      ],
      [
        "target",
        "ing"
      ],
      [
        "ev",
        "idence"
      ],
      [
        "in",
        "e"
      ],
      [
        "wind",
        "ow"
      ],
      [
        "n",
        "ame"
      ],
      [
        "isol",
        "ate"
      ],
      [
        "at",
        "ing"
      ],
      [
        "plo",
        "y"
      ],
      [
        "a",
        "ss"
      ],
      [
        "re",
        "comm"
      ],
      [
        "ment",
        "s"
      ],
      [
        "recomm",
        "end"
      ],
      [
        "or",
        "g"
      ],
      [
        "ful",
        "l"
      ],
      [
        "compromi",
        "se"
      ],
      [
        "s",
        "ur"
      ],
      [
        "ic",
        "ious"
      ],
      [
        "on",
        "e"
      ],
      [
        "c",
        "i"
      ],
      [
        "b",
        "al"
      ],
      [
        "no",
        "t"
      ],
      [
        "sec",
        "ure"
      ],
      [
        "'",
        "s"
      ],
      [
        "g",
        "ed"
      ],
      [
        "st",
        "ate"
      ],
      [
        "attack",
        "s"
      ],
      [
        "1",
        "1"
      ],
      [
        "s",
        "h"
      ],
      [
        "════════",
        "════════"
      ],
      [
        "tr",
        "a"
      ],
      [
        "ack",
        "ing"
      ],
      [
        "val",
        "id"
      ],
      [
        "cam",
        "pa"
      ],
      [
        "c",
        "ur"
      ],
      [
        "for",
        "ce"
      ],
      [
        "clo",
        "ud"
      ],
      [
        "fun",
        "ction"
      ],
      [
        "log",
        "s"
      ],
      [
        "ad",
        "v"
      ],
      [
        "er",
        "al"
      ],
      [
        "m",
        "em"
      ],
      [
        "user",
        "s"
      ],
      [
        "g",
        "o"
      ],
      [
        "er",
        "o"
      ],
      [
        "vers",
        "al"
      ],
      [
        "em",
        "ail"
      ],
      [
        "vers",
        "ion"
      ],
      [
        "attack",
        "er"
      ],
      [
        "mit",
        "ig"
      ],
      [
        "tech",
        "ni"
      ],
      [
        "w",
        "stg"
      ],
      [
        "soft",
        "ware"
      ],
      [
        "struct",
        "ure"
      ],
      [
        "j",
        "ect"
      ],
      [
        "direct",
        "ory"
      ],
      [
        "to",
        "k"
      ],
      [
        "f",
        "l"
      ],
      [
        "o",
        "per"
      ],
      [
        "c",
        "is"
      ],
      [
        "techni",
        "qu"
      ],
      [
        "pr",
        "int"
      ],
      [
        "op",
        "en"
      ],
      [
        "1",
        ")"
      ],
      [
        "window",
        "s"
      ],
      [
        "po",
        "st"
      ],
      [
        "wo",
        "uld"
      ],
      [
        "cook",
        "ie"
      ],
      [
        "frame",
        "work"
      ],
      [
        "tra",
        "versal"
      ],
      [
        "](",
        "#"
      ],
      [
        "wh",
        "ich"
      ],
      [
        "sch",
        "ed"
      ],
      [
        "persist",
        "ent"
      ],
      [
        "ul",
        "t"
      ],
      [
        "ab",
        "l"
      ],
      [
        "m",
        "ac"
      ],
      [
        "ern",
        "al"
      ],
      [
        "n",
        "e"
      ],
      [
        "ag",
        "ain"
      ],
      [
        "mo",
        "v"
      ],
      [
        "j",
        "acking"
      ],
      [
        "h",
        "unt"
      ],
      [
        "c",
        "or"
      ],
      [
        "ig",
        "in"
      ],
      [
        "incl",
        "usion"
      ],
      [
        "d",
        "ate"
      ],
      [
        "in",
        "put"
      ],
      [
        "or",
        "igin"
      ],
      [
        "em",
        "er"
      ],
      [
        "j",
        "av"
      ],
      [
        "cv",
        "ss"
      ],
      [
        "again",
        "st"
      ],
      [
        "icat",
        "ed"
      ],
      [
        "d",
        "it"
      ],
      [
        "adv",
        "anced"
      ],
      [
        "pat",
        "h"
      ],
      [
        "ug",
        "h"
      ],
      [
        "re",
        "ad"
      ],
      [
        "met",
        "ho"
      ],
      [
        "ext",
        "ernal"
      ],
      [
        "c",
        "ms"
      ],
      [
        "fr",
        "a"
      ],
      [
        "b",
        "l"
      ],
      [
        "1",
        "2"
      ],
      [
        "th",
        "ro"
      ],
      [
        "f",
        "er"
      ],
      [
        "in",
        "fra"
      ],
      [
        "php",
        "'"
      ],
      [
        "lat",
        "eral"
      ],
      [
        "a",
        "w"
      ],
      [
        "wh",
        "en"
      ],
      [
        "c",
        "sp"
      ],
      [
        "i",
        "x"
      ],
      [
        "cy",
        "ber"
      ],
      [
        "tim",
        "e"
      ],
      [
        "infra",
        "structure"
      ],
      [
        "mo",
        "d"
      ],
      [
        "manag",
        "ement"
      ],
      [
        "escal",
        "ation"
      ],
      [
        "de",
        "l"
      ],
      [
        "day",
        "s"
      ],
      [
        "mov",
        "ement"
      ],
      [
        "log",
        "in"
      ],
      [
        "hunt",
        "ing"
      ],
      [
        "g",
        "or"
      ],
      [
        "20",
        "2"
      ],
      [
        "ke",
        "y"
      ],
      [
        "er",
        "e"
      ],
      [
        "thro",
        "ugh"
      ],
      [
        "en",
        "vir"
      ],
      [
        "c",
        "s"
      ],
      [
        "envir",
        "on"
      ],
      [
        "c",
        "a"
      ],
      [
        "9",
        "0"
      ],
      [
        "z",
        "ero"
      ],
      [
        "po",
        "ss"
      ],
      [
        "gen",
        "cy"
      ],
      [
        "sur",
        "face"
      ],
      [
        "fil",
        "es"
      ],
      [
        "payload",
        ":"
      ],
      [
        "spe",
        "c"
      ],
      [
        "s",
        "how"
      ],
      [
        "f",
        "a"
      ],
      [
        "st",
        "and"
      ],
      [
        "poss",
        "ib"
      ],
      [
        "pt",
        "ion"
      ],
      [
        "emer",
        "gency"
      ],
      [
        "`",
        ":"
      ],
      [
        "requi",
        "res"
      ],
      [
        "opt",
        "ions"
      ],
      [
        "f",
        "e"
      ],
      [
        "ar",
        "t"
      ],
      [
        "com",
        "p"
      ],
      [
        "c",
        "gi"
      ],
      [
        "pat",
        "ter"
      ],
      [
        "b",
        "ack"
      ],
      [
        "er",
        "t"
      ],
      [
        "w",
        "t"
      ],
      [
        "tem",
        "por"
      ],
      [
        "l",
        "a"
      ],
      [
        "privile",
        "ge"
      ],
      [
        "l",
        "im"
      ],
      [
        "s",
        "um"
      ],
      [
        "al",
        "gor"
      ],
      [
        "mitig",
        "ation"
      ],
      [
        "algor",
        "ith"
      ],
      [
        "det",
        "ect"
      ],
      [
        "ap",
        "i"
      ],
      [
        "sched",
        "ule"
      ],
      [
        "port",
        "s"
      ],
      [
        "lin",
        "e"
      ],
      [
        "iz",
        "ation"
      ],
      [
        "u",
        "sed"
      ],
      [
        "tr",
        "ust"
      ],
      [
        "act",
        "s"
      ],
      [
        "ch",
        "ain"
      ],
      [
        "om",
        "e"
      ],
      [
        "p",
        "ub"
      ],
      [
        "ar",
        "k"
      ],
      [
        "c",
        "2"
      ],
      [
        "g",
        "ith"
      ],
      [
        "exploit",
        "ation"
      ],
      [
        "cont",
        "ent"
      ],
      [
        "ho",
        "st"
      ],
      [
        "us",
        "ing"
      ],
      [
        "ar",
        "tif"
      ],
      [
        "sid",
        "e"
      ],
      [
        "gith",
        "ub"
      ],
      [
        "j",
        "wt"
      ],
      [
        "xss",
        ")"
      ],
      [
        "k",
        "now"
      ],
      [
        "fir",
        "m"
      ],
      [
        "h",
        "a"
      ],
      [
        "inj",
        "ect"
      ],
      [
        "(",
        "xss)"
      ],
      [
        "io",
        "s"
      ],
      [
        "d",
        "s"
      ],
      [
        "m",
        "a"
      ],
      [
        "command",
        "s"
      ],
      [
        "d",
        "r"
      ],
      [
        "be",
        "a"
      ],
      [
        "f",
        "ing"
      ],
      [
        "as",
        "sess"
      ],
      [
        "lim",
        "it"
      ],
      [
[...]
