{
  "version": "1.0",
  "truncation": null,
  "padding": null,
  "added_tokens": [
    {
      "id": 0,
      "content": "<PAD>",
      "single_word": false,
      "lstrip": false,
      "rstrip": false,
      "normalized": false,
      "special": true
    },
    {
      "id": 1,
      "content": "<BOS>",
      "single_word": false,
      "lstrip": false,
      "rstrip": false,
      "normalized": false,
      "special": true
    },
    {
      "id": 2,
      "content": "<EOS>",
      "single_word": false,
      "lstrip": false,
      "rstrip": false,
      "normalized": false,
      "special": true
    },
    {
      "id": 3,
      "content": "<UNK>",
      "single_word": false,
      "lstrip": false,
      "rstrip": false,
      "normalized": false,
      "special": true
    }
  ],
  "normalizer": null,
  "pre_tokenizer": {
    "type": "Split",
    "pattern": {
      "Regex": "\\s+|(?<=[a-z0-9])(?=[/\\-_])|(?<=[/\\-_])(?=[a-z0-9])"
    },
    "behavior": "Removed",
    "invert": false
  },
  "post_processor": {
    "type": "TemplateProcessing",
    "single": [
      {
        "SpecialToken": {
          "id": "<BOS>",
          "type_id": 0
        }
      },
      {
        "Sequence": {
          "id": "A",
          "type_id": 0
        }
      },
      {
        "SpecialToken": {
          "id": "<EOS>",
          "type_id": 0
        }
      }
    ],
    "pair": [
      {
        "Sequence": {
          "id": "A",
          "type_id": 0
        }
      },
      {
        "Sequence": {
          "id": "B",
          "type_id": 1
        }
      }
    ],
    "special_tokens": {
      "<BOS>": {
        "id": "<BOS>",
        "ids": [
          1
        ],
        "tokens": [
          "<BOS>"
        ]
      },
      "<EOS>": {
        "id": "<EOS>",
        "ids": [
          2
        ],
        "tokens": [
          "<EOS>"
        ]
      }
    }
  },
  "decoder": null,
  "model": {
    "type": "BPE",
    "dropout": null,
    "unk_token": "<UNK>",
    "continuing_subword_prefix": null,
    "end_of_word_suffix": null,
    "fuse_unk": false,
    "byte_fallback": false,
    "ignore_merges": false,
    "vocab": {
      "<PAD>": 0,
      "<BOS>": 1,
      "<EOS>": 2,
      "<UNK>": 3,
      "!": 4,
      "\"": 5,
      "#": 6,
      "$": 7,
      "%": 8,
      "&": 9,
      "'": 10,
      "(": 11,
      ")": 12,
      "*": 13,
      "+": 14,
      ",": 15,
      "-": 16,
      ".": 17,
      "/": 18,
      "0": 19,
      "1": 20,
      "2": 21,
      "3": 22,
      "4": 23,
      "5": 24,
      "6": 25,
      "7": 26,
      "8": 27,
      "9": 28,
      ":": 29,
      ";": 30,
      "<": 31,
      "=": 32,
      ">": 33,
      "?": 34,
      "@": 35,
      "[": 36,
      "\\": 37,
      "]": 38,
      "^": 39,
      "_": 40,
      "`": 41,
      "a": 42,
      "b": 43,
      "c": 44,
      "d": 45,
      "e": 46,
      "f": 47,
      "g": 48,
      "h": 49,
      "i": 50,
      "j": 51,
      "k": 52,
      "l": 53,
      "m": 54,
      "n": 55,
      "o": 56,
      "p": 57,
      "q": 58,
      "r": 59,
      "s": 60,
      "t": 61,
      "u": 62,
      "v": 63,
      "w": 64,
      "x": 65,
      "y": 66,
      "z": 67,
      "{": 68,
      "|": 69,
      "}": 70,
      "~": 71,
      "": 72,
      "¡": 73,
      "¢": 74,
      "¤": 75,
      "¦": 76,
      "§": 77,
      "¨": 78,
      "©": 79,
      "«": 80,
      "­": 81,
      "®": 82,
      "°": 83,
      "±": 84,
      "²": 85,
      "³": 86,
      "´": 87,
      "µ": 88,
      "·": 89,
      "¹": 90,
      "º": 91,
      "»": 92,
      "¼": 93,
      "½": 94,
      "¿": 95,
      "×": 96,
      "ß": 97,
      "à": 98,
      "á": 99,
      "â": 100,
      "ã": 101,
      "ä": 102,
      "å": 103,
      "ç": 104,
      "è": 105,
      "é": 106,
      "í": 107,
      "ï": 108,
      "ñ": 109,
      "ó": 110,
      "ö": 111,
      "ø": 112,
      "ù": 113,
      "ú": 114,
      "ü": 115,
      "ÿ": 116,
      "ć": 117,
      "ğ": 118,
      "ł": 119,
      "ş": 120,
      "š": 121,
      "ž": 122,
      "˜": 123,
      "˝": 124,
      "̇": 125,
      "δ": 126,
      "η": 127,
      "ρ": 128,
      "а": 129,
      "б": 130,
      "в": 131,
      "г": 132,
      "е": 133,
      "з": 134,
      "и": 135,
      "й": 136,
      "к": 137,
      "л": 138,
      "м": 139,
      "н": 140,
      "о": 141,
      "п": 142,
      "р": 143,
      "с": 144,
      "т": 145,
      "у": 146,
      "ф": 147,
      "х": 148,
      "ц": 149,
      "ч": 150,
      "я": 151,
      "​": 152,
      "‌": 153,
      "‐": 154,
      "‑": 155,
      "–": 156,
      "—": 157,
      "‘": 158,
      "’": 159,
      "‚": 160,
      "“": 161,
      "”": 162,
      "„": 163,
      "†": 164,
      "‡": 165,
      "•": 166,
      "…": 167,
      "′": 168,
      "″": 169,
      "⁃": 170,
      "€": 171,
      "™": 172,
      "←": 173,
      "→": 174,
      "↓": 175,
      "↔": 176,
      "−": 177,
      "≈": 178,
      "≤": 179,
      "≥": 180,
      "─": 181,
      "│": 182,
      "└": 183,
      "├": 184,
      "➜": 185,
      "➤": 186,
      "⟺": 187,
      "㱋": 188,
      "下": 189,
      "专": 190,
      "个": 191,
      "乔": 192,
      "人": 193,
      "入": 194,
      "前": 195,
      "响": 196,
      "器": 197,
      "圣": 198,
      "应": 199,
      "影": 200,
      "後": 201,
      "接": 202,
      "換": 203,
      "数": 204,
      "注": 205,
      "洞": 206,
      "漏": 207,
      "版": 208,
      "用": 209,
      "简": 210,
      "系": 211,
      "统": 212,
      "置": 213,
      "载": 214,
      "采": 215,
      "链": 216,
      "集": 217,
      "﻿": 218,
      "（": 219,
      "）": 220,
      "＋": 221,
      "－": 222,
      "＝": 223,
      "＠": 224,
      "�": 225,
      "🟠": 226,
      "🧨": 227,
      "in": 228,
      "te": 229,
      "re": 230,
      "on": 231,
      "er": 232,
      "at": 233,
      "it": 234,
      "al": 235,
      "ac": 236,
      "en": 237,
      "or": 238,
      "ion": 239,
      "an": 240,
      "ing": 241,
      "th": 242,
      "es": 243,
      "se": 244,
      "le": 245,
      "is": 246,
      "lo": 247,
      "ar": 248,
      "de": 249,
      "ate": 250,
      "ic": 251,
      "om": 252,
      "pe": 253,
      "ver": 254,
      "ity": 255,
      "con": 256,
      "ty": 257,
      "ent": 258,
      "ge": 259,
      "type": 260,
      "tion": 261,
      "fi": 262,
      "type]": 263,
      "[type]": 264,
      "to": 265,
      "ul": 266,
      "me": 267,
      "tec": 268,
      "st": 269,
      "ind": 270,
      "ted": 271,
      "ain": 272,
      "ch": 273,
      "detec": 274,
      "the": 275,
      "ro": 276,
      "find": 277,
      "sever": 278,
      "severity": 279,
      "ack": 280,
      "us": 281,
      "finding": 282,
      "im": 283,
      "di": 284,
      "action": 285,
      "vul": 286,
      "vuln": 287,
      "s]": 288,
      "il": 289,
      "pat": 290,
      "ation": 291,
      "[finding": 292,
      "severity]": 293,
      "action]": 294,
      "[findings]": 295,
      "[severity]": 296,
      "[action]": 297,
      "ex": 298,
      "detected": 299,
      "get": 300,
      "ig": 301,
      "ab": 302,
      "are": 303,
      "un": 304,
      "ur": 305,
      "id": 306,
      "tar": 307,
      "att": 308,
      "dom": 309,
      "for": 310,
      "}}": 311,
      "target": 312,
      "{{": 313,
      "domain": 314,
      "sc": 315,
      "we": 316,
      "ve": 317,
      "ec": 318,
      "attack": 319,
      "ware": 320,
      "web": 321,
      "low": 322,
      "cal": 323,
      "as": 324,
      "am": 325,
      "ter": 326,
      "reat": 327,
      "ow": 328,
      "ly": 329,
      "and": 330,
      "threat": 331,
      "mal": 332,
      "ad": 333,
      "s:": 334,
      "ap": 335,
      "ment": 336,
      "scan": 337,
      "up": 338,
      "patch": 339,
      "medi": 340,
      "ed": 341,
      "ag": 342,
      "escal": 343,
      "pro": 344,
      "xt": 345,
      "vi": 346,
      "co": 347,
      "escalate": 348,
      "ser": 349,
      "com": 350,
      "igh": 351,
      "conte": 352,
      "tp": 353,
      "of": 354,
      "ct": 355,
      "context": 356,
      "os": 357,
      "malware": 358,
      "context]": 359,
      "[threat": 360,
      "[scan": 361,
      "[threat]": 362,
      "high": 363,
      "exp": 364,
      "ph": 365,
      "cr": 366,
      "tr": 367,
      "um": 368,
      "wor": 369,
      "ess": 370,
      "mo": 371,
      "ce": 372,
      "ht": 373,
      "able": 374,
      "ple": 375,
      "au": 376,
      "ure": 377,
      "file": 378,
      "ne": 379,
      "pl": 380,
      "user": 381,
      "age": 382,
      "http": 383,
      "ith": 384,
      "fil": 385,
      "ss": 386,
      "ish": 387,
      "cur": 388,
      "be": 389,
      "ame": 390,
      "log": 391,
      "ri": 392,
      "ins": 393,
      "fo": 394,
      "ti": 395,
      "ys": 396,
      "with": 397,
      "est": 398,
      "now": 399,
      "loit": 400,
      "phish": 401,
      "ical": 402,
      "tem": 403,
      "vic": 404,
      "phishing": 405,
      "qu": 406,
      "imple": 407,
      "ider": 408,
      "end": 409,
      "https:": 410,
      "exploit": 411,
      "ut": 412,
      "insider": 413,
      "implement": 414,
      "itical": 415,
      "critical": 416,
      "af": 417,
      "ho": 418,
      "el": 419,
      "dis": 420,
      "confi": 421,
      "ke": 422,
      "si": 423,
      "uc": 424,
      "ail": 425,
      "ol": 426,
      "servic": 427,
      "form": 428,
      "enti": 429,
      "auth": 430,
      "path": 431,
      "comm": 432,
      "vulner": 433,
      "secur": 434,
      "20": 435,
      "security": 436,
      "per": 437,
      "red": 438,
      "fec": 439,
      "do": 440,
      "net": 441,
      "run": 442,
      "name": 443,
      "pre": 444,
      "iti": 445,
      "cess": 446,
      "recon": 447,
      "work": 448,
      "mediate": 449,
      "all": 450,
      "ory": 451,
      "immediate": 452,
      "pt": 453,
      "date": 454,
      "abil": 455,
      "medium": 456,
      "po": 457,
      "cont": 458,
      "sion": 459,
      "ay": 460,
      "sys": 461,
      "config": 462,
      "app": 463,
      "av": 464,
      "vulnerabil": 465,
      "sh": 466,
      "so": 467,
      "system": 468,
      "su": 469,
      "lei": 470,
      "nuc": 471,
      "nuclei": 472,
      "fr": 473,
      "by": 474,
      "ew": 475,
      "vest": 476,
      "tag": 477,
      "dd": 478,
      "cve": 479,
      "aml": 480,
      "dire": 481,
      "int": 482,
      "view": 483,
      "sp": 484,
      "yaml": 485,
      "sil": 486,
      "cl": 487,
      "ci": 488,
      "{{[": 489,
      "silent": 490,
      "update": 491,
      "ddos": 492,
      "services": 493,
      "direct": 494,
      "no": 495,
      "remo": 496,
      "em": 497,
      "affec": 498,
      "immediately": 499,
      "dat": 500,
      "tags:": 501,
      "str": 502,
      "network": 503,
      "detect": 504,
      "io": 505,
      "enable": 506,
      "affected": 507,
      "invest": 508,
      "mis": 509,
      "]}}": 510,
      "investig": 511,
      "jec": 512,
      "word": 513,
      "set": 514,
      "ine": 515,
      "ren": 516,
      "ication": 517,
      "{{path": 518,
      "access": 519,
      "act": 520,
      "fied": 521,
      "ass": 522,
      "version": 523,
      "ist": 524,
      "ug": 525,
      "ach": 526,
      "man": 527,
      "ww": 528,
      "pan": 529,
      "spe": 530,
      "requ": 531,
      "fa": 532,
      "vend": 533,
      "vendor": 534,
      "ort": 535,
      "wh": 536,
      "login": 537,
      "pr": 538,
      "ans": 539,
      "investigate": 540,
      "formation": 541,
      "files": 542,
      "information": 543,
      "apply": 544,
      "ious": 545,
      "ten": 546,
      "site": 547,
      "gr": 548,
      "vulnerability": 549,
      "data": 550,
      "exec": 551,
      "identi": 552,
      "scri": 553,
      "reg": 554,
      "panel": 555,
      "load": 556,
      "bo": 557,
      "script": 558,
      "icious": 559,
      "that": 560,
      "uct": 561,
      "sed": 562,
      "again": 563,
      "filter": 564,
      "against": 565,
      "pass": 566,
      "directory": 567,
      "identified": 568,
      "icat": 569,
      "ql": 570,
      "review": 571,
      "iz": 572,
      "server": 573,
      "filtering": 574,
      "this": 575,
      "ir": 576,
      "ms": 577,
      "202": 578,
      "dn": 579,
      "ult": 580,
      "hour": 581,
      "ip": 582,
      "op": 583,
      "ou": 584,
      "ning": 585,
      "regis": 586,
      "lin": 587,
      "very": 588,
      "fic": 589,
      "protec": 590,
      "art": 591,
      "tern": 592,
      "misconfig": 593,
      "own": 594,
      "ary": 595,
      "hours": 596,
      "pri": 597,
      "stre": 598,
      "acti": 599,
      "port": 600,
      "lim": 601,
      "commun": 602,
      "remote": 603,
      "ha": 604,
      "ers": 605,
      "sql": 606,
      "avail": 607,
      "authent": 608,
      "speci": 609,
      "available": 610,
      "list": 611,
      "disco": 612,
      "ential": 613,
      "injec": 614,
      "users": 615,
      "cred": 616,
      "col": 617,
      "stream": 618,
      "press": 619,
      "can": 620,
      "fore": 621,
      "c2": 622,
      "logs": 623,
      "oft": 624,
      "limit": 625,
      "rate": 626,
      "protection": 627,
      "credential": 628,
      "mentation": 629,
      "ated": 630,
      "execu": 631,
      "der": 632,
      "arch": 633,
      "isol": 634,
      "within": 635,
      "contact": 636,
      "chan": 637,
      "soft": 638,
      "running": 639,
      "code": 640,
      "before": 641,
      "ens": 642,
      "min": 643,
      "one": 644,
      "inst": 645,
      "if": 646,
      "00": 647,
      "isp": 648,
      "cdn": 649,
      "48": 650,
      "from": 651,
      "upstream": 652,
      "limiting": 653,
      "rans": 654,
      "omware": 655,
      "ransomware": 656,
      "command": 657,
      "clo": 658,
      "inter": 659,
      "back": 660,
      "injection": 661,
      "eng": 662,
      "ross": 663,
      "ks": 664,
      "page": 665,
      "author": 666,
      "sour": 667,
      "ev": 668,
      "late": 669,
      "seg": 670,
      "``": 671,
      "ub": 672,
      "anal": 673,
      "ome": 674,
      "li": 675,
      "ful": 676,
      "segmentation": 677,
      "ard": 678,
      "show": 679,
      "wordpress": 680,
      "malicious": 681,
      "cross": 682,
      "discovery": 683,
      "rent": 684,
      "registr": 685,
      "struct": 686,
      "read": 687,
      "##": 688,
      "ant": 689,
      "chec": 690,
      "ck": 691,
      "email": 692,
      "test": 693,
      "ace": 694,
      "ities": 695,
      "ud": 696,
      "structure": 697,
      "scripting": 698,
      "mem": 699,
      "go": 700,
      "reset": 701,
      "par": 702,
      "out": 703,
      "bit": 704,
      "defa": 705,
      "systems": 706,
      "default": 707,
      "allow": 708,
      "cre": 709,
      "vile": 710,
      "privile": 711,
      "plug": 712,
      "source": 713,
      "ase": 714,
      "bu": 715,
      "beha": 716,
      "www": 717,
      "behavi": 718,
      "ak": 719,
      "ash": 720,
      "behavior": 721,
      "infr": 722,
      "search": 723,
      "ue": 724,
      "infra": 725,
      "infrastructure": 726,
      "ign": 727,
      "icator": 728,
      "request": 729,
      "ive": 730,
      "remove": 731,
      "pack": 732,
      "add": 733,
      "contain": 734,
      "play": 735,
      "indicator": 736,
      "plugin": 737,
      "credentials": 738,
      "active": 739,
      "vulnerabilities": 740,
      "requi": 741,
      "ast": 742,
      "privilege": 743,
      "ence": 744,
      "local": 745,
      "print": 746,
      "et": 747,
      "software": 748,
      "current": 749,
      "rec": 750,
      "open": 751,
      "resp": 752,
      "respon": 753,
      "he": 754,
      "incl": 755,
      "lect": 756,
      "know": 757,
      "unt": 758,
      "service": 759,
      "ump": 760,
      "sus": 761,
      "php": 762,
      "down": 763,
      "name}}": 764,
      "10": 765,
      "expos": 766,
      "password": 767,
      "rary": 768,
      "pers": 769,
      "full": 770,
      "pattern": 771,
      "ob": 772,
      "val": 773,
      "ye": 774,
      "memory": 775,
      "dump": 776,
      "wp": 777,
      "admin": 778,
      "sub": 779,
      "fy": 780,
      "not": 781,
      "authentic": 782,
      "tput": 783,
      "key": 784,
      "ies": 785,
      "ages": 786,
      "put": 787,
      "output": 788,
      "ade": 789,
      "plo": 790,
      "exposure": 791,
      "ject": 792,
      "isten": 793,
      "appl": 794,
      "itive": 795,
      "team": 796,
      "cond": 797,
      "fe": 798,
      "authenticated": 799,
      "new": 800,
      "mon": 801,
      "point": 802,
      "aw": 803,
      "specific": 804,
      "info": 805,
      "via": 806,
      "arbit": 807,
      "serve": 808,
      "med": 809,
      "api": 810,
      "mit": 811,
      "known": 812,
      "was": 813,
      "response": 814,
      "initi": 815,
      "des": 816,
      "ml": 817,
      "use": 818,
      "ident": 819,
      "rep": 820,
      "proc": 821,
      "check": 822,
      "arbitrary": 823,
      "manage": 824,
      "ction": 825,
      "ensitive": 826,
      "loads": 827,
      "attacker": 828,
      "tro": 829,
      "registry": 830,
      "inc": 831,
      "install": 832,
      "door": 833,
      "db": 834,
      "using": 835,
      "display": 836,
      "application": 837,
      "git": 838,
      "analys": 839,
      "analysis": 840,
      "sensitive": 841,
      "ble": 842,
      "tration": 843,
      "jan": 844,
      "required": 845,
      "input": 846,
      "ls": 847,
      "mechan": 848,
      "communication": 849,
      "mechanis": 850,
      "und": 851,
      "ick": 852,
      "ree": 853,
      "ness": 854,
      "comp": 855,
      "persisten": 856,
      "cron": 857,
      "pts": 858,
      "host": 859,
      "confir": 860,
      "ber": 861,
      "py": 862,
      "authoriz": 863,
      "backdoor": 864,
      "emplo": 865,
      "ll": 866,
      "res": 867,
      "idence": 868,
      "evidence": 869,
      "ot": 870,
      "execution": 871,
      "sic": 872,
      "ich": 873,
      "itor": 874,
      "you": 875,
      "ok": 876,
      "employe": 877,
      "attem": 878,
      "ill": 879,
      "patterns": 880,
      "foren": 881,
      "mechanisms": 882,
      "forensic": 883,
      "collect": 884,
      "ba": 885,
      "ache": 886,
      "over": 887,
      "persistence": 888,
      "aware": 889,
      "isolation": 890,
      "mediation": 891,
      "ther": 892,
      "remediation": 893,
      "proced": 894,
      "procedure": 895,
      "icating": 896,
      "mac": 897,
      "preserve": 898,
      "isolate": 899,
      "initiate": 900,
      "targeting": 901,
      "trojan": 902,
      "infec": 903,
      "engage": 904,
      "indicators": 905,
      "awareness": 906,
      "incident": 907,
      "confirmed": 908,
      "infection": 909,
      "ress": 910,
      "attempts": 911,
      "communicating": 912,
      "susp": 913,
      "exfil": 914,
      "mar": 915,
      "parame": 916,
      "create": 917,
      "ments": 918,
      "parameter": 919,
      "cial": 920,
      "quar": 921,
      "exfiltration": 922,
      "shows": 923,
      "cu": 924,
      "gro": 925,
      "uration": 926,
      "sup": 927,
      "start": 928,
      "ession": 929,
      "suspicious": 930,
      "quarant": 931,
      "send": 932,
      "link": 933,
      "quarantine": 934,
      "gu": 935,
      "sure": 936,
      "behavioral": 937,
      "lock": 938,
      "sudo": 939,
      "which": 940,
      "image": 941,
      "proper": 942,
      "our": 943,
      "12": 944,
      "contro": 945,
      "ight": 946,
      "cve202": 947,
      "disclo": 948,
      "buil": 949,
      "hel": 950,
      "cp": 951,
      "ord": 952,
      "based": 953,
      "cus": 954,
      "nt": 955,
      "```": 956,
      "lead": 957,
      "mission": 958,
      "unauthenticated": 959,
      "authentication": 960,
      "gram": 961,
      "nec": 962,
      "ze": 963,
      "br": 964,
      "ld": 965,
      "osint": 966,
      "time": 967,
      "latest": 968,
      "ics": 969,
      "asp": 970,
      "endpoint": 971,
      "ma": 972,
      "vir": 973,
      "'s": 974,
      "execute": 975,
      "trans": 976,
      "bypass": 977,
      "stric": 978,
      "session": 979,
      "upgr": 980,
      "authorized": 981,
      "force": 982,
      "issu": 983,
      "cli": 984,
      "pay": 985,
      "disclosure": 986,
      "ugh": 987,
      "gen": 988,
      "ded": 989,
      "vo": 990,
      "**": 991,
      "tit": 992,
      "upgrade": 993,
      "program": 994,
      "more": 995,
      "tool": 996,
      "ting": 997,
      "unauthorized": 998,
      "sent": 999,
      "restric": 1000,
      "detection": 1001,
      "configuration": 1002,
      "js": 1003,
      "var": 1004,
      "count": 1005,
      "package": 1006,
      "home": 1007,
      "plat": 1008,
      "top": 1009,
      "cam": 1010,
      "pm": 1011,
      "ual": 1012,
      "az": 1013,
      "platform": 1014,
      "ery": 1015,
      "uld": 1016,
      "ternal": 1017,
      "monitor": 1018,
      "wind": 1019,
      "####": 1020,
      "devic": 1021,
      "11": 1022,
      "your": 1023,
      "cloud": 1024,
      "ces": 1025,
      "allows": 1026,
      "ager": 1027,
      "permission": 1028,
      "process": 1029,
      "attackers": 1030,
      "fol": 1031,
      "xss": 1032,
      "wi": 1033,
      "stat": 1034,
      "file}}": 1035,
      "title": 1036,
      "report": 1037,
      "when": 1038,
      "focus": 1039,
      "pos": 1040,
      "any": 1041,
      "fix": 1042,
      "flow": 1043,
      "only": 1044,
      "after": 1045,
      "datab": 1046,
      "nor": 1047,
      "sy": 1048,
      "usion": 1049,
      "social": 1050,
      "ff": 1051,
      "201": 1052,
      "dir": 1053,
      "fl": 1054,
      "help": 1055,
      "build": 1056,
      "pa": 1057,
      "later": 1058,
      "activ": 1059,
      "org": 1060,
      "engine": 1061,
      "manager": 1062,
      "mul": 1063,
      "ance": 1064,
      "record": 1065,
      "tech": 1066,
      "thro": 1067,
      "pi": 1068,
      "ition": 1069,
      "multi": 1070,
      "project": 1071,
      "tial": 1072,
      "fun": 1073,
      "bin": 1074,
      "some": 1075,
      "ently": 1076,
      "under": 1077,
      "ial": 1078,
      "kev": 1079,
      "block": 1080,
      "led": 1081,
      "fir": 1082,
      "exam": 1083,
      "gi": 1084,
      "ong": 1085,
      "txt": 1086,
      "mode": 1087,
      "source:": 1088,
      "poten": 1089,
      "cer": 1090,
      "potential": 1091,
      "tho": 1092,
      "analy": 1093,
      "line": 1094,
      "pn": 1095,
      "window": 1096,
      "tes": 1097,
      "permissions": 1098,
      "mic": 1099,
      "tok": 1100,
      "san": 1101,
      "gener": 1102,
      "ris": 1103,
      "bid": 1104,
      "control": 1105,
      "tra": 1106,
      "vis": 1107,
      "prod": 1108,
      "connec": 1109,
      "url": 1110,
      "external": 1111,
      "securityfocus": 1112,
      "function": 1113,
      "address": 1114,
      "group": 1115,
      "database": 1116,
      "tain": 1117,
      "bro": 1118,
      "title:": 1119,
      "ts": 1120,
      "account": 1121,
      "pol": 1122,
      "apache": 1123,
      "my": 1124,
      "inclusion": 1125,
      "leg": 1126,
      "dit": 1127,
      "testing": 1128,
      "usb": 1129,
      "lic": 1130,
      "ta": 1131,
      "attach": 1132,
      "num": 1133,
      "vulnerable": 1134,
      "cho": 1135,
      "train": 1136,
      "least": 1137,
      "issue": 1138,
      "part": 1139,
      "vers": 1140,
      "ause": 1141,
      "saniti": 1142,
      "atch": 1143,
      "ctl": 1144,
      "dk": 1145,
      "html": 1146,
      "links": 1147,
      "example": 1148,
      "pages": 1149,
      "management": 1150,
      "head": 1151,
      "may": 1152,
      "risk": 1153,
      "bl": 1154,
      "leading": 1155,
      "og": 1156,
      "restrict": 1157,
      "mp": 1158,
      "transf": 1159,
      "face": 1160,
      "fin": 1161,
      "spo": 1162,
      "sel": 1163,
      "activity": 1164,
      "micro": 1165,
      "dev": 1166,
      "used": 1167,
      "multiple": 1168,
      "training": 1169,
      "dl": 1170,
      "ames": 1171,
      "normal": 1172,
      "ix": 1173,
      "contains": 1174,
      "audit": 1175,
      "cms": 1176,
      "domains": 1177,
      "noti": 1178,
      "valid": 1179,
      "wri": 1180,
      "shel": 1181,
      "http:": 1182,
      "director": 1183,
      "pub": 1184,
      "rel": 1185,
      "har": 1186,
      "through": 1187,
      "side": 1188,
      "monitoring": 1189,
      "ftp": 1190,
      "mod": 1191,
      "without": 1192,
      "campa": 1193,
      "campaign": 1194,
      "ust": 1195,
      "cap": 1196,
      "other": 1197,
      "payloads": 1198,
      "privileged": 1199,
      "sec": 1200,
      "let": 1201,
      "ice": 1202,
      "date:": 1203,
      "shell": 1204,
      "mim": 1205,
      "tak": 1206,
      "sho": 1207,
      "dele": 1208,
      "submit": 1209,
      "cs": 1210,
      "ave": 1211,
      "df": 1212,
      "oauth": 1213,
      "tics": 1214,
      "change": 1215,
      "sto": 1216,
      "recently": 1217,
      "its": 1218,
      "upload": 1219,
      "into": 1220,
      "bec": 1221,
      "device": 1222,
      "analytics": 1223,
      "checks": 1224,
      "mess": 1225,
      "post": 1226,
      "macro": 1227,
      "vkev": 1228,
      "information:": 1229,
      "jo": 1230,
      "tered": 1231,
      "ref": 1232,
      "sender": 1233,
      "downloads": 1234,
      "ering": 1235,
      "hr": 1236,
      "attachments": 1237,
      "deb": 1238,
      "les": 1239,
      "map": 1240,
      "spoof": 1241,
      "board": 1242,
      "sploit": 1243,
      "vm": 1244,
      "versal": 1245,
      "da": 1246,
      "interview": 1247,
      "employee": 1248,
      "mfa": 1249,
      "token": 1250,
      "tree": 1251,
      "icking": 1252,
      "loc": 1253,
      "versions": 1254,
      "spear": 1255,
      "submitted": 1256,
      "content": 1257,
      "stor": 1258,
      "whe": 1259,
      "employees": 1260,
      "spearphishing": 1261,
      "harvest": 1262,
      "conduct": 1263,
      "voke": 1264,
      "sm": 1265,
      "db:": 1266,
      "download": 1267,
      "cry": 1268,
      "harvesting": 1269,
      "notify": 1270,
      "provi": 1271,
      "fake": 1272,
      "have": 1273,
      "edown": 1274,
      "uter": 1275,
      "recording": 1276,
      "mimicking": 1277,
      "takedown": 1278,
      "bash": 1279,
      "client": 1280,
      "author:": 1281,
      "enter": 1282,
      "ven": 1283,
      "ular": 1284,
      "registered": 1285,
      "ile": 1286,
      "transfers": 1287,
      "jav": 1288,
      "them": 1289,
      "directories": 1290,
      "wo": 1291,
      "legal": 1292,
      "dr": 1293,
      "consent": 1294,
      "lib": 1295,
      "spf": 1296,
      "dlp": 1297,
      "write": 1298,
      "ator": 1299,
      "engineering": 1300,
      "inte": 1301,
      "dep": 1302,
      "{}": 1303,
      "indicators:": 1304,
      "nc": 1305,
      "oper": 1306,
      "searchsploit": 1307,
      "fs": 1308,
      "pli": 1309,
      "goog": 1310,
      "lab": 1311,
      "self": 1312,
      "16": 1313,
      "investigation": 1314,
      "marc": 1315,
      "\"{{": 1316,
      "excess": 1317,
      "abnormal": 1318,
      "threat:": 1319,
      "box": 1320,
      "dmarc": 1321,
      "prone": 1322,
      "spoofed": 1323,
      "la": 1324,
      "registrar": 1325,
      "dkim": 1326,
      "excessive": 1327,
      "redirect": 1328,
      "number": 1329,
      "than": 1330,
      "root": 1331,
      "apps": 1332,
      "has": 1333,
      "google": 1334,
      "names": 1335,
      "specified": 1336,
      "15": 1337,
      "folder": 1338,
      "grep": 1339,
      "ide": 1340,
      "arg": 1341,
      "windows": 1342,
      "sign": 1343,
      "exploitdb:": 1344,
      "possi": 1345,
      "delete": 1346,
      "sum": 1347,
      "could": 1348,
      "json": 1349,
      "traversal": 1350,
      "string": 1351,
      "revoke": 1352,
      "ails": 1353,
      "format": 1354,
      "13": 1355,
      "igate": 1356,
      "}}\"": 1357,
      "ux": 1358,
      "text": 1359,
      "modi": 1360,
      "<https:": 1361,
      "tom": 1362,
      "ib": 1363,
      "java": 1364,
      "activity:": 1365,
      "ite": 1366,
      "main": 1367,
      "directory}}": 1368,
      "docu": 1369,
      "value": 1370,
      "page:": 1371,
      "ker": 1372,
      "rce": 1373,
      "vari": 1374,
      "md": 1375,
      "because": 1376,
      "ensure": 1377,
      "ese": 1378,
      "properly": 1379,
      "ssh": 1380,
      "cat": 1381,
      "den": 1382,
      "ket": 1383,
      "query": 1384,
      "microsoft": 1385,
      "ute": 1386,
      "will": 1387,
      "thing": 1388,
      "product": 1389,
      "mitigate": 1390,
      "readme": 1391,
      "cle": 1392,
      "pen": 1393,
      "expo": 1394,
      "proto": 1395,
      "envir": 1396,
      "ization": 1397,
      "bas": 1398,
      "container": 1399,
      "sing": 1400,
      "environ": 1401,
      "includ": 1402,
      "lan": 1403,
      "2020": 1404,
      "ude": 1405,
      "real": 1406,
      "mach": 1407,
      "perform": 1408,
      "14": 1409,
      "rest": 1410,
      "ask": 1411,
      "ves": 1412,
      "who": 1413,
      "vel": 1414,
      "char": 1415,
      "suppli": 1416,
      "secure": 1417,
      "xml": 1418,
      "these": 1419,
      "stand": 1420,
      "supplied": 1421,
      "24": 1422,
      "every": 1423,
      "pg": 1424,
      "mail": 1425,
      "xy": 1426,
      "ize": 1427,
      "ates": 1428,
      "cep": 1429,
      "aa": 1430,
      "object": 1431,
      "brow": 1432,
      "each": 1433,
      "pdf": 1434,
      "size": 1435,
      "disable": 1436,
      "cted": 1437,
      "ature": 1438,
      "like": 1439,
      "try": 1440,
      "ep": 1441,
      "gith": 1442,
      "tim": 1443,
      "github": 1444,
      "feren": 1445,
      "dy": 1446,
      "nel": 1447,
      "adminis": 1448,
      "tl": 1449,
      "interface": 1450,
      "way": 1451,
      "ext": 1452,
      "azure": 1453,
      "patches": 1454,
      "64": 1455,
      "ie": 1456,
      "vol": 1457,
      "dif": 1458,
      "tur": 1459,
      "ai": 1460,
      "cust": 1461,
      "ations": 1462,
      "ru": 1463,
      "provided": 1464,
      "exist": 1465,
      "stg": 1466,
      "aws": 1467,
      "their": 1468,
      "public": 1469,
      "car": 1470,
      "where": 1471,
      "wstg": 1472,
      "ges": 1473,
      "dex": 1474,
      "repos": 1475,
      "due": 1476,
      "custom": 1477,
      "hand": 1478,
      "tions": 1479,
      "environment": 1480,
      "cryp": 1481,
      "30": 1482,
      "25": 1483,
      "100": 1484,
      "tcp": 1485,
      "enabled": 1486,
      "########": 1487,
      "templ": 1488,
      "dock": 1489,
      "2021": 1490,
      "pentesting": 1491,
      "her": 1492,
      "id}}": 1493,
      "first": 1494,
      "sanitize": 1495,
      "cis": 1496,
      "onent": 1497,
      "orted": 1498,
      "cache": 1499,
      "webapps": 1500,
      "protocol": 1501,
      "stack": 1502,
      "sn": 1503,
      "virt": 1504,
      "ki": 1505,
      "ror": 1506,
      "component": 1507,
      "wr": 1508,
      "exten": 1509,
      "18": 1510,
      "\"$": 1511,
      "2022": 1512,
      "result": 1513,
      "gh": 1514,
      "message": 1515,
      "ca": 1516,
      "exposed": 1517,
      "connect": 1518,
      "debug": 1519,
      "od": 1520,
      "how": 1521,
      "roid": 1522,
      "polic": 1523,
      "such": 1524,
      "fire": 1525,
      "configure": 1526,
      "homepage:": 1527,
      "cy": 1528,
      "given": 1529,
      "backup": 1530,
      "rf": 1531,
      "take": 1532,
      "ds": 1533,
      "event": 1534,
      "bre": 1535,
      "pul": 1536,
      "19": 1537,
      "sol": 1538,
      "sole": 1539,
      "xx": 1540,
      "possible": 1541,
      "echo": 1542,
      "lected": 1543,
      "ters": 1544,
      "status": 1545,
      "docker": 1546,
      "there": 1547,
      "ran": 1548,
      "ger": 1549,
      "sk": 1550,
      "dio": 1551,
      "boot": 1552,
      "state": 1553,
      "including": 1554,
      "vent": 1555,
      "share": 1556,
      "wa": 1557,
      "about": 1558,
      "base": 1559,
      "android": 1560,
      "orig": 1561,
      "commands": 1562,
      "save": 1563,
      "```bash": 1564,
      "but": 1565,
      "rm": 1566,
      "level": 1567,
      "does": 1568,
      "ef": 1569,
      "ables": 1570,
      "console": 1571,
      "macos": 1572,
      "turn": 1573,
      "tld": 1574,
      "agent": 1575,
      "router": 1576,
      "bet": 1577,
      "firm": 1578,
      "hash": 1579,
      "offic": 1580,
      "browser": 1581,
      "\\;": 1582,
      "wall": 1583,
      "velo": 1584,
      "make": 1585,
      "pc": 1586,
      "off": 1587,
      "sort": 1588,
      "sive": 1589,
      "ename": 1590,
      "args": 1591,
      "2023": 1592,
      "sw": 1593,
      "index": 1594,
      "tible": 1595,
      "ower": 1596,
      "book": 1597,
      "tldr": 1598,
      "thon": 1599,
      "ry": 1600,
      "etc": 1601,
      "itory": 1602,
      "develo": 1603,
      "suscep": 1604,
      "repository": 1605,
      "susceptible": 1606,
      "22": 1607,
      "been": 1608,
      "ste": 1609,
      "dash": 1610,
      "linux": 1611,
      "node": 1612,
      "origin": 1613,
      "also": 1614,
      "include": 1615,
      "pk": 1616,
      "error": 1617,
      "autom": 1618,
      "clus": 1619,
      "simple": 1620,
      "s]}}": 1621,
      "oc": 1622,
      "17": 1623,
      "mas": 1624,
      "spr": 1625,
      "website": 1626,
      "metho": 1627,
      "setting": 1628,
      "see": 1629,
      "obtain": 1630,
      "machine": 1631,
      "mer": 1632,
      "basic": 1633,
      "order": 1634,
      "ax": 1635,
      "last": 1636,
      "dot": 1637,
      "match": 1638,
      "reflected": 1639,
      "storage": 1640,
      "zip": 1641,
      "ner": 1642,
      "python": 1643,
      "virtual": 1644,
      "util": 1645,
      "copy": 1646,
      "d|": 1647,
      "class": 1648,
      "instance": 1649,
      "met": 1650,
      "32": 1651,
      "kub": 1652,
      "ffer": 1653,
      "enum": 1654,
      "escalation": 1655,
      "ative": 1656,
      "lines": 1657,
      "suc": 1658,
      "sl": 1659,
      "fici": 1660,
      "power": 1661,
      "xargs": 1662,
      "200": 1663,
      "documentation": 1664,
      "prom": 1665,
      "depend": 1666,
      "most": 1667,
      "version:": 1668,
      "80": 1669,
      "import": 1670,
      "place": 1671,
      "policy": 1672,
      "job": 1673,
      "ng": 1674,
      "fiel": 1675,
      "sim": 1676,
      "variable": 1677,
      "administr": 1678,
      "secre": 1679,
      "workflow": 1680,
      "frame": 1681,
      "space": 1682,
      "ra": 1683,
      "resource": 1684,
      "ni": 1685,
      "ually": 1686,
      "dashboard": 1687,
      "s)": 1688,
      "proxy": 1689,
      "ios": 1690,
      "common": 1691,
      "hard": 1692,
      "c|": 1693,
      "ling": 1694,
      "note": 1695,
      "trus": 1696,
      "extension": 1697,
      "craf": 1698,
      "fact": 1699,
      "free": 1700,
      "attacks": 1701,
      "lob": 1702,
      "ps": 1703,
      "charac": 1704,
      "modify": 1705,
      "40": 1706,
      "tal": 1707,
      "vert": 1708,
      "pkg": 1709,
      "{{user": 1710,
      "descr": 1711,
      "cisco": 1712,
      "disk": 1713,
      "success": 1714,
      "()": 1715,
      "kernel": 1716,
      "det": 1717,
      "forg": 1718,
      "found": 1719,
      "p|": 1720,
      "packet": 1721,
      "encryp": 1722,
      "follow": 1723,
      "air": 1724,
      "zer": 1725,
      "{{package": 1726,
      "que": 1727,
      "what": 1728,
      "dns": 1729,
      "2025": 1730,
      "archive": 1731,
      "cent": 1732,
      "inside": 1733,
      "unauth": 1734,
      "packages": 1735,
      "rc": 1736,
      "bus": 1737,
      "ui": 1738,
      "vered": 1739,
      "\"*": 1740,
      "firmware": 1741,
      "gn": 1742,
      "forgery": 1743,
      "pac": 1744,
      "pect": 1745,
      "ule": 1746,
      "generate": 1747,
      "50": 1748,
      "ffici": 1749,
      "bar": 1750,
      "interactive": 1751,
      "mount": 1752,
      "then": 1753,
      "acle": 1754,
      "overflow": 1755,
      "gre": 1756,
      "ward": 1757,
      "ules": 1758,
      "uni": 1759,
      "fails": 1760,
      "max": 1761,
      "sync": 1762,
      "keys": 1763,
      "lay": 1764,
      "discovered": 1765,
      "present": 1766,
      "cve2022": 1767,
      "less": 1768,
      "ned": 1769,
      "prevent": 1770,
      "requests": 1771,
      "dest": 1772,
      "cve2021": 1773,
      "sv": 1774,
      "table": 1775,
      "tmp": 1776,
      "npm": 1777,
      "certi": 1778,
      "unch": 1779,
      "fast": 1780,
      "option": 1781,
      "feature": 1782,
      "vision": 1783,
      "mk": 1784,
      "gate": 1785,
      "aph": 1786,
      "auto": 1787,
      "s|": 1788,
      "installation": 1789,
      "devices": 1790,
      "original": 1791,
      "ically": 1792,
      "****": 1793,
      "ating": 1794,
      "oracle": 1795,
      "certific": 1796,
      "hist": 1797,
      "lish": 1798,
      "need": 1799,
      "dri": 1800,
      "lfi": 1801,
      "updates": 1802,
      "second": 1803,
      "filename": 1804,
      "day": 1805,
      "they": 1806,
      "applications": 1807,
      "tools": 1808,
      "look": 1809,
      "template": 1810,
      "enumer": 1811,
      "call": 1812,
      "color": 1813,
      "arm": 1814,
      "extr": 1815,
      "graph": 1816,
      "long": 1817,
      "denial": 1818,
      "move": 1819,
      "ssl": 1820,
      "header": 1821,
      "ele": 1822,
      "v1": 1823,
      "case": 1824,
      "scre": 1825,
      "sd": 1826,
      "ali": 1827,
      "mi": 1828,
      "prior": 1829,
      "ture": 1830,
      "win": 1831,
      "module": 1832,
      "username": 1833,
      "01": 1834,
      "next": 1835,
      "ense": 1836,
      "term": 1837,
      "joom": 1838,
      "don": 1839,
      "afe": 1840,
      "23": 1841,
      "anch": 1842,
      "ances": 1843,
      "{{command": 1844,
      "init": 1845,
      "ify": 1846,
      "hi": 1847,
      "l|": 1848,
      "ping": 1849,
      "mb": 1850,
      "uring": 1851,
      "instal": 1852,
      "ink": 1853,
      "store": 1854,
      "argu": 1855,
      "manned": 1856,
      "sanitiz": 1857,
      "takeover": 1858,
      "a|": 1859,
      "sources": 1860,
      "support": 1861,
      "cve2023": 1862,
      "partic": 1863,
      "ference": 1864,
      "two": 1865,
      "itch": 1866,
      "design": 1867,
      "png": 1868,
      "son": 1869,
      "systemctl": 1870,
      "necess": 1871,
      "eas": 1872,
      "uction": 1873,
      "model": 1874,
      "mag": 1875,
      "ucted": 1876,
      "wpscan": 1877,
      "vpn": 1878,
      "uce": 1879,
      "validation": 1880,
      "ween": 1881,
      "profile": 1882,
      "vide": 1883,
      "foo": 1884,
      "between": 1885,
      "joomla": 1886,
      "sci": 1887,
      "installed": 1888,
      "c:": 1889,
      "logy": 1890,
      "launch": 1891,
      "'*": 1892,
      "cor": 1893,
      "vid": 1894,
      "cook": 1895,
      "member": 1896,
      "ging": 1897,
      "rele": 1898,
      "necessary": 1899,
      "lar": 1900,
      "even": 1901,
      "ally": 1902,
      "convert": 1903,
      "body": 1904,
      "diffe": 1905,
      "fixed": 1906,
      "different": 1907,
      "env": 1908,
      "return": 1909,
      "certain": 1910,
      "standard": 1911,
      "watch": 1912,
      "clear": 1913,
      "priv": 1914,
      "ible": 1915,
      "ution": 1916,
      "conducted": 1917,
      "def": 1918,
      "specify": 1919,
      "execut": 1920,
      "sqli": 1921,
      "binary": 1922,
      "rop": 1923,
      "branch": 1924,
      "cau": 1925,
      "issues": 1926,
      "sco": 1927,
      "buffer": 1928,
      "history": 1929,
      "dependen": 1930,
      "pas": 1931,
      "person": 1932,
      "should": 1933,
      "langu": 1934,
      "sch": 1935,
      "method": 1936,
      "33": 1937,
      "pw": 1938,
      "stored": 1939,
      "mak": 1940,
      "conf": 1941,
      "27": 1942,
      "media": 1943,
      "fort": 1944,
      "$(": 1945,
      "same": 1946,
      "ystem": 1947,
      "cluster": 1948,
      "pres": 1949,
      "wiki": 1950,
      "develop": 1951,
      "field": 1952,
      "framework": 1953,
      "f|": 1954,
      "commit": 1955,
      "stop": 1956,
      "task": 1957,
      "aler": 1958,
      "center": 1959,
      "desk": 1960,
      "organ": 1961,
      "ous": 1962,
      "condition": 1963,
      "uch": 1964,
      "zz": 1965,
      "recur": 1966,
      "typ": 1967,
      "60": 1968,
      "ban": 1969,
      "ability": 1970,
      "setup": 1971,
      "controll": 1972,
      "cut": 1973,
      "instances": 1974,
      "requires": 1975,
      "ases": 1976,
      "identify": 1977,
      "ata": 1978,
      "images": 1979,
      "emon": 1980,
      "ality": 1981,
      "require": 1982,
      "ush": 1983,
      "termin": 1984,
      "link:": 1985,
      "pare": 1986,
      "ont": 1987,
      "imp": 1988,
      "core": 1989,
      "regular": 1990,
      "tead": 1991,
      "inject": 1992,
      "safe": 1993,
      "addresses": 1994,
      "instead": 1995,
      "glob": 1996,
      "tel": 1997,
      "ready": 1998,
      "2017": 1999,
      "usr": 2000,
      "operations": 2001,
      "daemon": 2002,
      "fu": 2003,
      "configured": 2004,
      "cgi": 2005,
      "arn": 2006,
      "commer": 2007,
      "r|": 2008,
      "aper": 2009,
      "filesystem": 2010,
      "office": 2011,
      "cd": 2012,
      "leak": 2013,
      "exper": 2014,
      "live": 2015,
      "crafted": 2016,
      "44": 2017,
      "bm": 2018,
      "buc": 2019,
      "t|": 2020,
      "allowing": 2021,
      "big": 2022,
      "mys": 2023,
      "mary": 2024,
      "select": 2025,
      "1}}": 2026,
      "55": 2027,
      "related": 2028,
      "summary": 2029,
      "29": 2030,
      "sur": 2031,
      "occur": 2032,
      "ns": 2033,
      "ton": 2034,
      "{{command}}": 2035,
      "\\n": 2036,
      "non": 2037,
      "comple": 2038,
      "library": 2039,
      "single": 2040,
      "light": 2041,
      "ssrf": 2042,
      "ship": 2043,
      "000": 2044,
      "camer": 2045,
      "settings": 2046,
      "caused": 2047,
      "bed": 2048,
      "sam": 2049,
      "{{username}}": 2050,
      "'t": 2051,
      "were": 2052,
      "here": 2053,
      "parameters": 2054,
      "javascript": 2055,
      "cape": 2056,
      "card": 2057,
      "ques": 2058,
      "secret": 2059,
      "n|": 2060,
      "tor": 2061,
      "escape": 2062,
      "patched": 2063,
      "video": 2064,
      "mat": 2065,
      "named": 2066,
      "recursive": 2067,
      "aces": 2068,
      "computer": 2069,
      "successful": 2070,
      "extract": 2071,
      "fication": 2072,
      "h|": 2073,
      "paths": 2074,
      "owner": 2075,
      "gy": 2076,
      "organization": 2077,
      "language": 2078,
      "28": 2079,
      "aj": 2080,
      "it's": 2081,
      "old": 2082,
      "true": 2083,
      "pop": 2084,
      "36": 2085,
      "ft": 2086,
      "another": 2087,
      "while": 2088,
      "certificate": 2089,
      "ron": 2090,
      "export": 2091,
      "ife": 2092,
      "internet": 2093,
      "ploy": 2094,
      "(e": 2095,
      "uth": 2096,
      "yes": 2097,
      "item": 2098,
      "pace": 2099,
      "26": 2100,
      "gl": 2101,
      "war": 2102,
      "prof": 2103,
      "location": 2104,
      "blog": 2105,
      "file2": 2106,
      "letting": 2107,
      "{{package}}": 2108,
      "authorization": 2109,
      "disabled": 2110,
      "firewall": 2111,
      "controller": 2112,
      ":{{": 2113,
      "ues": 2114,
      "improper": 2115,
      "ized": 2116,
      "storm": 2117,
      "):": 2118,
      "fail": 2119,
      "just": 2120,
      "ume": 2121,
      "deploy": 2122,
      "ibm": 2123,
      "joomla!": 2124,
      "mark": 2125,
      "integr": 2126,
      "diff": 2127,
      "cve2025": 2128,
      "mysql": 2129,
      "iness": 2130,
      "colle": 2131,
      "reported": 2132,
      "gateway": 2133,
      "prove": 2134,
      "volume": 2135,
      "rece": 2136,
      "vendor:": 2137,
      "pam": 2138,
      "ark": 2139,
      "contents": 2140,
      "hy": 2141,
      "unit": 2142,
      "metad": 2143,
      "o|": 2144,
      "yon": 2145,
      "automat": 2146,
      "business": 2147,
      "easy": 2148,
      "uid": 2149,
      "pipe": 2150,
      "private": 2151,
      "metadata": 2152,
      "during": 2153,
      "ppm": 2154,
      "chain": 2155,
      "depth": 2156,
      "`st": 2157,
      "d:": 2158,
      "resources": 2159,
      "ctor": 2160,
      "cmd": 2161,
      "serv": 2162,
      "chat": 2163,
      "uses": 2164,
      "ado": 2165,
      "alias": 2166,
      "09": 2167,
      "u|": 2168,
      "van": 2169,
      "techno": 2170,
      "07": 2171,
      "tri": 2172,
      "cept": 2173,
      "must": 2174,
      "mr": 2175,
      "ectl": 2176,
      "soc": 2177,
      "changes": 2178,
      "screen": 2179,
      "a:": 2180,
      "ear": 2181,
      "ler": 2182,
      "cons": 2183,
      "express": 2184,
      "03": 2185,
      "21": 2186,
      "attri": 2187,
      "file1": 2188,
      "quick": 2189,
      "ational": 2190,
      "scripts": 2191,
      "functions": 2192,
      "sha": 2193,
      "spring": 2194,
      "edit": 2195,
      "clean": 2196,
      "encryption": 2197,
      "camera": 2198,
      "meet": 2199,
      "tive": 2200,
      "techni": 2201,
      "gz": 2202,
      "total": 2203,
      "pnm": 2204,
      "cord": 2205,
      "verage": 2206,
      "installer": 2207,
      "enumeration": 2208,
      "02": 2209,
      "dos": 2210,
      "ather": 2211,
      "compress": 2212,
      "connection": 2213,
      "series": 2214,
      "times": 2215,
      "drop": 2216,
      "hu": 2217,
      "defin": 2218,
      "hot": 2219,
      "whose": 2220,
      "section": 2221,
      "05": 2222,
      "best": 2223,
      "nix": 2224,
      "plan": 2225,
      "particular": 2226,
      "gex": 2227,
      "excl": 2228,
      "cies": 2229,
      "many": 2230,
      "################": 2231,
      "awk": 2232,
      "34": 2233,
      "administrator": 2234,
      "following": 2235,
      "pose": 2236,
      "zero": 2237,
      "exploiting": 2238,
      "interest": 2239,
      "bab": 2240,
      "pty": 2241,
      "wal": 2242,
      "cve2020": 2243,
      "push": 2244,
      "tty": 2245,
      "internal": 2246,
      "attribu": 2247,
      "mq": 2248,
      "pid": 2249,
      "spl": 2250,
      "tore": 2251,
      "short": 2252,
      "snap": 2253,
      "packetstorm": 2254,
      "lot": 2255,
      "forward": 2256,
      "fig": 2257,
      "exe": 2258,
      "editor": 2259,
      "manip": 2260,
      "namespace": 2261,
      "cookie": 2262,
      "din": 2263,
      "gress": 2264,
      "stud": 2265,
      "advis": 2266,
      "`)": 2267,
      "ony": 2268,
      "demo": 2269,
      "ility": 2270,
      "systemd": 2271,
      "cause": 2272,
      "ang": 2273,
      "cour": 2274,
      "listing": 2275,
      "initial": 2276,
      "ferences": 2277,
      "'{{": 2278,
      "bind": 2279,
      "ding": 2280,
      "rules": 2281,
      "doc": 2282,
      "bose": 2283,
      "1)": 2284,
      "ily": 2285,
      "}}'": 2286,
      "stu": 2287,
      "intro": 2288,
      "regex": 2289,
      "acking": 2290,
      "apple": 2291,
      "entire": 2292,
      "publish": 2293,
      "wait": 2294,
      "cf": 2295,
      "happ": 2296,
      "ral": 2297,
      "right": 2298,
      "explo": 2299,
      "quo": 2300,
      "keep": 2301,
      "manipul": 2302,
      "raw": 2303,
      "ination": 2304,
      "aries": 2305,
      "usually": 2306,
      "printer": 2307,
      "resol": 2308,
      "ground": 2309,
      "writ": 2310,
      "breach": 2311,
      "world": 2312,
      "exploitation": 2313,
      "accessible": 2314,
      "prise": 2315,
      "recursively": 2316,
      "cup": 2317,
      "star": 2318,
      "both": 2319,
      "mid": 2320,
      "erne": 2321,
      "processes": 2322,
      "though": 2323,
      "tokens": 2324,
      "range": 2325,
      "kuberne": 2326,
      "care": 2327,
      "tw": 2328,
      "runs": 2329,
      "pod": 2330,
      "04": 2331,
      "listen": 2332,
      "verbose": 2333,
      "often": 2334,
      "ways": 2335,
      "2}}": 2336,
      "i|": 2337,
      "t:": 2338,
      "ital": 2339,
      "values": 2340,
      "jor": 2341,
      "m:": 2342,
      "v2": 2343,
      "reco": 2344,
      "she": 2345,
      "various": 2346,
      "pull": 2347,
      "jpg": 2348,
      "sap": 2349,
      "rix": 2350,
      "restricted": 2351,
      "vmware": 2352,
      "existing": 2353,
      "desktop": 2354,
      "35": 2355,
      "several": 2356,
      "0x": 2357,
      "k:": 2358,
      "protect": 2359,
      "player": 2360,
      "tab": 2361,
      "va": 2362,
      "replace": 2363,
      "ural": 2364,
      "com}}": 2365,
      "mob": 2366,
      "suffici": 2367,
      "inet": 2368,
      "special": 2369,
      "newer": 2370,
      "super": 2371,
      "ajax": 2372,
      "bug": 2373,
      "m|": 2374,
      "erial": 2375,
      "ane": 2376,
      "managed": 2377,
      "08": 2378,
      "global": 2379,
      "ced": 2380,
      "nul": 2381,
      "pic": 2382,
      "label": 2383,
      "him": 2384,
      "ason": 2385,
      "assi": 2386,
      "ago": 2387,
      "empty": 2388,
      "bound": 2389,
      "ird": 2390,
      "deserial": 2391,
      "character": 2392,
      "kubernetes": 2393,
      "wid": 2394,
      "wed": 2395,
      "potentially": 2396,
      "csv": 2397,
      "enterprise": 2398,
      "destination": 2399,
      "99": 2400,
      "dependencies": 2401,
      "por": 2402,
      "intrus": 2403,
      "theme": 2404,
      "central": 2405,
      "bucket": 2406,
      "intrusive": 2407,
      "modified": 2408,
      "77": 2409,
      "ws": 2410,
      "yo": 2411,
      "}'": 2412,
      "trig": 2413,
      "news": 2414,
      "itional": 2415,
      "ime": 2416,
      "pur": 2417,
      "drive": 2418,
      "zo": 2419,
      "characters": 2420,
      "bank": 2421,
      "bly": 2422,
      "pip": 2423,
      "adb": 2424,
      "major": 2425,
      "document": 2426,
      "variables": 2427,
      "exists": 2428,
      "spray": 2429,
      "ode": 2430,
      "tls": 2431,
      "templates": 2432,
      "06": 2433,
      "bers": 2434,
      "gin": 2435,
      "gain": 2436,
      "iled": 2437,
      "once": 2438,
      "role": 2439,
      "switch": 2440,
      "kubectl": 2441,
      "bill": 2442,
      "verify": 2443,
      "cpu": 2444,
      "messages": 2445,
      "would": 2446,
      "release": 2447,
      "impact": 2448,
      "digit": 2449,
      "logic": 2450,
      "servers": 2451,
      "payload": 2452,
      "cargo": 2453,
      "trusted": 2454,
      "usage": 2455,
      "edb": 2456,
      "phone": 2457,
      "privileges": 2458,
      "validate": 2459,
      "step": 2460,
      "executable": 2461,
      "oa": 2462,
      "igno": 2463,
      "compare": 2464,
      "accounts": 2465,
      "provide": 2466,
      "sit": 2467,
      "wee": 2468,
      "help]}}": 2469,
      "flag": 2470,
      "details": 2471,
      "38": 2472,
      "cc": 2473,
      "amaz": 2474,
      "trace": 2475,
      "ldap": 2476,
      "masto": 2477,
      "ram": 2478,
      "sty": 2479,
      "postgre": 2480,
      "ount": 2481,
      "tele": 2482,
      "discus": 2483,
      "region": 2484,
      "txt\"": 2485,
      "null": 2486,
      "nmap": 2487,
      "tran": 2488,
      "community": 2489,
      "terminal": 2490,
      "adobe": 2491,
      "postgresql": 2492,
      "mv": 2493,
      "opt": 2494,
      "tic": 2495,
      "front": 2496,
      "descri": 2497,
      "types": 2498,
      "dle": 2499,
      "containing": 2500,
      "wide": 2501,
      "commerce": 2502,
      "land": 2503,
      "repo": 2504,
      "audio": 2505,
      "master": 2506,
      "mastodon": 2507,
      "soci": 2508,
      "portal": 2509,
      "possibly": 2510,
      "aaaa": 2511,
      "ild": 2512,
      "expl": 2513,
      "colum": 2514,
      "smart": 2515,
      "imal": 2516,
      "rule": 2517,
      "administrative": 2518,
      "technology": 2519,
      "deserialization": 2520,
      "inx": 2521,
      "across": 2522,
      "separ": 2523,
      "middle": 2524,
      "eat": 2525,
      "s3": 2526,
      "discover": 2527,
      "ku": 2528,
      "oth": 2529,
      "rpc": 2530,
      "learn": 2531,
      "leverage": 2532,
      "blue": 2533,
      "introd": 2534,
      "scal": 2535,
      "grow": 2536,
      "prompt": 2537,
      "amazon": 2538,
      "0}}": 2539,
      "hack": 2540,
      "lowed": 2541,
      "station": 2542,
      "compan": 2543,
      "moder": 2544,
      "being": 2545,
      "black": 2546,
      "days": 2547,
      "ience": 2548,
      "traf": 2549,
      "artic": 2550,
      "collection": 2551,
      "\")": 2552,
      "passwords": 2553,
      "modern": 2554,
      "ither": 2555,
      "networks": 2556,
      "pract": 2557,
      "ignore": 2558,
      "traffic": 2559,
      "wn": 2560,
      "white": 2561,
      "oney": 2562,
      "property": 2563,
      "2016": 2564,
      "merge": 2565,
      "development": 2566,
      "fuzz": 2567,
      "dp": 2568,
      "teach": 2569,
      "to\\": 2570,
      "indic": 2571,
      "augh": 2572,
      "detects": 2573,
      "aded": 2574,
      "events": 2575,
      "unk": 2576,
      "house": 2577,
      "nu": 2578,
      "provid": 2579,
      "near": 2580,
      "quer": 2581,
      "click": 2582,
      "feel": 2583,
      "those": 2584,
      "56": 2585,
      "\\to\\": 2586,
      "sin": 2587,
      "want": 2588,
      "research": 2589,
      "well": 2590,
      "printf": 2591,
      "compile": 2592,
      "txt}}": 2593,
      "whether": 2594,
      "performance": 2595,
      "argument": 2596,
      "advisory": 2597,
      "appe": 2598,
      "ben": 2599,
      "insu": 2600,
      "hostname": 2601,
      "partition": 2602,
      "appro": 2603,
      "below": 2604,
      "howe": 2605,
      "suite": 2606,
      "2015": 2607,
      "37": 2608,
      "mate": 2609,
      "oid": 2610,
      "smal": 2611,
      "insuffici": 2612,
      "however": 2613,
      "econ": 2614,
      "large": 2615,
      "econom": 2616,
      "500": 2617,
      "fish": 2618,
      "ise": 2619,
      "xc": 2620,
      "higher": 2621,
      "objects": 2622,
      "fre": 2623,
      "incre": 2624,
      "itself": 2625,
      "oss": 2626,
      "crat": 2627,
      "crash": 2628,
      "docs": 2629,
      "pool": 2630,
      "sym": 2631,
      "failure": 2632,
      "democrat": 2633,
      "rer": 2634,
      "actions": 2635,
      "brute": 2636,
      "wirel": 2637,
      "alert": 2638,
      "ited": 2639,
      "ko": 2640,
      "ilar": 2641,
      "kets": 2642,
      "speed": 2643,
      "eval": 2644,
      "maintain": 2645,
      "similar": 2646,
      "wireless": 2647,
      "bun": 2648,
      "jj": 2649,
      "zone": 2650,
      "tex": 2651,
      "references": 2652,
      "calend": 2653,
      "apt": 2654,
      "begin": 2655,
      "astic": 2656,
      "print0": 2657,
      "dyn": 2658,
      "dup": 2659,
      "gg": 2660,
      "mus": 2661,
      "treat": 2662,
      "xel": 2663,
      "still": 2664,
      "{{name}}": 2665,
      "coun": 2666,
      "smb": 2667,
      "crypt": 2668,
      "operation": 2669,
      "********": 2670,
      "quoted": 2671,
      "39": 2672,
      "cart": 2673,
      "forum": 2674,
      "pho": 2675,
      "missing": 2676,
      "list]}}": 2677,
      "products": 2678,
      "customer": 2679,
      "oast": 2680,
      "tm": 2681,
      "ana": 2682,
      "exit": 2683,
      "logging": 2684,
      "dm": 2685,
      "qm": 2686,
      "s}}": 2687,
      "repl": 2688,
      "reach": 2689,
      "determ": 2690,
      "phys": 2691,
      "plus": 2692,
      "beyon": 2693,
      "victim": 2694,
      "functionality": 2695,
      "experience": 2696,
      "determine": 2697,
      "unquoted": 2698,
      "understand": 2699,
      "ctl:": 2700,
      "receive": 2701,
      "sport": 2702,
      "uble": 2703,
      "transfer": 2704,
      "statement": 2705,
      "queries": 2706,
      "beyond": 2707,
      "might": 2708,
      "pbm": 2709,
      "reduce": 2710,
      "subject": 2711,
      "parent": 2712,
      "snapsho": 2713,
      "g|": 2714,
      "law": 2715,
      "pick": 2716,
      "uri": 2717,
      "(xss": 2718,
      "cate": 2719,
      "wd": 2720,
      "track": 2721,
      "sume": 2722,
      "sufficiently": 2723,
      "47": 2724,
      "bund": 2725,
      "lm": 2726,
      "lu": 2727,
      "invol": 2728,
      "think": 2729,
      "loaded": 2730,
      "{{path\\to\\": 2731,
      "0000": 2732,
      "summary:": 2733,
      "sf": 2734,
      "escap": 2735,
      "ung": 2736,
      "dout": 2737,
      "gitlab": 2738,
      "effec": 2739,
      "descrip": 2740,
      "arguments": 2741,
      "insufficient": 2742,
      "86": 2743,
      "bal": 2744,
      "tv": 2745,
      "insecure": 2746,
      "eric": 2747,
      "stage": 2748,
      "ainer": 2749,
      "embed": 2750,
      "tested": 2751,
      "groups": 2752,
      "headers": 2753,
      "matching": 2754,
      "nginx": 2755,
      "detail": 2756,
      "explain": 2757,
      "\\)": 2758,
      "bad": 2759,
      "dor": 2760,
      "already": 2761,
      "entry": 2762,
      "hop": 2763,
      "asp'": 2764,
      "production": 2765,
      "mobile": 2766,
      "digital": 2767,
      "calendar": 2768,
      "wer": 2769,
      "prefix": 2770,
      "register": 2771,
      "coded": 2772,
      "heap": 2773,
      "(xss)": 2774,
      "\\(": 2775,
      "bi": 2776,
      "mgr": 2777,
      "aging": 2778,
      "options": 2779,
      "supp": 2780,
      "cult": 2781,
      "nat": 2782,
      "v|": 2783,
      "abuse": 2784,
      "elastic": 2785,
      "direction": 2786,
      "misconfiguration": 2787,
      "ah": 2788,
      "always": 2789,
      "pot": 2790,
      "mongo": 2791,
      "builder": 2792,
      "results": 2793,
      "style": 2794,
      "::": 2795,
      "hal": 2796,
      "hos": 2797,
      "paper": 2798,
      "tas": 2799,
      "xi": 2800,
      "chr": 2801,
      "encrypted": 2802,
      "sanitization": 2803,
      "hum": 2804,
      "abo": 2805,
      "appt": 2806,
      "edge": 2807,
      "comprom": 2808,
      "bytes": 2809,
      "building": 2810,
      "rust": 2811,
      "accept": 2812,
      "veal": 2813,
      "month": 2814,
      "anything": 2815,
      "shop": 2816,
      "woo": 2817,
      "describe": 2818,
      "either": 2819,
      "game": 2820,
      "won": 2821,
      "reveal": 2822,
      "thread": 2823,
      "{{host": 2824,
      "amp": 2825,
      "avoid": 2826,
      "year": 2827,
      "2019": 2828,
      "final": 2829,
      "du": 2830,
      "sa": 2831,
      "iname": 2832,
      "urls": 2833,
      "cell": 2834,
      "symb": 2835,
      "split": 2836,
      "apptainer": 2837,
      "59": 2838,
      "contin": 2839,
      "speak": 2840,
      "administration": 2841,
      "factor": 2842,
      "pal": 2843,
      "squ": 2844,
      "tun": 2845,
      "wc": 2846,
      "agree": 2847,
      "company": 2848,
      "b|": 2849,
      "rev": 2850,
      "weak": 2851,
      "hold": 2852,
      "2024": 2853,
      "archi": 2854,
      "etch": 2855,
      "join": 2856,
      "random": 2857,
      "meas": 2858,
      "dog": 2859,
      "clone": 2860,
      "accord": 2861,
      "ency": 2862,
      "tric": 2863,
      "inspect": 2864,
      "runtime": 2865,
      "until": 2866,
      "capture": 2867,
      "symbol": 2868,
      "gcloud": 2869,
      "src": 2870,
      "zen": 2871,
      "acces": 2872,
      "adm": 2873,
      "serial": 2874,
      "[0": 2875,
      "give": 2876,
      "coding": 2877,
      "ctr": 2878,
      "general": 2879,
      "modules": 2880,
      "break": 2881,
      "physical": 2882,
      "*'": 2883,
      "31": 2884,
      "<1": 2885,
      "jacking": 2886,
      "life": 2887,
      "nv": 2888,
      "uv": 2889,
      "third": 2890,
      "codes": 2891,
      "iot": 2892,
      "music": 2893,
      "tail": 2894,
      "restart": 2895,
      "verse": 2896,
      "geo": 2897,
      "objec": 2898,
      "restore": 2899,
      "position": 2900,
      "letter": 2901,
      "description": 2902,
      "measure": 2903,
      "jir": 2904,
      "party": 2905,
      "dynam": 2906,
      "above": 2907,
      "x:": 2908,
      "amount": 2909,
      "rial": 2910,
      "perl": 2911,
      "why": 2912,
      "personal": 2913,
      "surface": 2914,
      "according": 2915,
      "blo": 2916,
      "rename": 2917,
      "ped": 2918,
      "poe": 2919,
      "udp": 2920,
      "recent": 2921,
      "2018": 2922,
      "column": 2923,
      "mil": 2924,
      "allowed": 2925,
      "eno": 2926,
      "rock": 2927,
      "{{https:": 2928,
      "actually": 2929,
      "since": 2930,
      "dv": 2931,
      "men": 2932,
      "mig": 2933,
      "w|": 2934,
      "route": 2935,
      "directly": 2936,
      "ieve": 2937,
      "socket": 2938,
      "photo": 2939,
      "poetry": 2940,
      "dc": 2941,
      "test:": 2942,
      "databases": 2943,
      "human": 2944,
      "hid": 2945,
      "ray": 2946,
      "sequ": 2947,
      "unrestricted": 2948,
      "calc": 2949,
      "key}}": 2950,
      "secrets": 2951,
      "designed": 2952,
      "300": 2953,
      "btr": 2954,
      "ret": 2955,
      "deep": 2956,
      "unix": 2957,
      "prim": 2958,
      "ports": 2959,
      "ength": 2960,
      "small": 2961,
      "jira": 2962,
      "'{": 2963,
      "4j": 2964,
      "asci": 2965,
      "length": 2966,
      "alth": 2967,
      "ater": 2968,
      "vious": 2969,
      "2012": 2970,
      "allery": 2971,
      "created": 2972,
      "overview": 2973,
      "endpoints": 2974,
      "includes": 2975,
      "fetch": 2976,
      "three": 2977,
      "lier": 2978,
      "url}}": 2979,
      "blind": 2980,
      "important": 2981,
      "hardware": 2982,
      "extensions": 2983,
      "ever": 2984,
      "elect": 2985,
      "xp": 2986,
      "ples": 2987,
      "beh": 2988,
      "earlier": 2989,
      "article": 2990,
      "fing": 2991,
      "lack": 2992,
      "uation": 2993,
      "ream": 2994,
      "cover": 2995,
      "md5": 2996,
      "clusters": 2997,
      "appear": 2998,
      "$1": 2999,
      "fri": 3000,
      "ian": 3001,
      "rt": 3002,
      "ses": 3003,
      "wiz": 3004,
      "~~": 3005,
      "aro": 3006,
      "img": 3007,
      "useful": 3008,
      "tribu": 3009,
      "width": 3010,
      "indicate": 3011,
      "escaping": 3012,
      "\":": 3013,
      "kill": 3014,
      "sig": 3015,
      "v3": 3016,
      "along": 3017,
      "left": 3018,
      "ending": 3019,
      "grub": 3020,
      "`stdout": 3021,
      "49": 3022,
      "cm": 3023,
      "flo": 3024,
      "hex": 3025,
      "mtime": 3026,
      "tle": 3027,
      "crane": 3028,
      "allen": 3029,
      "sound": 3030,
      "*\"": 3031,
      "++": 3032,
      "fly": 3033,
      "fine": 3034,
      "pio": 3035,
      "rect": 3036,
      "worker": 3037,
      "defined": 3038,
      "introduction": 3039,
      "dll": 3040,
      "gun": 3041,
      "ik": 3042,
      "del": 3043,
      "qui": 3044,
      "frid": 3045,
      "assign": 3046,
      "visit": 3047,
      "handling": 3048,
      "friend": 3049,
      "(default": 3050,
      "fed": 3051,
      "espe": 3052,
      "name]}}": 3053,
      "authority": 3054,
      "plugins": 3055,
      "manageengine": 3056,
      "steal": 3057,
      "nm": 3058,
      "sand": 3059,
      "fold": 3060,
      "answer": 3061,
      "tend": 3062,
      "tention": 3063,
      "lite": 3064,
      "sending": 3065,
      "automatically": 3066,
      "consider": 3067,
      "expression": 3068,
      "woocommerce": 3069,
      "<(": 3070,
      "thus": 3071,
      "trust": 3072,
      "fill": 3073,
      "distribu": 3074,
      "doctor": 3075,
      "`stdout`": 3076,
      "bor": 3077,
      "gallery": 3078,
      "much": 3079,
      "rpm": 3080,
      "wish": 3081,
      "file\"": 3082,
      "essional": 3083,
      "syn": 3084,
      "finish": 3085,
      "professional": 3086,
      "vault": 3087,
      "fam": 3088,
      "hit": 3089,
      "represent": 3090,
      "exact": 3091,
      "previous": 3092,
      "strong": 3093,
      "outside": 3094,
      "gui": 3095,
      "fortinet": 3096,
      "btrfs": 3097,
      "hub": 3098,
      "ia": 3099,
      "ving": 3100,
      "enh": 3101,
      "child": 3102,
      "output]}}": 3103,
      "appli": 3104,
      "better": 3105,
      "radio": 3106,
      "resolve": 3107,
      "finger": 3108,
      "scen": 3109,
      "strate": 3110,
      "executed": 3111,
      "goal": 3112,
      "good": 3113,
      "health": 3114,
      "password}}": 3115,
      "generation": 3116,
      "cision": 3117,
      "makes": 3118,
      "interesting": 3119,
      "bb": 3120,
      "creat": 3121,
      "e|": 3122,
      "lv": 3123,
      "none": 3124,
      "ones": 3125,
      "online": 3126,
      "icon": 3127,
      "imum": 3128,
      "advan": 3129,
      "proble": 3130,
      "ruby": 3131,
      "around": 3132,
      "fm": 3133,
      "loss": 3134,
      "concer": 3135,
      "weight": 3136,
      "adle": 3137,
      "adget": 3138,
      "cost": 3139,
      "quality": 3140,
      "guy": 3141,
      "recogn": 3142,
      "faces": 3143,
      "kit": 3144,
      "rb": 3145,
      "v4": 3146,
      "trad": 3147,
      "curl": 3148,
      "six": 3149,
      "pretty": 3150,
      "prints": 3151,
      "strings": 3152,
      "purpose": 3153,
      "snapshot": 3154,
      "supported": 3155,
      "n}}": 3156,
      "sen": 3157,
      "sorted": 3158,
      "vg": 3159,
      "xwiki": 3160,
      "peg": 3161,
      "ged": 3162,
      "prepare": 3163,
      "port}}": 3164,
      "identity": 3165,
      "tasks": 3166,
      "')": 3167,
      "bur": 3168,
      "dark": 3169,
      "gor": 3170,
      "kind": 3171,
      "sense": 3172,
      "zy": 3173,
      "redis": 3174,
      "anony": 3175,
      "ablish": 3176,
      "file]}}": 3177,
      "never": 3178,
      "clip": 3179,
      "registration": 3180,
      "hosts": 3181,
      "wire": 3182,
      "number}}": 3183,
      "everything": 3184,
      "occurs": 3185,
      "complete": 3186,
      "integrity": 3187,
      "1\"": 3188,
      "ric": 3189,
      "reference": 3190,
      "atl": 3191,
      "roll": 3192,
      "expect": 3193,
      "cel": 3194,
      "affect": 3195,
      "operating": 3196,
      "popular": 3197,
      "46": 3198,
      "jet": 3199,
      "ka": 3200,
      "p:": 3201,
      "race": 3202,
      "dec": 3203,
      "poc": 3204,
      "istics": 3205,
      "knowled": 3206,
      "static": 3207,
      "signature": 3208,
      "question": 3209,
      "(\"": 3210,
      "fund": 3211,
      "ose": 3212,
      "pp": 3213,
      "x}}": 3214,
      "too": 3215,
      "improve": 3216,
      "aps": 3217,
      "umi": 3218,
      "claw": 3219,
      "feed": 3220,
      "value}}": 3221,
      "pulumi": 3222,
      "maxdepth": 3223,
      "sandbox": 3224,
      "\"\"": 3225,
      "45": 3226,
      "89": 3227,
      "\\\\": 3228,
      "aim": 3229,
      "night": 3230,
      "mous": 3231,
      "ties": 3232,
      "establish": 3233,
      "publicly": 3234,
      "score": 3235,
      "room": 3236,
      "trip": 3237,
      "working": 3238,
      "containers": 3239,
      "smtp": 3240,
      "knowledge": 3241,
      "je": 3242,
      "ines": 3243,
      "reverse": 3244,
      "compres": 3245,
      "crm": 3246,
      "works": 3247,
      "abilities": 3248,
      "background": 3249,
      "away": 3250,
      "starting": 3251,
      "produce": 3252,
      "techniques": 3253,
      "walk": 3254,
      "accessed": 3255,
      "anonymous": 3256,
      "lit": 3257,
      "vider": 3258,
      "wav": 3259,
      "mean": 3260,
      "area": 3261,
      "aff": 3262,
      "course": 3263,
      "provides": 3264,
      "bundle": 3265,
      "ji": 3266,
      "rsync": 3267,
      "ergy": 3268,
      "upon": 3269,
      "progress": 3270,
      "something": 3271,
      "avel": 3272,
      "material": 3273,
      "2)": 3274,
      "scho": 3275,
      "peo": 3276,
      "log4j": 3277,
      "byte": 3278,
      "mini": 3279,
      "close": 3280,
      "signed": 3281,
      "talk": 3282,
      "exclude": 3283,
      "iam": 3284,
      "today": 3285,
      "chur": 3286,
      "imate": 3287,
      "forti": 3288,
      "by:": 3289,
      "kerber": 3290,
      "skip": 3291,
      "dotnet": 3292,
      "unique": 3293,
      "technique": 3294,
      "increase": 3295,
      "strategy": 3296,
      "[+": 3297,
      "dream": 3298,
      "hg": 3299,
      "chmod": 3300,
      "unity": 3301,
      "sets": 3302,
      "**:": 3303,
      "anyone": 3304,
      "pdf}}": 3305,
      "192": 3306,
      "svg": 3307,
      "student": 3308,
      "zoho": 3309,
      "frida": 3310,
      "$$": 3311,
      "88": 3312,
      "nice": 3313,
      "say": 3314,
      "ended": 3315,
      "indi": 3316,
      "abb": 3317,
      "provider": 3318,
      "channel": 3319,
      "outputting": 3320,
      "ftpd": 3321,
      "capabilities": 3322,
      "draw": 3323,
      "realize": 3324,
      "tlmgr": 3325,
      "fields": 3326,
      "pacman": 3327,
      "element": 3328,
      "laravel": 3329,
      "attribute": 3330,
      "approach": 3331,
      "ech": 3332,
      "fall": 3333,
      "’s": 3334,
      "decision": 3335,
      "gear": 3336,
      "ulator": 3337,
      "voice": 3338,
      "travel": 3339,
      "solar": 3340,
      "automatic": 3341,
      "others": 3342,
      "wonder": 3343,
      "hidden": 3344,
      "concern": 3345,
      "9]": 3346,
      "few": 3347,
      "mor": 3348,
      "ply": 3349,
      "apis": 3350,
      "plant": 3351,
      "guest": 3352,
      "piec": 3353,
      "expose": 3354,
      "enough": 3355,
      "family": 3356,
      "school": 3357,
      "[+]": 3358,
      "2:": 3359,
      "<2": 3360,
      "aur": 3361,
      "lint": 3362,
      "prun": 3363,
      "stri": 3364,
      "{{example": 3365,
      "probab": 3366,
      "hotel": 3367,
      "boo": 3368,
      "libr": 3369,
      "statistics": 3370,
      "address}}": 3371,
      "mp3": 3372,
      "become": 3373,
      "sheet": 3374,
      "week": 3375,
      "church": 3376,
      "probably": 3377,
      "bul": 3378,
      "ety": 3379,
      "prest": 3380,
      "offer": 3381,
      "simply": 3382,
      "references:": 3383,
      "gadget": 3384,
      "vs": 3385,
      "er:": 3386,
      "energy": 3387,
      "abling": 3388,
      "apk": 3389,
      "temp": 3390,
      "cially": 3391,
      "stock": 3392,
      "behind": 3393,
      "prune": 3394,
      "ake": 3395,
      "done": 3396,
      "his": 3397,
      "mind": 3398,
      "nag": 3399,
      "erver": 3400,
      "hook": 3401,
      "sqlmap": 3402,
      "conda": 3403,
      "difference": 3404,
      "official": 3405,
      "aver": 3406,
      "cit": 3407,
      "gp": 3408,
      "uuid": 3409,
      "remember": 3410,
      "sell": 3411,
      "lex": 3412,
      "challen": 3413,
      "rise": 3414,
      "shut": 3415,
      "buy": 3416,
      "subscri": 3417,
      "market": 3418,
      "127": 3419,
      "processing": 3420,
      "tax": 3421,
      "reflect": 3422,
      "libc": 3423,
      "168": 3424,
      "whole": 3425,
      "especially": 3426,
      "challenge": 3427,
      "aix": 3428,
      "city": 3429,
      "gif": 3430,
      "pointer": 3431,
      "bot": 3432,
      "minute": 3433,
      "controlled": 3434,
      "attributes": 3435,
      "separated": 3436,
      "country": 3437,
      "gas": 3438,
      "rab": 3439,
      "road": 3440,
      "trade": 3441,
      "speech": 3442,
      "artist": 3443,
      "compute": 3444,
      "selves": 3445,
      "features": 3446,
      "glass": 3447,
      "individ": 3448,
      "(or": 3449,
      "42": 3450,
      "eth": 3451,
      "gpt": 3452,
      "rant": 3453,
      "rich": 3454,
      "sal": 3455,
      "inten": 3456,
      "revision": 3457,
      "although": 3458,
      "seven": 3459,
      "leave": 3460,
      "leep": 3461,
      "formed": 3462,
      "ami": 3463,
      "riage": 3464,
      "all]}}": 3465,
      "suffer": 3466,
      "sugg": 3467,
      "guess": 3468,
      "built": 3469,
      "timeout": 3470,
      "generic": 3471,
      "themselves": 3472,
      "handle": 3473,
      "brew": 3474,
      "dot)": 3475,
      "dependency": 3476,
      "figure": 3477,
      "studio": 3478,
      "ascii": 3479,
      "little": 3480,
      "suggest": 3481,
      "ken": 3482,
      "uninstall": 3483,
      "version}}": 3484,
      "pressure": 3485,
      "gover": 3486,
      "currently": 3487,
      "bring": 3488,
      "sometimes": 3489,
      "lang": 3490,
      "errors": 3491,
      "individual": 3492,
      "blob": 3493,
      "rup": 3494,
      "constr": 3495,
      "entity": 3496,
      "user's": 3497,
      "forms": 3498,
      "soon": 3499,
      "nothing": 3500,
      "street": 3501,
      "brid": 3502,
      "connections": 3503,
      "powershell": 3504,
      "study": 3505,
      "himself": 3506,
      "assian": 3507,
      "practice": 3508,
      "cach": 3509,
      "eye": 3510,
      "fut": 3511,
      "reason": 3512,
      "toge": 3513,
      "beat": 3514,
      "dist": 3515,
      "price": 3516,
      "yourself": 3517,
      "signal": 3518,
      "tomcat": 3519,
      "initialize": 3520,
      "scale": 3521,
      "continue": 3522,
      "ctrl": 3523,
      "atlassian": 3524,
      "future": 3525,
      "${": 3526,
      "1:": 3527,
      "ball": 3528,
      "alone": 3529,
      "arti": 3530,
      "roy": 3531,
      "former": 3532,
      "workspace": 3533,
      "aving": 3534,
      "shar": 3535,
      "nodes": 3536,
      "keyword": 3537,
      "poll": 3538,
      "tonight": 3539,
      "citi": 3540,
      "ja": 3541,
      "mom": 3542,
      "nf": 3543,
      "rather": 3544,
      "yet": 3545,
      "attention": 3546,
      "forget": 3547,
      "backend": 3548,
      "properties": 3549,
      "intel": 3550,
      "utility": 3551,
      "making": 3552,
      "quickly": 3553,
      "stuff": 3554,
      "picture": 3555,
      "feder": 3556,
      "together": 3557,
      "bag": 3558,
      "ium": 3559,
      "mill": 3560,
      "remain": 3561,
      "enables": 3562,
      "{{remote": 3563,
      "among": 3564,
      "vie": 3565,
      "quid": 3566,
      "interfaces": 3567,
      "liquid": 3568,
      "responsi": 3569,
      "despi": 3570,
      "asp?": 3571,
      "vote": 3572,
      "relation": 3573,
      "queue": 3574,
      "screens": 3575,
      "despite": 3576,
      "(dot": 3577,
      "87": 3578,
      "gir": 3579,
      "ific": 3580,
      "jar": 3581,
      "mir": 3582,
      "native": 3583,
      "recomm": 3584,
      "imag": 3585,
      "diag": 3586,
      "carry": 3587,
      "craft": 3588,
      "green": 3589,
      "ppm}}": 3590,
      "advanced": 3591,
      "artifact": 3592,
      "57": 3593,
      "dh": 3594,
      "dol": 3595,
      "pain": 3596,
      "ustr": 3597,
      "anti": 3598,
      "ulate": 3599,
      "else": 3600,
      "config:": 3601,
      "notice": 3602,
      "info:": 3603,
      "choose": 3604,
      "crypto": 3605,
      "1000": 3606,
      "situation": 3607,
      "optim": 3608,
      "dork:": 3609,
      "recognize": 3610,
      "bud": 3611,
      "cast": 3612,
      "far": 3613,
      "nl": 3614,
      "nation": 3615,
      "ison": 3616,
      "deal": 3617,
      "oman": 3618,
      "staff": 3619,
      "ashop": 3620,
      "americ": 3621,
      "affects": 3622,
      "manual": 3623,
      "tests": 3624,
      "medical": 3625,
      "cert": 3626,
      "maybe": 3627,
      "capital": 3628,
      "changed": 3629,
      "joy": 3630,
      "particularly": 3631,
      "traditional": 3632,
      "rabbit": 3633,
      "govern": 3634,
      "budget": 3635,
      "pital": 3636,
      "sis": 3637,
      "song": 3638,
      "vnc": 3639,
      "sea": 3640,
      "seem": 3641,
      "confl": 3642,
      "serious": 3643,
      "miss": 3644,
      "ops": 3645,
      "protected": 3646,
      "cold": 3647,
      "hello": 3648,
      "likely": 3649,
      "interactively": 3650,
      "seconds": 3651,
      "happen": 3652,
      "hospital": 3653,
      "symbolic": 3654,
      "libraries": 3655,
      "prestashop": 3656,
      "relationship": 3657,
      "bility": 3658,
      "hn": 3659,
      "lf": 3660,
      "onto": 3661,
      "deci": 3662,
      "truth": 3663,
      "graf": 3664,
      "host:": 3665,
      "controls": 3666,
      "wifi": 3667,
      "signific": 3668,
      "don't": 3669,
      "compressed": 3670,
      "million": 3671,
      "gv": 3672,
      "n't": 3673,
      "rails": 3674,
      "chron": 3675,
      "foot": 3676,
      "collab": 3677,
      "dry": 3678,
      "idea": 3679,
      "explorer": 3680,
      "tricks": 3681,
      "ret2": 3682,
      "nagios": 3683,
      "citizen": 3684,
      "significant": 3685,
      "(`": 3686,
      "aks": 3687,
      "eve": 3688,
      "ipt": 3689,
      "past": 3690,
      "sleep": 3691,
      "tg": 3692,
      "tell": 3693,
      "retr": 3694,
      "itution": 3695,
      "{{image": 3696,
      "2010": 3697,
      "snmp": 3698,
      "cyber": 3699,
      "effort": 3700,
      "sched": 3701,
      "meeting": 3702,
      "huge": 3703,
      "involve": 3704,
      "architec": 3705,
      "2>": 3706,
      "fat": 3707,
      "vag": 3708,
      "wes": 3709,
      "perm": 3710,
      "netgear": 3711,
      "going": 3712,
      "marriage": 3713,
      "broken": 3714,
      "political": 3715,
      "summer": 3716,
      "aise": 3717,
      "skill": 3718,
      "enumerate": 3719,
      "sfdk": 3720,
      "piece": 3721,
      "moment": 3722,
      "government": 3723,
      "decide": 3724,
      "eight": 3725,
      "great": 3726,
      "na": 3727,
      "consum": 3728,
      "five": 3729,
      "cheat": 3730,
      "assume": 3731,
      "trial": 3732,
      "nee": 3733,
      "dnf": 3734,
      "newsp": 3735,
      "north": 3736,
      "csrf": 3737,
      "components": 3738,
      "also:": 3739,
      "science": 3740,
      "commercial": 3741,
      "exclud": 3742,
      "billion": 3743,
      "elasticsearch": 3744,
      "citrix": 3745,
      "ustry": 3746,
      "vagrant": 3747,
      "&&": 3748,
      "f}}": 3749,
      "hund": 3750,
      "ky": 3751,
      "national": 3752,
      "seat": 3753,
      "industry": 3754,
      "{{domain": 3755,
      "educ": 3756,
      "ney": 3757,
      "ries": 3758,
      "viewer": 3759,
      "wordlist": 3760,
      "whate": 3761,
      "hear": 3762,
      "heav": 3763,
      "suspect": 3764,
      "trouble": 3765,
      "tool:": 3766,
      "notification": 3767,
      "drug": 3768,
      "happy": 3769,
      "kube": 3770,
      "benef": 3771,
      "exactly": 3772,
      "federal": 3773,
      "imagine": 3774,
      "grafana": 3775,
      "hundred": 3776,
      "mcp": 3777,
      "alle": 3778,
      "encoding": 3779,
      "ing:": 3780,
      "story": 3781,
      "finder": 3782,
      "wear": 3783,
      "associ": 3784,
      "ips": 3785,
      "finally": 3786,
      "256": 3787,
      "layer": 3788,
      "certificates": 3789,
      "define": 3790,
      "`stdin": 3791,
      "painting": 3792,
      "whatever": 3793,
      "3}}": 3794,
      "fac": 3795,
      "town": 3796,
      "mention": 3797,
      "uple": 3798,
      "agency": 3799,
      "poor": 3800,
      "throw": 3801,
      "myself": 3802,
      "policies": 3803,
      "automation": 3804,
      "seek": 3805,
      "shake": 3806,
      "pnm}}": 3807,
      "ticket": 3808,
      "effect": 3809,
      "burp": 3810,
      "newspaper": 3811,
      "kid": 3812,
      "raise": 3813,
      "wife": 3814,
      "algor": 3815,
      "enjoy": 3816,
      "probe": 3817,
      "audi": 3818,
      "tags": 3819,
      "pant": 3820,
      "remotely": 3821,
      "heart": 3822,
      "bra": 3823,
      "cli:": 3824,
      "projects": 3825,
      "everyone": 3826,
      "skin": 3827,
      "expert": 3828,
      "manipulation": 3829,
      "girl": 3830,
      "rabbitmq": 3831,
      "excluding": 3832,
      "`stdin`": 3833,
      "algorith": 3834,
      "ahead": 3835,
      "jen": 3836,
      "m}}": 3837,
      "money": 3838,
      "oil": 3839,
      "relate": 3840,
      "acy": 3841,
      "ancial": 3842,
      "ury": 3843,
      "cve2017": 3844,
      "respond": 3845,
      "financial": 3846,
      "ves:": 3847,
      "note:": 3848,
      "matter": 3849,
      "dynamic": 3850,
      "american": 3851,
      "architecture": 3852,
      "66": 3853,
      "dlink": 3854,
      "gard": 3855,
      "iter": 3856,
      "kitch": 3857,
      "lms": 3858,
      "pin": 3859,
      "vil": 3860,
      "deta": 3861,
      "stay": 3862,
      "rot": 3863,
      "dig": 3864,
      "unsuspect": 3865,
      "{{10": 3866,
      "auti": 3867,
      "https": 3868,
      "beauti": 3869,
      "four": 3870,
      "utor": 3871,
      "creation": 3872,
      "overwrite": 3873,
      "models": 3874,
      "locate": 3875,
      "methods": 3876,
      "deployment": 3877,
      "teacher": 3878,
      "retrieve": 3879,
      "kitchen": 3880,
      "unsuspecting": 3881,
      "beautiful": 3882,
      "@@": 3883,
      "gree": 3884,
      "ox": 3885,
      "utes": 3886,
      "zill": 3887,
      "loop": 3888,
      "peace": 3889,
      "called": 3890,
      "compo": 3891,
      "food": 3892,
      "popul": 3893,
      "claim": 3894,
      "investment": 3895,
      "identifi": 3896,
      "ipc": 3897,
      "candi": 3898,
      "svn": 3899,
      "png}}": 3900,
      "early": 3901,
      "twit": 3902,
      "podman": 3903,
      "economy": 3904,
      "people": 3905,
      "garden": 3906,
      "detailed": 3907,
      "90": 3908,
      "daugh": 3909,
      "hp": 3910,
      "|id": 3911,
      "decl": 3912,
      "terra": 3913,
      "points": 3914,
      "stats": 3915,
      "choice": 3916,
      "century": 3917,
      "gnu": 3918,
      "cookies": 3919,
      "hua": 3920,
      "blood": 3921,
      "consumer": 3922,
      "education": 3923,
      "daughter": 3924,
      "ntp": 3925,
      "r:": 3926,
      "vpc": 3927,
      "almost": 3928,
      "season": 3929,
      "arning": 3930,
      "stic": 3931,
      "abusing": 3932,
      "{{vm": 3933,
      "mother": 3934,
      "kee": 3935,
      "confirm": 3936,
      "validates": 3937,
      "ception": 3938,
      "xxxx": 3939,
      "jobs": 3940,
      "court": 3941,
      "discussion": 3942,
      "kerberos": 3943,
      "benefit": 3944,
      "53": 3945,
      "ee": 3946,
      "rs": 3947,
      "steam": 3948,
      "ented": 3949,
      "touch": 3950,
      "}}:{{": 3951,
      "quite": 3952,
      "msg": 3953,
      "positive": 3954,
      "generator": 3955,
      "numbers": 3956,
      "debate": 3957,
      "partici": 3958,
      "passed": 3959,
      "telnet": 3960,
      "mrs": 3961,
      "natural": 3962,
      "catch": 3963,
      "dan": 3964,
      "font": 3965,
      "ior": 3966,
      "ore": 3967,
      "orter": 3968,
      "congress": 3969,
      "rive": 3970,
      "uts": 3971,
      "hope": 3972,
      "opport": 3973,
      "executive": 3974,
      "leader": 3975,
      "visual": 3976,
      "herself": 3977,
      "shared": 3978,
      "sanitizes": 3979,
      "defense": 3980,
      "responsibility": 3981,
      "western": 3982,
      "heavy": 3983,
      "participant": 3984,
      "jsp": 3985,
      "laugh": 3986,
      "nas": 3987,
      "rdp": 3988,
      "woman": 3989,
      "institution": 3990,
      "exposes": 3991,
      "brother": 3992,
      "reality": 3993,
      "diffic": 3994,
      "nik": 3995,
      "schem": 3996,
      "requirements": 3997,
      "majority": 3998,
      "nearly": 3999,
      "jenk": 4000,
      "terraform": 4001,
      "rv": 4002,
      "chair": 4003,
      "asse": 4004,
      "adult": 4005,
      "film": 4006,
      "append": 4007,
      "specially": 4008,
      "parser": 4009,
      "baby": 4010,
      "society": 4011,
      "born": 4012,
      "needed": 4013,
      "father": 4014,
      "ives": 4015,
      "td": 4016,
      "orney": 4017,
      "ommer": 4018,
      "ids": 4019,
      "attorney": 4020,
      "{{container": 4021,
      "wei": 4022,
      "comment": 4023,
      "moun": 4024,
      "run:": 4025,
      "prin": 4026,
      "generated": 4027,
      "locks": 4028,
      "charge": 4029,
      "wrong": 4030,
      "sanitized": 4031,
      "sonic": 4032,
      "\\n'": 4033,
      "exploited": 4034,
      "young": 4035,
      "ommerce": 4036,
      "husb": 4037,
      "pad": 4038,
      "vbox": 4039,
      "yer": 4040,
      "tek": 4041,
      "itics": 4042,
      "entries": 4043,
      "{{target": 4044,
      "scanner": 4045,
      "crime": 4046,
      "movie": 4047,
      "reading": 4048,
      "politics": 4049,
      "base64": 4050,
      "trigger": 4051,
      "discuss": 4052,
      "half": 4053,
      "bridge": 4054,
      "husband": 4055,
      "biz": 4056,
      "fal": 4057,
      "yard": 4058,
      "enabling": 4059,
      "{{100": 4060,
      "trail": 4061,
      "apping": 4062,
      "civil": 4063,
      "binaries": 4064,
      "thank": 4065,
      "handler": 4066,
      "torrent": 4067,
      "folders": 4068,
      "'{}": 4069,
      "('": 4070,
      "bat": 4071,
      "ivan": 4072,
      "lxc": 4073,
      "|wstg": 4074,
      "tee": 4075,
      "reboot": 4076,
      "toward": 4077,
      "{{ip": 4078,
      "admit": 4079,
      "worm": 4080,
      "worry": 4081,
      "plain": 4082,
      "paralle": 4083,
      "guard": 4084,
      "cpp": 4085,
      "2013": 4086,
      "txt'": 4087,
      "analyze": 4088,
      "police": 4089,
      "destroy": 4090,
      "movement": 4091,
      "lawyer": 4092,
      "milit": 4093,
      "candidate": 4094,
      "opportunity": 4095,
      "58": 4096,
      "><": 4097,
      "[!": 4098,
      "frequ": 4099,
      "gs": 4100,
      "lis": 4101,
      "v6": 4102,
      "yy": 4103,
      "zim": 4104,
      "zabb": 4105,
      "lose": 4106,
      "chunk": 4107,
      "unset": 4108,
      "couple": 4109,
      "mouth": 4110,
      "hout": 4111,
      "sible": 4112,
      "sou": 4113,
      "manif": 4114,
      "py:": 4115,
      "throug": 4116,
      "license": 4117,
      "wrap": 4118,
      "aaaaaaaa": 4119,
      "democratic": 4120,
      "floor": 4121,
      "population": 4122,
      "twitter": 4123,
      "jenkins": 4124,
      "military": 4125,
      "zabbix": 4126,
      "(s)": 4127,
      "54": 4128,
      "ere": 4129,
      "f:": 4130,
      "gam": 4131,
      "ln": 4132,
      "reload": 4133,
      "on:": 4134,
      "enly": 4135,
      "ora": 4136,
      "degree": 4137,
      "entist": 4138,
      "id'": 4139,
      "{{file": 4140,
      "compli": 4141,
      "chance": 4142,
      "ift": 4143,
      "clock": 4144,
      "aspx": 4145,
      "argue": 4146,
      "modification": 4147,
      "clearly": 4148,
      "culture": 4149,
      "recommended": 4150,
      "collabor": 4151,
      "manifest": 4152,
      "throughout": 4153,
      "'\\": 4154,
      "honey": 4155,
      "ming": 4156,
      "extra": 4157,
      "{{password}}": 4158,
      "weber": 4159,
      "tempor": 4160,
      "uck": 4161,
      "2000": 4162,
      "spend": 4163,
      "render": 4164,
      "openssl": 4165,
      "configurations": 4166,
      "shoul": 4167,
      "hashes": 4168,
      "scientist": 4169,
      "certainly": 4170,
      "passive": 4171,
      "dinner": 4172,
      "objecti": 4173,
      "zilla": 4174,
      "0)": 4175,
      "jpeg": 4176,
      "pit": 4177,
      "intern": 4178,
      "learning": 4179,
      "beli": 4180,
      "ught": 4181,
      "ublic": 4182,
      "additional": 4183,
      "writer": 4184,
      "timest": 4185,
      "layout": 4186,
      "elev": 4187,
      "career": 4188,
      "embedded": 4189,
      "difficult": 4190,
      "(com": 4191,
      "css": 4192,
      "haps": 4193,
      "lvm": 4194,
      "pv": 4195,
      "rd": 4196,
      "uence": 4197,
      "x|": 4198,
      "alph": 4199,
      "enforce": 4200,
      "iso": 4201,
      "tough": 4202,
      "perhaps": 4203,
      "south": 4204,
      "sudd": 4205,
      "whom": 4206,
      "opens": 4207,
      "ification": 4208,
      "checking": 4209,
      "build:": 4210,
      "analyzer": 4211,
      "ibility": 4212,
      "really": 4213,
      "routers": 4214,
      "hijacking": 4215,
      "writing": 4216,
      "feeling": 4217,
      "economic": 4218,
      "duplic": 4219,
      "compromise": 4220,
      "wizard": 4221,
      "quiet": 4222,
      "shutdown": 4223,
      "believe": 4224,
      "suddenly": 4225,
      "lp": 4226,
      "inser": 4227,
      "animal": 4228,
      "conference": 4229,
      "expe": 4230,
      "vite": 4231,
      "fear": 4232,
      "llm": 4233,
      "ntlm": 4234,
      "lookup": 4235,
      "magic": 4236,
      "buckets": 4237,
      "migr": 4238,
      "screenshot": 4239,
      "vboxmanage": 4240,
      "objectives:": 4241,
      "#include": 4242,
      "43": 4243,
      "67": 4244,
      "c}}": 4245,
      "cas": 4246,
      "p]": 4247,
      "rg": 4248,
      "water": 4249,
      "xec": 4250,
      "row": 4251,
      "exchange": 4252,
      "passwd": 4253,
      "hair": 4254,
      "aka": 4255,
      "height": 4256,
      "thern": 4257,
      "thought": 4258,
      "locations": 4259,
      "debugging": 4260,
      "xxe": 4261,
      "election": 4262,
      "evening": 4263,
      "verbose]}}": 4264,
      "senior": 4265,
      "decade": 4266,
      "pollution": 4267,
      "'{}'": 4268,
      "bs": 4269,
      "djan": 4270,
      "oh": 4271,
      "dell": 4272,
      "roc": 4273,
      "dier": 4274,
      "{{repository": 4275,
      "{{value}}": 4276,
      "scr": 4277,
      "vector": 4278,
      "coach": 4279,
      "spaces": 4280,
      "loading": 4281,
      "msf": 4282,
      "foreign": 4283,
      "exposing": 4284,
      "yeah": 4285,
      "republic": 4286,
      "install:": 4287,
      "dir\"": 4288,
      "flat": 4289,
      "pwd": 4290,
      "fight": 4291,
      "problem": 4292,
      "liquidworm": 4293,
      "sister": 4294,
      "ivanti": 4295,
      "southern": 4296,
      "django": 4297,
      "republican": 4298,
      "(cve": 4299,
      "hd": 4300,
      "jw": 4301,
      "mix": 4302,
      "altern": 4303,
      "ank": 4304,
      "verification": 4305,
      "round": 4306,
      "insensitive": 4307,
      "classi": 4308,
      "izer": 4309,
      "list:": 4310,
      "compil": 4311,
      "url:": 4312,
      "json}}": 4313,
      "deny": 4314,
      "everybody": 4315,
      "scope": 4316,
      "################################": 4317,
      "television": 4318,
      "zyxel": 4319,
      "constrain": 4320,
      "audience": 4321,
      "))": 4322,
      "2\"": 4323,
      "97": 4324,
      "cing": 4325,
      "inde": 4326,
      "array": 4327,
      "unic": 4328,
      "webmail": 4329,
      "aster": 4330,
      "phere": 4331,
      "logged": 4332,
      "misc": 4333,
      "loader": 4334,
      "azine": 4335,
      "somebody": 4336,
      "partner": 4337,
      "microweber": 4338,
      "environments": 4339,
      "soldier": 4340,
      "officer": 4341,
      "arm64": 4342,
      "magazine": 4343,
      "electron": 4344,
      "creating": 4345,
      "clipboard": 4346,
      "morning": 4347,
      "shoulder": 4348,
      "4}}": 4349,
      "east": 4350,
      "nature": 4351,
      "usand": 4352,
      "upal": 4353,
      "coin": 4354,
      "essor": 4355,
      "bypassing": 4356,
      "flash": 4357,
      "thousand": 4358,
      "located": 4359,
      "drupal": 4360,
      "booking": 4361,
      "graphql": 4362,
      "paste": 4363,
      "professor": 4364,
      "servlet": 4365,
      "growth": 4366,
      "{{host}}": 4367,
      "agreement": 4368,
      "signing": 4369,
      "scene": 4370,
      "international": 4371,
      "\"%": 4372,
      "dic": 4373,
      "gst": 4374,
      "gke": 4375,
      "adap": 4376,
      "umes": 4377,
      "insight": 4378,
      "doctl": 4379,
      "adding": 4380,
      "responses": 4381,
      "guide": 4382,
      "records": 4383,
      "someone": 4384,
      "protocols": 4385,
      "developer": 4386,
      "packets": 4387,
      "driver": 4388,
      "categ": 4389,
      "false": 4390,
      "52": 4391,
      "b:": 4392,
      "bt": 4393,
      "ised": 4394,
      "jb": 4395,
      "lr": 4396,
      "lam": 4397,
      "o:": 4398,
      "tables": 4399,
      "ube": 4400,
      "west": 4401,
      "waf": 4402,
      "theory": 4403,
      "roles": 4404,
      "trics": 4405,
      "flare": 4406,
      "activate": 4407,
      "choco": 4408,
      "basename": 4409,
      "uniq": 4410,
      "president": 4411,
      "confluence": 4412,
      "category": 4413,
      "[~": 4414,
      "fur": 4415,
      "instr": 4416,
      "repe": 4417,
      "ists": 4418,
      "grid": 4419,
      "linode": 4420,
      "parse": 4421,
      "offset": 4422,
      "[~]": 4423,
      "<3": 4424,
      "d'": 4425,
      "nr": 4426,
      "nex": 4427,
      "pue": 4428,
      "selinux": 4429,
      "arp": 4430,
      "{{input": 4431,
      "trac": 4432,
      "shad": 4433,
      "tag}}": 4434,
      "sites": 4435,
      "2026": 4436,
      "checksum": 4437,
      "resulting": 4438,
      "maximum": 4439,
      "corrup": 4440,
      "college": 4441,
      "****************": 4442,
      "chrome": 4443,
      "pueue": 4444,
      "96": 4445,
      "??": 4446,
      "ays": 4447,
      "gar": 4448,
      "magent": 4449,
      "alog": 4450,
      "deli": 4451,
      "absol": 4452,
      "{{output": 4453,
      "owasp": 4454,
      "malloc": 4455,
      "agg": 4456,
      "emulator": 4457,
      "assess": 4458,
      "gradle": 4459,
      "interact": 4460,
      "flaw": 4461,
      "broad": 4462,
      "smile": 4463,
      "treatment": 4464,
      "cultural": 4465,
      "menu": 4466,
      "'{print": 4467,
      "compliance": 4468,
      "expected": 4469,
      "indeed": 4470,
      "(1)": 4471,
      "3c": 4472,
      "[a": 4473,
      "aem": 4474,
      "fusion": 4475,
      "gmail": 4476,
      "mx": 4477,
      "mult": 4478,
      "q|": 4479,
      "wan": 4480,
      "atz": 4481,
      "oring": 4482,
      "means": 4483,
      "gets": 4484,
      "{{version}}": 4485,
      "adv": 4486,
      "profiles": 4487,
      "nels": 4488,
      "qual": 4489,
      "preview": 4490,
      "poison": 4491,
      "sqlite": 4492,
      "lists": 4493,
      "leads": 4494,
      "\"$(": 4495,
      "higher)": 4496,
      "appliance": 4497,
      "absolute": 4498,
      ")\"": 4499,
      "3d": 4500,
      "5}}": 4501,
      "gpg": 4502,
      "kaf": 4503,
      "mc": 4504,
      "pb": 4505,
      "xd": 4506,
      "conver": 4507,
      "filen": 4508,
      "hoo": 4509,
      "sitec": 4510,
      "mechanism": 4511,
      "dirname": 4512,
      "sky": 4513,
      "calculate": 4514,
      "magento": 4515,
      "5)": 4516,
      "\\*": 4517,
      "fan": 4518,
      "flex": 4519,
      "g'": 4520,
      "gol": 4521,
      "gcp": 4522,
      "react": 4523,
      "ons": 4524,
      "weblogic": 4525,
      "cock": 4526,
      "ctf": 4527,
      "explic": 4528,
      "usernames": 4529,
      "fox": 4530,
      "dating": 4531,
      "readable": 4532,
      "opencode": 4533,
      "completion": 4534,
      "threads": 4535,
      "composer": 4536,
      "nikto": 4537,
      "sonicwall": 4538,
      "explicit": 4539,
      "(i": 4540,
      "f1": 4541,
      "ga": 4542,
      "mnt": 4543,
      "pand": 4544,
      "za": 4545,
      "cha": 4546,
      "ec2": 4547,
      "couch": 4548,
      "user@": 4549,
      "boy": 4550,
      "check:": 4551,
      "executing": 4552,
      "warning": 4553,
      "zeroclaw": 4554,
      "transp": 4555,
      "chrom": 4556,
      "$2": 4557,
      "2c": 4558,
      ">)": 4559,
      "ghost": 4560,
      "ij": 4561,
      "pcap": 4562,
      "sg": 4563,
      "seq": 4564,
      "ared": 4565,
      "webserver": 4566,
      "prox": 4567,
      "double": 4568,
      "reader": 4569,
      "name}}\"": 4570,
      "pixel": 4571,
      "ledger": 4572,
      "mimik": 4573,
      "themes": 4574,
      "intell": 4575,
      "machines": 4576,
      "solution": 4577,
      "universal": 4578,
      "serving": 4579,
      "mimikatz": 4580,
      "[interactive": 4581,
      "aid": 4582,
      "cv": 4583,
      "ath": 4584,
      "ors": 4585,
      "veri": 4586,
      "igious": 4587,
      "units": 4588,
      "unsafe": 4589,
      "combin": 4590,
      "crack": 4591,
      "httpd": 4592,
      "religious": 4593,
      "smug": 4594,
      "volumes": 4595,
      "odle": 4596,
      "2009": 4597,
      "hardcoded": 4598,
      "{{domain}}": 4599,
      "associated": 4600,
      "zimbra": 4601,
      "[interactive]": 4602,
      "nav": 4603,
      "pet": 4604,
      "id:": 4605,
      "weaver": 4606,
      "edition": 4607,
      "struts": 4608,
      "limited": 4609,
      "printing": 4610,
      "persistent": 4611,
      "startup": 4612,
      "123": 4613,
      "examples": 4614,
      "mongodb": 4615,
      "41": 4616,
      "mapping": 4617,
      "rar": 4618,
      "wl": 4619,
      "xe": 4620,
      "invoke": 4621,
      "sctl": 4622,
      "pher": 4623,
      "moodle": 4624,
      "tools:": 4625,
      "maps": 4626,
      "clients": 4627,
      "\\n\"": 4628,
      "written": 4629,
      "migration": 4630,
      "fw": 4631,
      "jour": 4632,
      "k|": 4633,
      "made": 4634,
      "sun": 4635,
      "}\"": 4636,
      "arrive": 4637,
      "decode": 4638,
      "toto": 4639,
      "unknown": 4640,
      "calls": 4641,
      "logies": 4642,
      "distro": 4643,
      "commonly": 4644,
      "subcommand": 4645,
      "stat:": 4646,
      "pair": 4647,
      "matches": 4648,
      "writable": 4649,
      "trigge": 4650,
      "hacker": 4651,
      "blocks": 4652,
      "gzip": 4653,
      "kb": 4654,
      "untrusted": 4655,
      "ides": 4656,
      "webview": 4657,
      "sip": 4658,
      "config]}}": 4659,
      "grant": 4660,
      "izing": 4661,
      "subdomain": 4662,
      "capability": 4663,
      "classes": 4664,
      "sams": 4665,
      "wavlink": 4666,
      "sitecore": 4667,
      "triggered": 4668,
      "tt": 4669,
      "u:": 4670,
      "zapi": 4671,
      "semanage": 4672,
      "ili": 4673,
      "{{new": 4674,
      "file:": 4675,
      "commits": 4676,
      "php?": 4677,
      "2014": 4678,
      "pie": 4679,
      "\"${": 4680,
      "pulse": 4681,
      "ranges": 4682,
      "instance)": 4683,
      "mkdir": 4684,
      "bestweb": 4685,
      "nuke": 4686,
      "mirror": 4687,
      "temporary": 4688,
      "further": 4689,
      "shadow": 4690,
      "!!": 4691,
      "(mastodon": 4692,
      "512": 4693,
      "76": 4694,
      "eme": 4695,
      "gling": 4696,
      "mut": 4697,
      "mask": 4698,
      "tutor": 4699,
      "ato": 4700,
      "itle": 4701,
      "dia": 4702,
      "user:": 4703,
      "ubunt": 4704,
      "got": 4705,
      "addr": 4706,
      "devops": 4707,
      "john": 4708,
      "debian": 4709,
      "button": 4710,
      "classic": 4711,
      "manipulate": 4712,
      "transport": 4713,
      "keeper": 4714,
      "parallel": 4715,
      "honeypot": 4716,
      "samsung": 4717,
      ");": 4718,
      "74": 4719,
      "79": 4720,
      "cases": 4721,
      "jab": 4722,
      "saml": 4723,
      "uator": 4724,
      "ya": 4725,
      "leve": 4726,
      "essential": 4727,
      "siz": 4728,
      "fron": 4729,
      "removes": 4730,
      "emer": 4731,
      "assist": 4732,
      "itories": 4733,
      "group}}": 4734,
      "html>": 4735,
      "documents": 4736,
      "repositories": 4737,
      "correct": 4738,
      "bench": 4739,
      "rustup": 4740,
      "~~~~": 4741,
      "collaboration": 4742,
      "(c": 4743,
      "pid}}": 4744,
      "utions": 4745,
      "ino": 4746,
      "metrics": 4747,
      "imperson": 4748,
      "aba": 4749,
      "{{192": 4750,
      "notes": 4751,
      "linx": 4752,
      "interpre": 4753,
      "monstr": 4754,
      "repair": 4755,
      "incor": 4756,
      "linked": 4757,
      "```c": 4758,
      "sessions": 4759,
      "connected": 4760,
      "ssrf)": 4761,
      "cfg": 4762,
      "assigned": 4763,
      "bullet": 4764,
      "diagno": 4765,
      "princi": 4766,
      "jwt": 4767,
      "kafka": 4768,
      "\"my": 4769,
      "3r": 4770,
      "<ctrl": 4771,
      "f5": 4772,
      "hom": 4773,
      "nos": 4774,
      "x86": 4775,
      "inv": 4776,
      "is:": 4777,
      "arr": 4778,
      "ices": 4779,
      "chown": 4780,
      "{{project": 4781,
      "{{branch": 4782,
      "vey": 4783,
      "older": 4784,
      "spec": 4785,
      "phpmy": 4786,
      "example:": 4787,
      "ruij": 4788,
      "environmental": 4789,
      "magick": 4790,
      "binding": 4791,
      "log4j)": 4792,
      "solarwind": 4793,
      "sharing": 4794,
      "{{100}}": 4795,
      "levels": 4796,
      "ruijie": 4797,
      "#exploit": 4798,
      "(ssrf)": 4799,
      "3)": 4800,
      "bon": 4801,
      "ek": 4802,
      "iw": 4803,
      "nal": 4804,
      "oob": 4805,
      "til": 4806,
      "reli": 4807,
      "type]}}": 4808,
      "{{1": 4809,
      "{{port}}": 4810,
      "malformed": 4811,
      "ofbiz": 4812,
      "restrictions": 4813,
      "cloudflare": 4814,
      "flip": 4815,
      "pam}}": 4816,
      "koji": 4817,
      "enhance": 4818,
      "schema": 4819,
      "cockpit": 4820,
      "zapier": 4821,
      "bestwebsoft": 4822,
      "solarwinds": 4823,
      "70": 4824,
      "fs:": 4825,
      "hor": 4826,
      "wget": 4827,
      "xz": 4828,
      "acl": 4829,
      "fork": 4830,
      "forge": 4831,
      "{{service": 4832,
      "provision": 4833,
      "whoami": 4834,
      "optional": 4835,
      "mkfs": 4836,
      "intended": 4837,
      "69": 4838,
      "75": 4839,
      "adio": 4840,
      "hledger": 4841,
      "jump": 4842,
      "mt": 4843,
      "np": 4844,
      "nfs": 4845,
      "yu": 4846,
      "alib": 4847,
      "contr": 4848,
      "compat": 4849,
      "tru": 4850,
      "file'": 4851,
      "actuator": 4852,
      "fully": 4853,
      "param": 4854,
      "ignoring": 4855,
      "subnet": 4856,
      "armor": 4857,
      "init:": 4858,
      "conditions": 4859,
      "pipeline": 4860,
      "compression": 4861,
      "definition": 4862,
      "synchron": 4863,
      "poisoning": 4864,
      "alibaba": 4865,
      "\"file": 4866,
      "(1": 4867,
      "a)": 4868,
      "c\"": 4869,
      "pct": 4870,
      "uded": 4871,
      "atom": 4872,
      "exception": 4873,
      "ecommerce": 4874,
      "crlf": 4875,
      "elf": 4876,
      "discord": 4877,
      "2011": 4878,
      "injections": 4879,
      "showing": 4880,
      "transmission": 4881,
      "wise": 4882,
      "integer": 4883,
      "formats": 4884,
      "backups": 4885,
      "sdx": 4886,
      "username]}}": 4887,
      "hypr": 4888,
      "fuzzing": 4889,
      "gpu": 4890,
      "{{target}}": 4891,
      "jboss": 4892,
      "fd": 4893,
      "fro": 4894,
      "i:": 4895,
      "jack": 4896,
      "mss": 4897,
      "rds": 4898,
      "sor": 4899,
      "tcc": 4900,
      "v5": 4901,
      "inja": 4902,
      "encrypt": 4903,
      "{{source": 4904,
      "{{database": 4905,
      "upy": 4906,
      "rend": 4907,
      "served": 4908,
      "proces": 4909,
      "ls|": 4910,
      "transmit": 4911,
      "util:": 4912,
      "8080": 4913,
      "unified": 4914,
      "sdxy": 4915,
      "presence": 4916,
      "primary": 4917,
      "dhcp": 4918,
      "unicode": 4919,
      "filenames": 4920,
      "a\"": 4921,
      "i3": 4922,
      "iny": 4923,
      "redirection": 4924,
      "enet": 4925,
      "stable": 4926,
      "{{url}}": 4927,
      "eco": 4928,
      "cop": 4929,
      "poly": 4930,
      "aves": 4931,
      "shift": 4932,
      "checkout": 4933,
      "device}}": 4934,
      "grep:": 4935,
      "specifying": 4936,
      "scheme": 4937,
      "sample": 4938,
      "hyper": 4939,
      "jpg}}": 4940,
      "weeper": 4941,
      "tunnel": 4942,
      "listed": 4943,
      "smuggling": 4944,
      "ubuntu": 4945,
      "sdxy}}": 4946,
      "%s": 4947,
      "(apache": 4948,
      "85": 4949,
      "bp": 4950,
      "fony": 4951,
      "rac": 4952,
      "v:": 4953,
      "wild": 4954,
      "xpc": 4955,
      "thum": 4956,
      "{{key": 4957,
      "uploads": 4958,
      "belong": 4959,
      "tify": 4960,
      "quit": 4961,
      "quot": 4962,
      "sh:": 4963,
      "{{[d|": 4964,
      "izes": 4965,
      "obj": 4966,
      "compiled": 4967,
      "parts": 4968,
      "slack": 4969,
      "c:\\": 4970,
      "pwn": 4971,
      "items": 4972,
      "symfony": 4973,
      "duplicate": 4974,
      "explicitly": 4975,
      "(s": 4976,
      "(the": 4977,
      "[^": 4978,
      "cb": 4979,
      "jupy": 4980,
      "king": 4981,
      "rp": 4982,
      "tap": 4983,
      "wlan": 4984,
      "xl": 4985,
      "it:": 4986,
      "esh": 4987,
      "compose": 4988,
      "coldf": 4989,
      "minutes": 4990,
      "group]}}": 4991,
      "methodo": 4992,
      "slur": 4993,
      "{{user}}": 4994,
      "enumeration:": 4995,
      "providing": 4996,
      "elementor": 4997,
      "mssql": 4998,
      "coldfusion": 4999,
      "(r": 5000,
      "h:": 5001,
      "mand": 5002,
      "sphere": 5003,
      "ansible": 5004,
      "deleg": 5005,
      "{{unit": 5006,
      "soap": 5007,
      "channels": 5008,
      "interaction": 5009,
      "evil": 5010,
      "localhost": 5011,
      "password]}}": 5012,
      "authenticate": 5013,
      "attempt": 5014,
      "cube": 5015,
      "```python": 5016,
      "mainten": 5017,
      "swap": 5018,
      "leakage": 5019,
      "integration": 5020,
      "technologies": 5021,
      "nmcli": 5022,
      "distribution": 5023,
      "corruption": 5024,
      "cg": 5025,
      "hun": 5026,
      "iel": 5027,
      "ring": 5028,
      "sdk": 5029,
      "uk": 5030,
      "vc": 5031,
      "xs": 5032,
      "||": 5033,
      "esp": 5034,
      "fies": 5035,
      "tooth": 5036,
      "sti": 5037,
      "stash": 5038,
      "abs": 5039,
      "targets": 5040,
      "{{n}}": 5041,
      "scp": 5042,
      "plas": 5043,
      "frames": 5044,
      "minimum": 5045,
      "openstack": 5046,
      "keyboard": 5047,
      "dbus": 5048,
      "cve2026": 5049,
      "synt": 5050,
      "deletion": 5051,
      "middleware": 5052,
      "effective": 5053,
      "enhan": 5054,
      "rocket": 5055,
      "intellig": 5056,
      "maintenance": 5057,
      "bz": 5058,
      "mh": 5059,
      "pd": 5060,
      "x11": 5061,
      "resize": 5062,
      "resume": 5063,
      "{{pid}}": 5064,
      "asset": 5065,
      "ada": 5066,
      "comments": 5067,
      "htm": 5068,
      "user]}}": 5069,
      "beta": 5070,
      "spect": 5071,
      "owned": 5072,
      "locally": 5073,
      "pattern}}": 5074,
      "payment": 5075,
      "cat:": 5076,
      "needs": 5077,
      "longer": 5078,
      "easily": 5079,
      "returns": 5080,
      "markdown": 5081,
      "squash": 5082,
      "overview:": 5083,
      "md5sum": 5084,
      "timestamp": 5085,
      "classified": 5086,
      "\"log": 5087,
      "jarm": 5088,
      "kms": 5089,
      "mos": 5090,
      "pse": 5091,
      "q:": 5092,
      "sar": 5093,
      "vn": 5094,
      "vim": 5095,
      "vist": 5096,
      "vms": 5097,
      "yml": 5098,
      "ync": 5099,
      "lean": 5100,
      "leaks": 5101,
      "rout": 5102,
      "dispatch": 5103,
      "name|": 5104,
      "ensuring": 5105,
      "addres": 5106,
      "titan": 5107,
      "syno": 5108,
      "legacy": 5109,
      "relative": 5110,
      "messaging": 5111,
      "solutions": 5112,
      "describ": 5113,
      "printers": 5114,
      "involves": 5115,
      "explained": 5116,
      "compromised": 5117,
      "mented": 5118,
      "salt": 5119,
      "steamos": 5120,
      "alpha": 5121,
      "couchdb": 5122,
      "journal": 5123,
      "98": 5124,
      "bn": 5125,
      "band": 5126,
      "nap": 5127,
      "nxc": 5128,
      "ini": 5129,
      "invalid": 5130,
      "selected": 5131,
      "abstr": 5132,
      "unspecified": 5133,
      "highlight": 5134,
      "aux": 5135,
      "logical": 5136,
      "exploitable": 5137,
      "name:": 5138,
      "gradio": 5139,
      "openclaw": 5140,
      "compact": 5141,
      "1234": 5142,
      "helper": 5143,
      "cpio": 5144,
      "bright": 5145,
      "void": 5146,
      "voip": 5147,
      "topic": 5148,
      "prototype": 5149,
      "handles": 5150,
      "255": 5151,
      "winrm": 5152,
      "gz}}": 5153,
      "pbm}}": 5154,
      "huawei": 5155,
      "chromium": 5156,
      "incorrect": 5157,
      "bulletin": 5158,
      "(if": 5159,
      "batch": 5160,
      "eu": 5161,
      "g:": 5162,
      "ii": 5163,
      "mm": 5164,
      "pup": 5165,
      "pure": 5166,
      "enfor": 5167,
      "es:": 5168,
      "legit": 5169,
      "dian": 5170,
      "get:": 5171,
      "{{resource": 5172,
      "{{filename": 5173,
      "lower": 5174,
      "tier": 5175,
      "frag": 5176,
      "mlflow": 5177,
      "bras": 5178,
      "virsh": 5179,
      "platform]}}": 5180,
      "modem": 5181,
      "writes": 5182,
      "product:": 5183,
      "browse": 5184,
      "solr": 5185,
      "doesn't": 5186,
      "notebook": 5187,
      "sdx}}": 5188,
      "supports": 5189,
      "env:": 5190,
      "typically": 5191,
      "cups": 5192,
      "boundary": 5193,
      "balan": 5194,
      "fmt": 5195,
      "strip": 5196,
      "assemb": 5197,
      "totolink": 5198,
      "jabbers": 5199,
      "syntax": 5200,
      "\"foo": 5201,
      "%2": 5202,
      "(>": 5203,
      "95": 5204,
      "]*": 5205,
      "avi": 5206,
      "efi": 5207,
      "fz": 5208,
      "rum": 5209,
      "rss": 5210,
      "smar": 5211,
      "ensive": 5212,
      "ico": 5213,
      "icew": 5214,
      "exo": 5215,
      "lying": 5216,
      "coder": 5217,
      "expand": 5218,
      "trash": 5219,
      "apparmor": 5220,
      "sui": 5221,
      "networking": 5222,
      "failed": 5223,
      "vulnerability:": 5224,
      "dump:": 5225,
      "toolchain": 5226,
      "operator": 5227,
      "150": 5228,
      "banner": 5229,
      "popup": 5230,
      "ibmcloud": 5231,
      "{{10}}": 5232,
      "mounted": 5233,
      "''": 5234,
      "(rce": 5235,
      "(aka": 5236,
      "65": 5237,
      "68": 5238,
      "bios": 5239,
      "lc": 5240,
      "v0": 5241,
      "in:": 5242,
      "acce": 5243,
      "ences": 5244,
      "encoded": 5245,
      "ula": 5246,
      "dialog": 5247,
      "{{eth": 5248,
      "webui": 5249,
      "coming": 5250,
      "aud": 5251,
      "exploits": 5252,
      "suf": 5253,
      "{{[c|": 5254,
      "managing": 5255,
      "server:": 5256,
      "keychain": 5257,
      "virus": 5258,
      "programs": 5259,
      "relay": 5260,
      "posts": 5261,
      "sharepoint": 5262,
      "websites": 5263,
      "gnome": 5264,
      "elements": 5265,
      "conf}}": 5266,
      "glpi": 5267,
      "diff:": 5268,
      "forwarding": 5269,
      "executable}}": 5270,
      "balance": 5271,
      "nvr": 5272,
      "ricoh": 5273,
      "books": 5274,
      "dolt": 5275,
      "identifier": 5276,
      "sdxn}}": 5277,
      "vista": 5278,
      "assembly": 5279,
      "icewarp": 5280,
      "[[": 5281,
      "sid": 5282,
      "yk": 5283,
      "zsh": 5284,
      "inbound": 5285,
      "tea": 5286,
      "unsanitized": 5287,
      "{{app": 5288,
      "tpl": 5289,
      "permit": 5290,
      "cve2015": 5291,
      "accessing": 5292,
      "actor": 5293,
      "transform": 5294,
      "finity": 5295,
      "stores": 5296,
      "refre": 5297,
      "airflow": 5298,
      "png>)": 5299,
      "ownership": 5300,
      "bounds": 5301,
      "csv}}": 5302,
      "clickjacking": 5303,
      "insert": 5304,
      "(rce)": 5305,
      "($": 5306,
      "(for": 5307,
      "4)": 5308,
      "games": 5309,
      "iis": 5310,
      "l2": 5311,
      "trend": 5312,
      "zk": 5313,
      "align": 5314,
      "lets": 5315,
      "entitle": 5316,
      "scall": 5317,
      "asus": 5318,
      "added": 5319,
      "cipher": 5320,
      "set:": 5321,
      "achieve": 5322,
      "grav": 5323,
      "readlink": 5324,
      "parsing": 5325,
      "openai": 5326,
      "host}}": 5327,
      "flake": 5328,
      "risks": 5329,
      "sanitise": 5330,
      "sploits": 5331,
      "extended": 5332,
      "browsers": 5333,
      "prevents": 5334,
      "distributed": 5335,
      "\";": 5336,
      "$'": 5337,
      "0\"": 5338,
      "@gmail": 5339,
      "[d": 5340,
      "c]": 5341,
      "cn": 5342,
      "f2": 5343,
      "fer": 5344,
      "kr": 5345,
      "wart": 5346,
      "y:": 5347,
      "encode": 5348,
      "enroll": 5349,
      "ange": 5350,
      "decrypt": 5351,
      "{{node": 5352,
      "cruc": 5353,
      "ender": 5354,
      "disks": 5355,
      "{{[ls|": 5356,
      "ipv6": 5357,
      "subdirectories": 5358,
      "ffers": 5359,
      "spot": 5360,
      "kia": 5361,
      "cards": 5362,
      "published": 5363,
      "aneous": 5364,
      "trigg": 5365,
      "practical": 5366,
      "evalu": 5367,
      "<(sort": 5368,
      "cached": 5369,
      "gaming": 5370,
      "delivery": 5371,
      "transpare": 5372,
      "assistant": 5373,
      "crucial": 5374,
      "72": 5375,
      "755": 5376,
      "<4": 5377,
      "`regex": 5378,
      "a2": 5379,
      "glab": 5380,
      "rconfig": 5381,
      "le:": 5382,
      "undo": 5383,
      "wered": 5384,
      "webp": 5385,
      "logon": 5386,
      "implemented": 5387,
      "words": 5388,
      "izon": 5389,
      "cancel": 5390,
      "hosting": 5391,
      "dir1": 5392,
      "linear": 5393,
      "drag": 5394,
      "toml": 5395,
      "xml}}": 5396,
      "thereby": 5397,
      "identifying": 5398,
      "443": 5399,
      "socks": 5400,
      "jupyter": 5401,
      "methodology": 5402,
      "refresh": 5403,
      "(and": 5404,
      "94": 5405,
      "hide": 5406,
      "nb": 5407,
      "qem": 5408,
      "wso": 5409,
      "yadm": 5410,
      "loo": 5411,
      "to:": 5412,
      "meta": 5413,
      "imap": 5414,
      "{{variable": 5415,
      "amd": 5416,
      "phr": 5417,
      "phase": 5418,
      "trick": 5419,
      "sif}}": 5420,
      "perio": 5421,
      "spark": 5422,
      "faq": 5423,
      "directory2": 5424,
      "ultimate": 5425,
      "outdate": 5426,
      "128": 5427,
      "strict": 5428,
      "reports": 5429,
      "flux": 5430,
      "produc": 5431,
      "effici": 5432,
      "modifying": 5433,
      "priority": 5434,
      "hik": 5435,
      "gz\"": 5436,
      "bluetooth": 5437,
      "symlinks": 5438,
      "wso2": 5439,
      "\"\\": 5440,
      "210": 5441,
      "61": 5442,
      "ased": 5443,
      "b2": 5444,
      "bc": 5445,
      "cacti": 5446,
      "e2": 5447,
      "e:": 5448,
      "i2c": 5449,
      "jun": 5450,
      "ltd": 5451,
      "nd": 5452,
      "odo": 5453,
      "tc": 5454,
      "tre": 5455,
      "tac": 5456,
      "y|": 5457,
      "ises": 5458,
      "cher": 5459,
      "finds": 5460,
      "scaler": 5461,
      "as:": 5462,
      "approve": 5463,
      "prow": 5464,
      "powered": 5465,
      "bitcoin": 5466,
      "addons": 5467,
      "communications": 5468,
      "top:": 5469,
      "druid": 5470,
      "developers": 5471,
      "utilized": 5472,
      "fastcgi": 5473,
      "integrated": 5474,
      "advisor": 5475,
      "bugs": 5476,
      "sequences": 5477,
      "intelbras": 5478,
      "facil": 5479,
      "frequency": 5480,
      "xdg": 5481,
      "tutorial": 5482,
      "frontend": 5483,
      "{{unit}}": 5484,
      "\"{}": 5485,
      "(0": 5486,
      "(no": 5487,
      "<5": 5488,
      ">`": 5489,
      "bzip": 5490,
      "fc": 5491,
      "gd": 5492,
      "having": 5493,
      "jul": 5494,
      "n`": 5495,
      "pve": 5496,
      "rap": 5497,
      "ufi": 5498,
      "wing": 5499,
      "wave": 5500,
      "x64": 5501,
      "decryp": 5502,
      "demonstr": 5503,
      "icor": 5504,
      "roxy": 5505,
      "except": 5506,
      "scan:": 5507,
      "scanning": 5508,
      "implementation": 5509,
      "directory1": 5510,
      "protections": 5511,
      "openvpn": 5512,
      "included": 5513,
      "creates": 5514,
      "force]}}": 5515,
      "fixes": 5516,
      "mapper": 5517,
      "storing": 5518,
      "format]}}": 5519,
      "xxx": 5520,
      "saved": 5521,
      "2008": 5522,
      "bmc": 5523,
      "sockets": 5524,
      "angular": 5525,
      "sufficient": 5526,
      "widget": 5527,
      "porn": 5528,
      "arguments}}": 5529,
      "shopping": 5530,
      "weakness": 5531,
      "dvc": 5532,
      "algorithm": 5533,
      "confirmation": 5534,
      "alternative": 5535,
      "{{[ls|list]}}": 5536,
      "ufida": 5537,
      "3:": 5538,
      ">>": 5539,
      "[c]": 5540,
      "`$": 5541,
      "oce": 5542,
      "ption": 5543,
      "{\"": 5544,
      "{print": 5545,
      "ori": 5546,
      "did": 5547,
      "unner": 5548,
      "attr": 5549,
      "{{group": 5550,
      "{{interface": 5551,
      "{{task": 5552,
      "plc": 5553,
      "pread": 5554,
      "sh\"": 5555,
      "cve2016": 5556,
      "manually": 5557,
      "specif": 5558,
      "search:": 5559,
      "helm": 5560,
      "flask": 5561,
      "attached": 5562,
      "html}}": 5563,
      "404": 5564,
      "pkgs": 5565,
      "membership": 5566,
      "nixos": 5567,
      "resolution": 5568,
      "recovery": 5569,
      "$$$$": 5570,
      "algorithms": 5571,
      "phpmyadmin": 5572,
      "ocean": 5573,
      "$dir": 5574,
      "73": 5575,
      "bsd": 5576,
      "dav": 5577,
      "ez": 5578,
      "ether": 5579,
      "fit": 5580,
      "hat": 5581,
      "jn": 5582,
      "l:": 5583,
      "larg": 5584,
      "p3r": 5585,
      "sq": 5586,
      "saf": 5587,
      "tiny": 5588,
      "uac": 5589,
      "x)": 5590,
      "xv": 5591,
      "xstream": 5592,
      "req": 5593,
      "acls": 5594,
      "adsl": 5595,
      "comma": 5596,
      "shark": 5597,
      "strap": 5598,
      "specification": 5599,
      "canon": 5600,
      "mindepth": 5601,
      "phpjabbers": 5602,
      "key:": 5603,
      "starts": 5604,
      "translate": 5605,
      "programming": 5606,
      "toppm": 5607,
      "help:": 5608,
      "namespac": 5609,
      "query:": 5610,
      "slash": 5611,
      "corp": 5612,
      "releases": 5613,
      "hyp3r": 5614,
      "administrators": 5615,
      "palo": 5616,
      "geoserver": 5617,
      "scenar": 5618,
      "iptables": 5619,
      "schedul": 5620,
      "elevation": 5621,
      "nexus": 5622,
      "abstract": 5623,
      "hyp3rlinx": 5624,
      "(a": 5625,
      "78": 5626,
      "bes": 5627,
      "cated": 5628,
      "cgroup": 5629,
      "had": 5630,
      "ired": 5631,
      "iframe": 5632,
      "ju": 5633,
      "n:": 5634,
      "ocial": 5635,
      "rw": 5636,
      "rom": 5637,
      "tam": 5638,
      "vcenter": 5639,
      "xer": 5640,
      "yout": 5641,
      "ano": 5642,
      "seh": 5643,
      "ising": 5644,
      "ara": 5645,
      "icated": 5646,
      "stal": 5647,
      "abc": 5648,
      "uname": 5649,
      "{{1}}": 5650,
      "prepar": 5651,
      "dataset": 5652,
      "canary": 5653,
      "minimal": 5654,
      "add]}}": 5655,
      "addition": 5656,
      "inputs": 5657,
      "crontab": 5658,
      "transl": 5659,
      "anywhere": 5660,
      "gitea": 5661,
      "visor": 5662,
      "headless": 5663,
      "blank": 5664,
      "utils": 5665,
      "hier": 5666,
      "matrix": 5667,
      "splunk": 5668,
      "counter": 5669,
      "replac": 5670,
      "fingerprint": 5671,
      "dotnetnuke": 5672,
      "gadgets": 5673,
      "hikvision": 5674,
      "specifically": 5675,
      "\"'": 5676,
      "'%": 5677,
      "(in": 5678,
      "\\{": 5679,
      "bird": 5680,
      "d)": 5681,
      "laz": 5682,
      "mite": 5683,
      "vant": 5684,
      "alt": 5685,
      "iss": 5686,
      "icing": 5687,
      "gem": 5688,
      "type}}": 5689,
      "chart": 5690,
      "unlock": 5691,
      "{{local": 5692,
      "{{bucket": 5693,
      "ass:": 5694,
      "terunner": 5695,
      "proton": 5696,
      "spam": 5697,
      "{{[a|": 5698,
      "update:": 5699,
      "001": 5700,
      "cloak": 5701,
      "activemq": 5702,
      "llvm": 5703,
      "disclose": 5704,
      "upgrad": 5705,
      "platform:": 5706,
      "syscall": 5707,
      "labs": 5708,
      "delete]}}": 5709,
      "kiterunner": 5710,
      "firefox": 5711,
      "website:": 5712,
      "depending": 5713,
      "languages": 5714,
      "nixpkgs": 5715,
      "introduc": 5716,
      "appropri": 5717,
      "tmux": 5718,
      "hosted": 5719,
      "continu": 5720,
      "golden": 5721,
      "sizes": 5722,
      "emerge": 5723,
      "nosql": 5724,
      "plasma": 5725,
      "routing": 5726,
      "[d]": 5727,
      "`regex`": 5728,
      "phrase": 5729,
      "62": 5730,
      "83": 5731,
      "bd": 5732,
      "bins": 5733,
      "dim": 5734,
      "egrep": 5735,
      "gcc": 5736,
      "kde": 5737,
      "mass": 5738,
      "nes": 5739,
      "tcache": 5740,
      "udisk": 5741,
      "z|": 5742,
      "inher": 5743,
      "retri": 5744,
      "secl": 5745,
      "lection": 5746,
      "isc": 5747,
      "delim": 5748,
      "{{program": 5749,
      "{{module": 5750,
      "{{key}}": 5751,
      "uploaded": 5752,
      "offl": 5753,
      "exporter": 5754,
      "utter": 5755,
      "preserving": 5756,
      "iring": 5757,
      "ip}}": 5758,
      "limine": 5759,
      "linksys": 5760,
      "flutter": 5761,
      "postmessage": 5762,
      "developed": 5763,
      "frameworks": 5764,
      "manipulating": 5765,
      "pbmto": 5766,
      "dvr": 5767,
      "sequence": 5768,
      "tracer": 5769,
      "legitimate": 5770,
      "qemu": 5771,
      "prowler": 5772,
      "mitel": 5773,
      "appropriate": 5774,
      "offline": 5775,
      "\"s": 5776,
      "(2": 5777,
      "51": 5778,
      "[p]": 5779,
      "\\x": 5780,
      "]'": 5781,
      "ape": 5782,
      "dms": 5783,
      "gcrane": 5784,
      "jail": 5785,
      "kagg": 5786,
      "tul": 5787,
      "vbulletin": 5788,
      "zte": 5789,
      "alloc": 5790,
      "dede": 5791,
      "theft": 5792,
      "unce": 5793,
      "{{0": 5794,
      "{{width": 5795,
      "tron": 5796,
      "tral": 5797,
      "ured": 5798,
      "logout": 5799,
      "performed": 5800,
      "netscaler": 5801,
      "pods": 5802,
      "spider": 5803,
      "clang": 5804,
      "ip>": 5805,
      "interval": 5806,
      "bitbucket": 5807,
      "phpinfo": 5808,
      "forensics": 5809,
      "whenever": 5810,
      "mode]}}": 5811,
      "vm:": 5812,
      "pgm": 5813,
      "dyld": 5814,
      "ext}}": 5815,
      "detach": 5816,
      "recei": 5817,
      "hydr": 5818,
      "nvram": 5819,
      "applied": 5820,
      "aaaaaaaaaaaaaaaa": 5821,
      "diction": 5822,
      "xerox": 5823,
      "youtube": 5824,
      "seclists": 5825,
      "\"file\"": 5826,
      "$home": 5827,
      "8000": 5828,
      ">|": 5829,
      "\\|": 5830,
      "bos": 5831,
      "cation": 5832,
      "dpkg": 5833,
      "hk": 5834,
      "hw": 5835,
      "sftp": 5836,
      "tftp": 5837,
      "wmi": 5838,
      "reci": 5839,
      "annot": 5840,
      "isk": 5841,
      "delay": 5842,
      "stdin": 5843,
      "unzip": 5844,
      "assets": 5845,
      "comb": 5846,
      "fileupload": 5847,
      "soph": 5848,
      "version]}}": 5849,
      "tenda": 5850,
      "bitrix": 5851,
      "php'": 5852,
      "displaying": 5853,
      "lock:": 5854,
      "tester": 5855,
      "refer": 5856,
      "ncy": 5857,
      "timing": 5858,
      "644": 5859,
      "firebase": 5860,
      "therefore": 5861,
      "automated": 5862,
      "sync:": 5863,
      "fresh": 5864,
      "previously": 5865,
      "copies": 5866,
      "triggers": 5867,
      "demonstrated": 5868,
      "jndi": 5869,
      "120": 5870,
      "110": 5871,
      "320": 5872,
      "a}}": 5873,
      "duration": 5874,
      "h2": 5875,
      "hpe": 5876,
      "hong": 5877,
      "href": 5878,
      "ilo": 5879,
      "ied": 5880,
      "lif": 5881,
      "ny": 5882,
      "ninja": 5883,
      "ov": 5884,
      "ppl": 5885,
      "pak": 5886,
      "vue": 5887,
      "invent": 5888,
      "reuse": 5889,
      "alter": 5890,
      "seo": 5891,
      "peer": 5892,
      "chroot": 5893,
      "theus": 5894,
      "exif": 5895,
      "updating": 5896,
      "coverage": 5897,
      "ride": 5898,
      "cve:": 5899,
      "yaml}}": 5900,
      "prome": 5901,
      "passing": 5902,
      "communic": 5903,
      "streaming": 5904,
      "ifs": 5905,
      "add:": 5906,
      "keycloak": 5907,
      "mitm": 5908,
      "desc": 5909,
      "llms": 5910,
      "baz": 5911,
      "image}}": 5912,
      "toolbox": 5913,
      "package2": 5914,
      "helps": 5915,
      "broker": 5916,
      "dahua": 5917,
      "string}}": 5918,
      "differences": 5919,
      "swig": 5920,
      "fastjson": 5921,
      "maker": 5922,
      "receives": 5923,
      "columns": 5924,
      "tracker": 5925,
      "cryptograph": 5926,
      "rotate": 5927,
      "vectors": 5928,
      "broadcast": 5929,
      "puppet": 5930,
      "namespaces": 5931,
      "hierarch": 5932,
      "prometheus": 5933,
      "$0": 5934,
      "%0": 5935,
      "(not": 5936,
      "csp": 5937,
      "dum": 5938,
      "gres": 5939,
      "hc": 5940,
      "n1": 5941,
      "otp": 5942,
      "rat": 5943,
      "rsa": 5944,
      "t]": 5945,
      "â˜": 5946,
      "inline": 5947,
      "atis": 5948,
      "ita": 5949,
      "depre": 5950,
      "chi": 5951,
      "{{search": 5952,
      "{{volume": 5953,
      "come": 5954,
      "plist": 5955,
      "curren": 5956,
      "quant": 5957,
      "implements": 5958,
      "premi": 5959,
      "ava": 5960,
      "sock": 5961,
      "noco": 5962,
      "emr": 5963,
      "mantec": 5964,
      "identification": 5965,
      "filters": 5966,
      "voy": 5967,
      "111": 5968,
      "reporting": 5969,
      "symantec": 5970,
      "message}}\"": 5971,
      "bookmark": 5972,
      "buster": 5973,
      "relevant": 5974,
      "file2}}": 5975,
      "deployments": 5976,
      "pipewire": 5977,
      "(defaults": 5978,
      "[a]": 5979,
      "lazy": 5980,
      "â˜¢": 5981,
      "\"test": 5982,
      "%p": 5983,
      "'^": 5984,
      "\\}": 5985,
      "bof": 5986,
      "cimal": 5987,
      "gb": 5988,
      "kg": 5989,
      "kas": 5990,
      "oint": 5991,
      "p2": 5992,
      "rack": 5993,
      "sb": 5994,
      "erlang": 5995,
      "esk": 5996,
      "ism": 5997,
      "decompress": 5998,
      "ict": 5999,
      "{{commit": 6000,
      "{{5}}": 6001,
      "ecg": 6002,
      "websocket": 6003,
      "comput": 6004,
      "mouse": 6005,
      "filezilla": 6006,
      "utf": 6007,
      "hol": 6008,
      "contact:": 6009,
      "members": 6010,
      "subst": 6011,
      "adecimal": 6012,
      "followed": 6013,
      "activex": 6014,
      "underlying": 6015,
      "visible": 6016,
      "spoofing": 6017,
      "ensures": 6018,
      "pene": 6019,
      "rfc": 6020,
      "statements": 6021,
      "octo": 6022,
      "matched": 6023,
      "zip}}": 6024,
      "python3": 6025,
      "prompts": 6026,
      "defender": 6027,
      "typical": 6028,
      "complex": 6029,
      "math": 6030,
      "successfully": 6031,
      "{{hostname}}": 6032,
      "objective": 6033,
      "hexadecimal": 6034,
      "[!ti": 6035,
      "flatpak": 6036,
      "outdated": 6037,
      "combine": 6038,
      "(https:": 6039,
      "(case": 6040,
      "4:": 6041,
      "71": 6042,
      "700": 6043,
      "82": 6044,
      "`n`": 6045,
      "d\"": 6046,
      "kin": 6047,
      "lg": 6048,
      "lz": 6049,
      "nx": 6050,
      "saving": 6051,
      "v8": 6052,
      "vt": 6053,
      "wil": 6054,
      "yarn": 6055,
      "zst": 6056,
      "incoming": 6057,
      "influx": 6058,
      "alb": 6059,
      "alto": 6060,
      "acs": 6061,
      "ani": 6062,
      "ari": 6063,
      "aria": 6064,
      "ica": 6065,
      "construct": 6066,
      "unused": 6067,
      "nets": 6068,
      "syslog": 6069,
      "cir": 6070,
      "removing": 6071,
      "accessibility": 6072,
      "files:": 6073,
      "port]}}": 6074,
      "latex": 6075,
      "searches": 6076,
      "service'": 6077,
      "create]}}": 6078,
      "brain": 6079,
      "asploit": 6080,
      "transaction": 6081,
      "connecting": 6082,
      "versa": 6083,
      "deleted": 6084,
      "jolo": 6085,
      "snip": 6086,
      "swag": 6087,
      "etcd": 6088,
      "metasploit": 6089,
      "svc": 6090,
      "corpor": 6091,
      ":{{password}}": 6092,
      "777": 6093,
      "separate": 6094,
      "dmx": 6095,
      "won't": 6096,
      "optimize": 6097,
      "notifications": 6098,
      "distrobox": 6099,
      "facilit": 6100,
      "kaggle": 6101,
      "dedecms": 6102,
      "inventory": 6103,
      "[!tip]": 6104,
      "'\\n'": 6105,
      "0:": 6106,
      "340": 6107,
      "bf": 6108,
      "bri": 6109,
      "f]": 6110,
      "gt": 6111,
      "luce": 6112,
      "p)": 6113,
      "pred": 6114,
      "w3": 6115,
      "arily": 6116,
      "determin": 6117,
      "abase": 6118,
      "iding": 6119,
      "{{organization": 6120,
      "{{height": 6121,
      "neider": 6122,
      "tip": 6123,
      "tiff": 6124,
      "path:": 6125,
      "name\"": 6126,
      "{{[g|": 6127,
      "portswig": 6128,
      "injected": 6129,
      "instant": 6130,
      "py}}": 6131,
      "overwriting": 6132,
      "flac": 6133,
      "mp4": 6134,
      "shellcode": 6135,
      "json`": 6136,
      "offers": 6137,
      "colors": 6138,
      "magn": 6139,
      "videos": 6140,
      "released": 6141,
      "returned": 6142,
      "pass:": 6143,
      "schneider": 6144,
      "alerts": 6145,
      "occurren": 6146,
      "matic": 6147,
      "reportedly": 6148,
      "sha256": 6149,
      "flags": 6150,
      "descript": 6151,
      "received": 6152,
      "snapshots": 6153,
      "thinkphp": 6154,
      "\":\"": 6155,
      "jetty": 6156,
      "jeecg": 6157,
      "artifacts": 6158,
      "@@@@": 6159,
      "benchmark": 6160,
      "horizon": 6161,
      "slurm": 6162,
      "suffix": 6163,
      "\"{}\"": 6164,
      "iscsi": 6165,
      "â˜¢â˜¢": 6166,
      "dmxready": 6167,
      "lucee": 6168,
      "'my": 6169,
      "330": 6170,
      "400": 6171,
      "63": 6172,
      "600": 6173,
      "[s]": 6174,
      "\\1": 6175,
      "\\t": 6176,
      "cow": 6177,
      "ham": 6178,
      "iframes": 6179,
      "j|": 6180,
      "kan": 6181,
      "psc": 6182,
      "saves": 6183,
      "v9": 6184,
      "v}}": 6185,
      "zones": 6186,
      "forwar": 6187,
      "{{echo": 6188,
      "ecl": 6189,
      "calling": 6190,
      "neo": 6191,
      "estate": 6192,
      "formula": 6193,
      "doppl": 6194,
      "suffers": 6195,
      "{{[s|": 6196,
      "{{[r|": 6197,
      "miscell": 6198,
      "stree": 6199,
      "cannot": 6200,
      "php\"": 6201,
      "downloaded": 6202,
      "obf": 6203,
      "suspend": 6204,
      "marke": 6205,
      "create:": 6206,
      "counts": 6207,
      "dir2": 6208,
      "numeric": 6209,
      "blast": 6210,
      "capt": 6211,
      "basics": 6212,
      "dsl": 6213,
      "rank": 6214,
      "seeyon": 6215,
      "harden": 6216,
      "sonar": 6217,
      "branches": 6218,
      "recover": 6219,
      "zoom": 6220,
      "mvn": 6221,
      "tickets": 6222,
      "widely": 6223,
      "lua": 6224,
      "migrate": 6225,
      "cheatsheet": 6226,
      "danger": 6227,
      "iliary": 6228,
      "processed": 6229,
      "auxiliary": 6230,
      "\"foo\"": 6231,
      "period": 6232,
      "{{width}}": 6233,
      "sophos": 6234,
      "jolokia": 6235,
      "miscellaneous": 6236,
      "\"#": 6237,
      "(like": 6238,
      "*)": 6239,
      "92": 6240,
      ";'": 6241,
      "[i": 6242,
      "cab": 6243,
      "fos": 6244,
      "jam": 6245,
      "mu": 6246,
      "pause": 6247,
      "ssti": 6248,
      "tong": 6249,
      "teles": 6250,
      "arrow": 6251,
      "const": 6252,
      "imm": 6253,
      "urpm": 6254,
      "{{server": 6255,
      "{{profile": 6256,
      "cript": 6257,
      "bear": 6258,
      "path\"": 6259,
      "class:": 6260,
      "ipv4": 6261,
      "minim": 6262,
      "minio": 6263,
      "bits": 6264,
      "default)": 6265,
      "removed": 6266,
      "locale": 6267,
      "openemr": 6268,
      "checked": 6269,
      "install]}}": 6270,
      "override": 6271,
      "builds": 6272,
      "cache:": 6273,
      "debugger": 6274,
      "dependent": 6275,
      "drivers": 6276,
      "extraction": 6277,
      "binary}}": 6278,
      "wikipe": 6279,
      "sha1": 6280,
      "wn5": 6281,
      "forums": 6282,
      "halt": 6283,
      "archives": 6284,
      "dynamically": 6285,
      "electric": 6286,
      "svg}}": 6287,
      "gv}}": 6288,
      "pbx": 6289,
      "correctly": 6290,
      "entitlements": 6291,
      "dictionary": 6292,
      "penetration": 6293,
      "portswigger": 6294,
      "tongda": 6295,
      "(as": 6296,
      "4a": 6297,
      "?id": 6298,
      "@example": 6299,
      "[r": 6300,
      "bac": 6301,
      "bby": 6302,
      "hug": 6303,
      "kib": 6304,
      "m)": 6305,
      "mf": 6306,
      "mine": 6307,
      "nac": 6308,
      "qt": 6309,
      "s2": 6310,
      "vity": 6311,
      "xpath": 6312,
      "stics": 6313,
      "robo": 6314,
      "unsigned": 6315,
      "{{number}}": 6316,
      "tpoint": 6317,
      "cti": 6318,
      "sso": 6319,
      "log:": 6320,
      "run]}}": 6321,
      "avor": 6322,
      "gran": 6323,
      "code:": 6324,
      "###": 6325,
      "valent": 6326,
      "admin)": 6327,
      "admin:": 6328,
      "entering": 6329,
      "writeup": 6330,
      "\"{{search": 6331,
      "volat": 6332,
      "factory": 6333,
      "mount:": 6334,
      "leaked": 6335,
      "bigger": 6336,
      "computers": 6337,
      "extracting": 6338,
      "warp": 6339,
      "keeping": 6340,
      "listener": 6341,
      "wsgi": 6342,
      "impacts": 6343,
      "usage>": 6344,
      "beginning": 6345,
      "fortiweb": 6346,
      "solarview": 6347,
      "mountpoint": 6348,
      "constrained": 6349,
      "diagnostics": 6350,
      "provisioning": 6351,
      "preparation": 6352,
      "obfus": 6353,
      "\"`": 6354,
      "\"http:": 6355,
      "%d": 6356,
      "<ip>": 6357,
      "[t]": 6358,
      "[f]": 6359,
      "\\\"": 6360,
      "blogs": 6361,
      "duck": 6362,
      "fn": 6363,
      "fon": 6364,
      "fsc": 6365,
      "kno": 6366,
      "qnap": 6367,
      "s`": 6368,
      "ster": 6369,
      "spread": 6370,
      "|container": 6371,
      "rebase": 6372,
      "atime": 6373,
      "ate:": 6374,
      "ately": 6375,
      "metric": 6376,
      "chun": 6377,
      "chap": 6378,
      "{{http:": 6379,
      "{{keyword": 6380,
      "vised": 6381,
      "neu": 6382,
      "filer": 6383,
      "with:": 6384,
      "discard": 6385,
      "reduc": 6386,
      "sp3": 6387,
      "man:": 6388,
      "dnn": 6389,
      "availability": 6390,
      "engines": 6391,
      "buf": 6392,
      "heet": 6393,
      "application:": 6394,
      "application's": 6395,
      "flowise": 6396,
      "flir": 6397,
      "pixi": 6398,
      "shells": 6399,
      "formatted": 6400,
      "status:": 6401,
      "{{package1": 6402,
      "looking": 6403,
      "hijack": 6404,
      "cameras": 6405,
      "{{username}}:{{password}}": 6406,
      "365": 6407,
      "yonyou": 6408,
      "docum": 6409,
      "rights": 6410,
      "learnpress": 6411,
      "{{path\\to\\file": 6412,
      "providers": 6413,
      "nfc": 6414,
      "plaintext": 6415,
      "quiet]}}": 6416,
      "converter": 6417,
      "transparent": 6418,
      "dragon": 6419,
      "{{variable}}": 6420,
      "odoo": 6421,
      "bzip2": 6422,
      "replacing": 6423,
      "currency": 6424,
      "swagger": 6425,
      "dangerous": 6426,
      "\"filename": 6427,
      "84": 6428,
      "800": 6429,
      "`<": 6430,
      "bom": 6431,
      "came": 6432,
      "equal": 6433,
      "fprint": 6434,
      "gc": 6435,
      "gm": 6436,
      "glibc": 6437,
      "ked": 6438,
      "oo": 6439,
      "rasp": 6440,
      "uu": 6441,
      "wfuzz": 6442,
      "acc": 6443,
      "orm": 6444,
      "eserver": 6445,
      "todo": 6446,
      "indust": 6447,
      "{{job": 6448,
      "{{0}}": 6449,
      "asy": 6450,
      "ader": 6451,
      "proof": 6452,
      "cod": 6453,
      "crush": 6454,
      "hole": 6455,
      "siem": 6456,
      "netweaver": 6457,
      "runtimes": 6458,
      "name'": 6459,
      "circ": 6460,
      "nov": 6461,
      "tenable": 6462,
      "misconfigured": 6463,
      "injecting": 6464,
      "contained": 6465,
      "pattern}}\"": 6466,
      "adequ": 6467,
      "dirs": 6468,
      "activities": 6469,
      "turbo": 6470,
      "stacks": 6471,
      "powerful": 6472,
      "pkg:": 6473,
      "greater": 6474,
      "mktemp": 6475,
      "tracked": 6476,
      "staged": 6477,
      "fortios": 6478,
      "opensis": 6479,
      "insensitive)": 6480,
      "impersonate": 6481,
      "compatible": 6482,
      "huntr": 6483,
      ">|<": 6484,
      "forwarded": 6485,
      "doppler": 6486,
      "siemens": 6487,
      "\"><": 6488,
      "$file": 6489,
      "%00": 6490,
      "(use": 6491,
      "0;": 6492,
      "\\system": 6493,
      "bmp": 6494,
      "dro": 6495,
      "kar": 6496,
      "lap": 6497,
      "nic": 6498,
      "rfi": 6499,
      "ske": 6500,
      "inat": 6501,
      "ito": 6502,
      "orange": 6503,
      "thin": 6504,
      "omit": 6505,
      "concate": 6506,
      "type:": 6507,
      "togg": 6508,
      "targe": 6509,
      "}};": 6510,
      "{{process": 6511,
      "{{table": 6512,
      "{{2}}": 6513,
      "{{3}}": 6514,
      "adc": 6515,
      "compre": 6516,
      "cradle": 6517,
      "plays": 6518,
      "cursor": 6519,
      "tik": 6520,
      "hobby": 6521,
      "itives": 6522,
      "workload": 6523,
      "spaw": 6524,
      "reground": 6525,
      "ipse": 6526,
      "port:": 6527,
      "limits": 6528,
      "responding": 6529,
      "mitig": 6530,
      "installations": 6531,
      "125": 6532,
      "disclosed": 6533,
      "ntfs": 6534,
      "executes": 6535,
      "js}}": 6536,
      "cloudtrail": 6537,
      "functional": 6538,
      "map:": 6539,
      "\"{{hello": 6540,
      "performing": 6541,
      "trying": 6542,
      "178": 6543,
      "callback": 6544,
      "mik": 6545,
      "survey": 6546,
      "nsg": 6547,
      "questions": 6548,
      "shortcode": 6549,
      "replacement": 6550,
      "destination}}": 6551,
      "telegram": 6552,
      "primitive": 6553,
      "subscription": 6554,
      "tgt": 6555,
      "declare": 6556,
      "wrapper": 6557,
      "{{repository}}": 6558,
      "approved": 6559,
      "decryption": 6560,
      "lifer": 6561,
      "hierarchy": 6562,
      "deprecated": 6563,
      "eclipse": 6564,
      "nacos": 6565,
      "neutral": 6566,
      "#get": 6567,
      "<a": 6568,
      "[l": 6569,
      "a>": 6570,
      "hic": 6571,
      "hacking": 6572,
      "iq": 6573,
      "lans": 6574,
      "ostic": 6575,
      "ruck": 6576,
      "sens": 6577,
      "sdb": 6578,
      "sink": 6579,
      "uo": 6580,
      "zap": 6581,
      "acom": 6582,
      "acted": 6583,
      "lever": 6584,
      "icmp": 6585,
      "usg": 6586,
      "tarball": 6587,
      "{{start": 6588,
      "scada": 6589,
      "webmin": 6590,
      "edo": 6591,
      "proftpd": 6592,
      "com\"": 6593,
      "mov": 6594,
      "aily": 6595,
      "percent": 6596,
      "{{[l|": 6597,
      "changing": 6598,
      "segment": 6599,
      "lix": 6600,
      "outbound": 6601,
      "remove]}}": 6602,
      "1024": 6603,
      "istent": 6604,
      "host]}}": 6605,
      "wheel": 6606,
      "operational": 6607,
      "139": 6608,
      "10000": 6609,
      "bootstrap": 6610,
      "ng:": 6611,
      "pkgctl": 6612,
      "mako": 6613,
      "chatgpt": 6614,
      "consul": 6615,
      "mqtt": 6616,
      "artica": 6617,
      "\");": 6618,
      "pools": 6619,
      "speedtest": 6620,
      "dupl": 6621,
      "square": 6622,
      "assignment": 6623,
      "roundcube": 6624,
      "verifies": 6625,
      "ykman": 6626,
      "looks": 6627,
      "continuous": 6628,
      "retrieval": 6629,
      "delimiter": 6630,
      "communicate": 6631,
      "{{height}}": 6632,
      "captcha": 6633,
      "[i]": 6634,
      "volatility": 6635,
      "documented": 6636,
      "[l]": 6637,
      "osticket": 6638,
      "ruckus": 6639,
      "'file'": 6640,
      "(@": 6641,
      "(poc": 6642,
      ":00": 6643,
      "<0": 6644,
      "daily": 6645,
      "f3": 6646,
      "hive": 6647,
      "jel": 6648,
      "kong": 6649,
      "lat": 6650,
      "oy": 6651,
      "ole": 6652,
      "v7": 6653,
      "xcode": 6654,
      "replay": 6655,
      "ats": 6656,
      "aly": 6657,
      "acade": 6658,
      "enow": 6659,
      "anime": 6660,
      "seed": 6661,
      "enta": 6662,
      "mete": 6663,
      "routes": 6664,
      "ura": 6665,
      "{{tag": 6666,
      "{{number": 6667,
      "{{subcommand": 6668,
      "scsi": 6669,
      "aming": 6670,
      "adjust": 6671,
      "apol": 6672,
      "upd": 6673,
      "craw": 6674,
      "moos": 6675,
      "modbus": 6676,
      "age:": 6677,
      "foreground": 6678,
      "servicenow": 6679,
      "suid": 6680,
      "ddy": 6681,
      "club": 6682,
      "rende": 6683,
      "requiring": 6684,
      "grp": 6685,
      "irrel": 6686,
      "credit": 6687,
      "ifconfig": 6688,
      "fullscreen": 6689,
      "newline": 6690,
      "wasm": 6691,
      "installing": 6692,
      "marks": 6693,
      "homepage": 6694,
      "visitor": 6695,
      "facebook": 6696,
      "finance": 6697,
      "root}}": 6698,
      "eselect": 6699,
      "restic": 6700,
      "whois": 6701,
      "\"$file\"": 6702,
      "causing": 6703,
      "console:": 6704,
      "222": 6705,
      "notepad": 6706,
      "270": 6707,
      "zzz": 6708,
      "pipelines": 6709,
      "chains": 6710,
      "tabs": 6711,
      "centralized": 6712,
      "evaluation": 6713,
      "squirrel": 6714,
      "revset": 6715,
      "jetbrain": 6716,
      "declared": 6717,
      "assem": 6718,
      "yahoo": 6719,
      "principle": 6720,
      "wildcard": 6721,
      "enhanced": 6722,
      "smarter": 6723,
      "{{eth0}}": 6724,
      "scenario": 6725,
      "udiskie": 6726,
      "premium": 6727,
      "[r]": 6728,
      "compreh": 6729,
      "liferay": 6730,
      "(poc)": 6731,
      "{{subcommand}}": 6732,
      "#usage>": 6733,
      "7z": 6734,
      "91": 6735,
      "`find": 6736,
      "a8": 6737,
      "ae": 6738,
      "aes": 6739,
      "bak": 6740,
      "equi": 6741,
      "h3c": 6742,
      "jit": 6743,
      "ls:": 6744,
      "mcms": 6745,
      "nim": 6746,
      "nm:": 6747,
      "rand": 6748,
      "rint": 6749,
      "som": 6750,
      "vr": 6751,
      "vrealize": 6752,
      "wm": 6753,
      "ycle": 6754,
      "zi": 6755,
      "erp": 6756,
      "ala": 6757,
      "ale": 6758,
      "isation": 6759,
      "iserver": 6760,
      "arc": 6761,
      "dee": 6762,
      "omi": 6763,
      "to}}": 6764,
      "mega": 6765,
      "ros": 6766,
      "igi": 6767,
      "unexpected": 6768,
      "target]}}": 6769,
      "websphere": 6770,
      "asa": 6771,
      "asing": 6772,
      "amps": 6773,
      "agen": 6774,
      "com>": 6775,
      "contexts": 6776,
      "expan": 6777,
      "phar": 6778,
      "user\"": 6779,
      "ssi": 6780,
      "uctions": 6781,
      "permis": 6782,
      "appdata": 6783,
      "prime": 6784,
      "remote:": 6785,
      "intercept": 6786,
      "ks)": 6787,
      "ants": 6788,
      "localhost:": 6789,
      "persist": 6790,
      "mono": 6791,
      "identities": 6792,
      "gen:": 6793,
      "windows:": 6794,
      "taken": 6795,
      "takes": 6796,
      "tree:": 6797,
      "client:": 6798,
      "libre": 6799,
      "timer": 6800,
      "\"$1\"": 6801,
      "backup:": 6802,
      "hashicor": 6803,
      "nodejs": 6804,
      "terminate": 6805,
      "mobi": 6806,
      "partitions": 6807,
      "freq": 6808,
      "victim's": 6809,
      "sales": 6810,
      "compiler": 6811,
      "insights": 6812,
      "synchronize": 6813,
      "abspath": 6814,
      "intelligence": 6815,
      "{{program}}": 6816,
      "predic": 6817,
      "targeted": 6818,
      "jetbrains": 6819,
      "comprehensive": 6820,
      "hashicorp": 6821,
      "'re": 6822,
      "1'": 6823,
      "1;": 6824,
      "bam": 6825,
      "bws": 6826,
      "cers": 6827,
      "ffe": 6828,
      "hap": 6829,
      "ksh": 6830,
      "kite": 6831,
      "ligh": 6832,
      "luc": 6833,
      "sas": 6834,
      "vb": 6835,
      "vd": 6836,
      "zcat": 6837,
      "rebuild": 6838,
      "orch": 6839,
      "ions": 6840,
      "anim": 6841,
      "arac": 6842,
      "fier": 6843,
      "chip": 6844,
      "unsorted": 6845,
      "{{id}}": 6846,
      "{{pod": 6847,
      "{{4}}": 6848,
      "{{pattern}}": 6849,
      "wel": 6850,
      "webadmin": 6851,
      "aser": 6852,
      "up:": 6853,
      "serves": 6854,
      "comers": 6855,
      "logger": 6856,
      "tix": 6857,
      "qube": 6858,
      "affe": 6859,
      "perature": 6860,
      "sp2": 6861,
      "directive": 6862,
      "directives": 6863,
      "grpc": 6864,
      "ipmi": 6865,
      "astro": 6866,
      "check]}}": 6867,
      "image2": 6868,
      "dir:": 6869,
      "myfile": 6870,
      "bler": 6871,
      "spool": 6872,
      "shot": 6873,
      "shopt": 6874,
      "shodan": 6875,
      "changelog": 6876,
      "device]}}": 6877,
      "\"{{message}}\"": 6878,
      "carbon": 6879,
      "herok": 6880,
      "agents": 6881,
      "hash}}": 6882,
      "slides": 6883,
      "2007": 6884,
      "queues": 6885,
      "pacs": 6886,
      "graphics": 6887,
      "ping:": 6888,
      "333": 6889,
      "leaking": 6890,
      "publisher": 6891,
      "jpg'": 6892,
      "tex}}": 6893,
      "caching": 6894,
      "!!!!": 6895,
      "74cms": 6896,
      "~~~~~~~~": 6897,
      "linkedin": 6898,
      "flipper": 6899,
      "synology": 6900,
      "translation": 6901,
      "computing": 6902,
      "netsweeper": 6903,
      "knock": 6904,
      "chunks": 6905,
      "mikro": 6906,
      "lansweeper": 6907,
      "moosocial": 6908,
      "%m": 6909,
      "(3": 6910,
      ")'": 6911,
      "+1": 6912,
      "2|": 6913,
      "8}}": 6914,
      ":]": 6915,
      "](https:": 6916,
      "b1": 6917,
      "cro": 6918,
      "crop": 6919,
      "c++": 6920,
      "e3": 6921,
      "fab": 6922,
      "hunt": 6923,
      "jk": 6924,
      "len": 6925,
      "mesh": 6926,
      "nh": 6927,
      "ntop": 6928,
      "sr": 6929,
      "sof": 6930,
      "srv": 6931,
      "vin": 6932,
      "vot": 6933,
      "wap": 6934,
      "zed": 6935,
      "err": 6936,
      "ati": 6937,
      "atic": 6938,
      "atory": 6939,
      "thru": 6940,
      "vertex": 6941,
      "aby": 6942,
      "webcam": 6943,
      "cogn": 6944,
      "compar": 6945,
      "exported": 6946,
      "log\"": 6947,
      "logfile": 6948,
      "quet": 6949,
      "elfinder": 6950,
      "confid": 6951,
      "sitem": 6952,
      "shiel": 6953,
      "spa": 6954,
      "mant": 6955,
      "manu": 6956,
      "portable": 6957,
      "streams": 6958,
      "iff": 6959,
      "crete": 6960,
      "remove:": 6961,
      "software:": 6962,
      "service:": 6963,
      "obar": 6964,
      "dedicated": 6965,
      "topnm": 6966,
      "posix": 6967,
      "func": 6968,
      "licens": 6969,
      "auditing": 6970,
      "postgres": 6971,
      "venom": 6972,
      "wood": 6973,
      "sum:": 6974,
      "uxedo": 6975,
      "250": 6976,
      "snake": 6977,
      "mounts": 6978,
      "wards": 6979,
      "afee": 6980,
      "sony": 6981,
      "{{username}}@": 6982,
      "springboot": 6983,
      "newsletter": 6984,
      "purge": 6985,
      "379": 6986,
      "tmt": 6987,
      "beyondtrust": 6988,
      "000000": 6989,
      "clone:": 6990,
      "measures": 6991,
      "blox": 6992,
      "delta": 6993,
      "formerly": 6994,
      "schedule": 6995,
      "loopback": 6996,
      "timestamps": 6997,
      "msfvenom": 6998,
      "adapter": 6999,
      "assessment": 7000,
      "mcafee": 7001,
      "hackerone": 7002,
      "invok": 7003,
      "transmitter": 7004,
      "thumbn": 7005,
      "brightness": 7006,
      "hardening": 7007,
      "kibana": 7008,
      "'file": 7009,
      "'foo": 7010,
      "(including": 7011,
      "2exec": 7012,
      "360": 7013,
      "4|": 7014,
      ":\"": 7015,
      "b\"": 7016,
      "kent": 7017,
      "pending": 7018,
      "slow": 7019,
      "slim": 7020,
      "tx": 7021,
      "vlc": 7022,
      "inode": 7023,
      "ingress": 7024,
      "thic": 7025,
      "topo": 7026,
      "inder": 7027,
      "chk": 7028,
      "imo": 7029,
      "{{*": 7030,
      "adm:": 7031,
      "apr": 7032,
      "cology": 7033,
      "trun": 7034,
      "tiki": 7035,
      "exploitdb": 7036,
      "disabling": 7037,
      "update]}}": 7038,
      "grand": 7039,
      "ispconfig": 7040,
      "ardu": 7041,
      "gogs": 7042,
      "recorder": 7043,
      "opening": 7044,
      "opened": 7045,
      "outputs": 7046,
      "micol": 7047,
      "url|": 7048,
      "blk": 7049,
      "device:": 7050,
      "text}}": 7051,
      "cats": 7052,
      "like:": 7053,
      "epson": 7054,
      "docker:": 7055,
      "rmi": 7056,
      "hashcat": 7057,
      "steps": 7058,
      "2003": 7059,
      "simpl": 7060,
      "freepbx": 7061,
      "403": 7062,
      "disk:": 7063,
      "gatekeeper": 7064,
      "mime": 7065,
      "fuel": 7066,
      "selector": 7067,
      "hacktricks": 7068,
      "nuuo": 7069,
      "symlink": 7070,
      "understanding": 7071,
      "categor": 7072,
      "fetch:": 7073,
      "rtsp": 7074,
      "++++": 7075,
      "artifactory": 7076,
      "iso}}": 7077,
      "instructions": 7078,
      "checksums": 7079,
      "????": 7080,
      "hooks": 7081,
      "pandora": 7082,
      "pixels": 7083,
      "verified": 7084,
      "sctl:": 7085,
      "principal": 7086,
      "yuan": 7087,
      "described": 7088,
      "tulpa": 7089,
      "sonarqube": 7090,
      "{{keyword}}": 7091,
      "\"filename\"": 7092,
      "fprintd": 7093,
      "neutralization": 7094,
      "comersus": 7095,
      "kentico": 7096,
      "\"new": 7097,
      "\"dir": 7098,
      "\"file1": 7099,
      "(m": 7100,
      "(n": 7101,
      "(x": 7102,
      "(only": 7103,
      "(such": 7104,
      "0'": 7105,
      "112": 7106,
      "5000": 7107,
      "93": 7108,
      "<7": 7109,
      "[]": 7110,
      "[current": 7111,
      "[state": 7112,
      "bk": 7113,
      "bol": 7114,
      "gur": 7115,
      "gfor": 7116,
      "hs": 7117,
      "jq": 7118,
      "mtp": 7119,
      "pfs": 7120,
      "r2": 7121,
      "rk": 7122,
      "rsh": 7123,
      "rak": 7124,
      "t}}": 7125,
      "zend": 7126,
      "|xargs": 7127,
      "resc": 7128,
      "reserv": 7129,
      "atrix": 7130,
      "itun": 7131,
      "aco": 7132,
      "anno": 7133,
      "stdout": 7134,
      "dify": 7135,
      "[finding]": 7136,
      "{{network": 7137,
      "{{query": 7138,
      "ecr": 7139,
      "edesk": 7140,
      "proj": 7141,
      "cob": 7142,
      "autor": 7143,
      "file)": 7144,
      "bel": 7145,
      "temperature": 7146,
      "204": 7147,
      "redmine": 7148,
      "sysaid": 7149,
      "aven": 7150,
      "noop": 7151,
      "affecting": 7152,
      "exec:": 7153,
      "regard": 7154,
      "script:": 7155,
      "ipy": 7156,
      "creds": 7157,
      "command]}}": 7158,
      "evol": 7159,
      "partial": 7160,
      "adds": 7161,
      "responsive": 7162,
      "```javascript": 7163,
      "transactions": 7164,
      "tool]": 7165,
      "poses": 7166,
      "pivot": 7167,
      "harbor": 7168,
      "shell:": 7169,
      "messeng": 7170,
      "redirects": 7171,
      "json|": 7172,
      "pgm}}": 7173,
      "size]}}": 7174,
      "causes": 7175,
      "rypt": 7176,
      "virtualenv": 7177,
      "here:": 7178,
      "planet": 7179,
      "angle": 7180,
      "cpufreq": 7181,
      "argument1": 7182,
      "reachable": 7183,
      "{{path\\to\\file}}": 7184,
      "tune": 7185,
      "img}}": 7186,
      "v4l2": 7187,
      "abbing": 7188,
      "apisix": 7189,
      "stripe": 7190,
      "optimization": 7191,
      "pulseaudio": 7192,
      "diagnostic": 7193,
      "contract": 7194,
      "delegation": 7195,
      "address]}}": 7196,
      "enforced": 7197,
      "advisories": 7198,
      "{{interface}}": 7199,
      "upgrades": 7200,
      "introduced": 7201,
      "hydra": 7202,
      "october": 7203,
      "descriptor": 7204,
      "toggle": 7205,
      "apollo": 7206,
      "haproxy": 7207,
      "[state]": 7208,
      "pfsense": 7209,
      "(h": 7210,
      "(useful": 7211,
      "6)": 7212,
      "81": 7213,
      ":{{path": 7214,
      "<<": 7215,
      "dt": 7216,
      "eks": 7217,
      "fb": 7218,
      "iadb": 7219,
      "jtag": 7220,
      "nms": 7221,
      "rit": 7222,
      "raz": 7223,
      "s\"": 7224,
      "sess": 7225,
      "u+": 7226,
      "v11": 7227,
      "x2": 7228,
      "ype": 7229,
      "invo": 7230,
      "inurl:": 7231,
      "itop": 7232,
      "acm": 7233,
      "ension": 7234,
      "argo": 7235,
      "tored": 7236,
      "igo": 7237,
      "igr": 7238,
      "abel": 7239,
      "unless": 7240,
      "{{cluster": 7241,
      "domain]}}": 7242,
      "web:": 7243,
      "terms": 7244,
      "ups": 7245,
      "com)": 7246,
      "ofox": 7247,
      "expir": 7248,
      "file1}}": 7249,
      "preset": 7250,
      "configuring": 7251,
      "sh}}": 7252,
      "sugar": 7253,
      "sp1": 7254,
      "ortal": 7255,
      "prtg": 7256,
      "gray": 7257,
      "registers": 7258,
      "lient": 7259,
      "readonly": 7260,
      "emails": 7261,
      "park": 7262,
      "source}}": 7263,
      "playbook": 7264,
      "suppress": 7265,
      "platformio": 7266,
      "115": 7267,
      "processor": 7268,
      "flavor": 7269,
      "kevin": 7270,
      "gives": 7271,
      "testers": 7272,
      "mythic": 7273,
      "leton": 7274,
      "variety": 7275,
      "pgadmin": 7276,
      "xyz": 7277,
      "wrt": 7278,
      "cake": 7279,
      "make:": 7280,
      "automount": 7281,
      "2004": 7282,
      "40n": 7283,
      "layers": 7284,
      "commit:": 7285,
      "samba": 7286,
      "recursive]}}": 7287,
      "pamto": 7288,
      "ppmto": 7289,
      "practices": 7290,
      "argument2": 7291,
      "maintained": 7292,
      "embedding": 7293,
      "resolved": 7294,
      "problematic": 7295,
      "guyinat": 7296,
      "lint:": 7297,
      "rotation": 7298,
      "xxxxxxxx": 7299,
      "********************************": 7300,
      "combination": 7301,
      "quota": 7302,
      "intelligent": 7303,
      "{{filename}}": 7304,
      "balancer": 7305,
      "accepts": 7306,
      "larger": 7307,
      "tracerou": 7308,
      "cryptographic": 7309,
      "album": 7310,
      "industrial": 7311,
      "mikrotik": 7312,
      "confidential": 7313,
      "\"file2": 7314,
      "$i": 7315,
      "(see": 7316,
      "(0x": 7317,
      ")\\": 7318,
      "1200": 7319,
      "[m": 7320,
      "aos": 7321,
      "c0": 7322,
      "cz": 7323,
      "cec": 7324,
      "dar": 7325,
      "eb": 7326,
      "f\"": 7327,
      "fms": 7328,
      "jvm": 7329,
      "jquery": 7330,
      "kes": 7331,
      "mes": 7332,
      "mpeg": 7333,
      "nate": 7334,
      "pted": 7335,
      "r1": 7336,
      "rsql": 7337,
      "tui": 7338,
      "u8": 7339,
      "uaf": 7340,
      "x]": 7341,
      "remediate": 7342,
      "ero": 7343,
      "thes": 7344,
      "selection": 7345,
      "isbt": 7346,
      "delu": 7347,
      "icc": 7348,
      "concrete": 7349,
      "gemini": 7350,
      "che": 7351,
      "usa": 7352,
      "igen": 7353,
      "id1": 7354,
      "{{2": 7355,
      "{{registry": 7356,
      "{{name|": 7357,
      "{{argument1": 7358,
      "weather": 7359,
      "upnp": 7360,
      "corel": 7361,
      "tracking": 7362,
      "mox": 7363,
      "mozilla": 7364,
      "ceed": 7365,
      "netp": 7366,
      "logins": 7367,
      "ends": 7368,
      "auth:": 7369,
      "app}}": 7370,
      "aval": 7371,
      "sug": 7372,
      "views": 7373,
      "ine:": 7374,
      "login:": 7375,
      "boa": 7376,
      "passphrase": 7377,
      "opent": 7378,
      "buddy": 7379,
      "adminer": 7380,
      "checkpoint": 7381,
      "remediation:": 7382,
      "pmb": 7383,
      "helpdesk": 7384,
      "validated": 7385,
      "let's": 7386,
      "uploading": 7387,
      "token}}": 7388,
      "string}}\"": 7389,
      "130": 7390,
      "pdfto": 7391,
      "include:": 7392,
      "copy:": 7393,
      "foundation": 7394,
      "centos": 7395,
      "barrac": 7396,
      "prevention": 7397,
      "magmi": 7398,
      "executables": 7399,
      "controllers": 7400,
      "filesystems": 7401,
      "completions": 7402,
      "location}}": 7403,
      "initialized": 7404,
      "publish:": 7405,
      "cuppa": 7406,
      "jpg\"": 7407,
      "s3:": 7408,
      "bruteforce": 7409,
      "shopify": 7410,
      "inspector": 7411,
      "calculator": 7412,
      "churchcrm": 7413,
      "gif}}": 7414,
      "distcc": 7415,
      "sharp": 7416,
      "antivirus": 7417,
      "yyyy": 7418,
      "compilation": 7419,
      "proxies": 7420,
      "pairs": 7421,
      "bpf": 7422,
      "psexec": 7423,
      "ethernet": 7424,
      "altervista": 7425,
      "immich": 7426,
      "chapter": 7427,
      "duplicator": 7428,
      "permissive": 7429,
      "salesforce": 7430,
      "heroku": 7431,
      "mantisbt": 7432,
      "barracud": 7433,
      "\"a": 7434,
      "%20": 7435,
      "&1": 7436,
      "(2)": 7437,
      "(formerly": 7438,
      "214": 7439,
      "3000": 7440,
      "\\!": 7441,
      "\\microsoft": 7442,
      "];": 7443,
      "ey": 7444,
      "gig": 7445,
      "k)": 7446,
      "k8": 7447,
      "nft": 7448,
      "os:": 7449,
      "ool": 7450,
      "p'": 7451,
      "qr": 7452,
      "rl": 7453,
      "rain": 7454,
      "slot": 7455,
      "uf": 7456,
      "w0": 7457,
      "wu": 7458,
      "yum": 7459,
      "yii": 7460,
      "inate": 7461,
      "reme": 7462,
      "referen": 7463,
      "enc": 7464,
      "encodes": 7465,
      "pem": 7466,
      "ty:": 7467,
      "ills": 7468,
      "excel": 7469,
      "abit": 7470,
      "abused": 7471,
      "{{my": 7472,
      "{{device": 7473,
      "{{instance": 7474,
      "{{revset": 7475,
      "prop": 7476,
      "plt": 7477,
      "pathname": 7478,
      "doc:": 7479,
      "posed": 7480,
      "leiron": 7481,
      "tag:": 7482,
      "spi": 7483,
      "nodeb": 7484,
      "strapi": 7485,
      "data]}}": 7486,
      "bool": 7487,
      "ip:": 7488,
      "ipa": 7489,
      "ipp": 7490,
      "latency": 7491,
      "infrared": 7492,
      "reporter": 7493,
      "hell": 7494,
      "cpus": 7495,
      "restricts": 7496,
      "topics": 7497,
      "dir]}}": 7498,
      "txt`": 7499,
      "apache2": 7500,
      "numer": 7501,
      "html\"": 7502,
      "ognl": 7503,
      "spotify": 7504,
      "normally": 7505,
      "enter>": 7506,
      "venv": 7507,
      "\"{{command": 7508,
      "root:": 7509,
      "signup": 7510,
      "signage": 7511,
      "text}}\"": 7512,
      "2400": 7513,
      "pgp": 7514,
      "brown": 7515,
      "301": 7516,
      "100000": 7517,
      "rm:": 7518,
      "agent:": 7519,
      "virtualization": 7520,
      "copying": 7521,
      "slider": 7522,
      "2006": 7523,
      "freeze": 7524,
      "midi": 7525,
      "module:": 7526,
      "designer": 7527,
      "scoop": 7528,
      "confusion": 7529,
      "setup:": 7530,
      "livewire": 7531,
      "surve": 7532,
      "nonce": 7533,
      "ajp": 7534,
      "export:": 7535,
      "cmd:": 7536,
      "dropbear": 7537,
      "sections": 7538,
      "started": 7539,
      "supervisor": 7540,
      "regions": 7541,
      "escapes": 7542,
      "potato": 7543,
      "serialized": 7544,
      "objection": 7545,
      "creator": 7546,
      "completely": 7547,
      "wav}}": 7548,
      "meaning": 7549,
      "subscribe": 7550,
      "caches": 7551,
      "{{image}}": 7552,
      "declar": 7553,
      "[!warning": 7554,
      "scrap": 7555,
      "constraints": 7556,
      "contrib": 7557,
      "ecology": 7558,
      "squashfs": 7559,
      "gravity": 7560,
      "rapid": 7561,
      "oriented": 7562,
      "additionally": 7563,
      "{{[a|add]}}": 7564,
      "occurrences": 7565,
      "{{username}}:{{password}}@": 7566,
      "uuid}}": 7567,
      "skeleton": 7568,
      "a>:": 7569,
      "jelly": 7570,
      "mobileiron": 7571,
      "cobbler": 7572,
      "[m]": 7573,
      "[!warning]": 7574,
      "'m": 7575,
      "'search": 7576,
      "'gcloud": 7577,
      "';'": 7578,
      "*\\": 7579,
      "+%": 7580,
      "1|": 7581,
      "2py": 7582,
      "2rce": 7583,
      "4b": 7584,
      "[e": 7585,
      "astr": 7586,
      "das": 7587,
      "eg": 7588,
      "epm": 7589,
      "fas": 7590,
      "gist": 7591,
      "l}}": 7592,
      "nvi": 7593,
      "pj": 7594,
      "pager": 7595,
      "r`": 7596,
      "rid": 7597,
      "rick": 7598,
      "sms": 7599,
      "sway": 7600,
      "satis": 7601,
      "tu": 7602,
      "ua": 7603,
      "vv": 7604,
      "w:": 7605,
      "xf": 7606,
      "infin": 7607,
      "refe": 7608,
      "acu": 7609,
      "loy": 7610,
      "omo": 7611,
      "typo": 7612,
      "ge:": 7613,
      "fido": 7614,
      "impl": 7615,
      "impacket": 7616,
      "exfat": 7617,
      "areas": 7618,
      "{{com": 7619,
      "{{namespace": 7620,
      "ament": 7621,
      "terram": 7622,
      "profiler": 7623,
      "cope": 7624,
      "comes": 7625,
      "auction": 7626,
      "file`": 7627,
      "places": 7628,
      "bean": 7629,
      "foobar": 7630,
      "tib": 7631,
      "utm": 7632,
      "netis": 7633,
      "shir": 7634,
      "shard": 7635,
      "spip": 7636,
      "clic": 7637,
      "fax": 7638,
      "subdomains": 7639,
      "api:": 7640,
      "using:": 7641,
      "displayed": 7642,
      "illing": 7643,
      "exfiltr": 7644,
      "121": 7645,
      "grammar": 7646,
      "bradle": 7647,
      "bypasses": 7648,
      "upgrade:": 7649,
      "toolkit": 7650,
      "cloudfront": 7651,
      "blocking": 7652,
      "sangfor": 7653,
      "url]}}": 7654,
      "normalization": 7655,
      "relro": 7656,
      "ftp:": 7657,
      "deleting": 7658,
      "crystal": 7659,
      "sshd": 7660,
      "secured": 7661,
      "249": 7662,
      "connector": 7663,
      "bootloader": 7664,
      "ventoy": 7665,
      "stealer": 7666,
      "virtualbox": 7667,
      "copyright": 7668,
      "pkg}}": 7669,
      "presents": 7670,
      "seconds}}": 7671,
      "graphical": 7672,
      "model:": 7673,
      "cors": 7674,
      "conf:": 7675,
      "$(dirname": 7676,
      "deployed": 7677,
      "waiting": 7678,
      "supervised": 7679,
      "pico": 7680,
      "compared": 7681,
      "landray": 7682,
      "replication": 7683,
      "{{path\\to\\directory}}": 7684,
      "squid": 7685,
      "symbols": 7686,
      "earlier)": 7687,
      "signatures": 7688,
      "vsftpd": 7689,
      "bottom": 7690,
      "amilo": 7691,
      "signals": 7692,
      "mentioned": 7693,
      "}}:{{tag}}": 7694,
      "casdoor": 7695,
      "msf>": 7696,
      "instru": 7697,
      "panda": 7698,
      "warnings": 7699,
      "$2}'": 7700,
      "navig": 7701,
      "truff": 7702,
      "mosquit": 7703,
      "yml}}": 7704,
      "tplace": 7705,
      "evaluate": 7706,
      "july": 7707,
      "influxdb": 7708,
      "brief": 7709,
      "fossil": 7710,
      "spreadsheet": 7711,
      "dragonfly": 7712,
      "squirrelmail": 7713,
      "categories": 7714,
      "reservation": 7715,
      "messenger": 7716,
      "guyinatuxedo": 7717,
      "traceroute": 7718,
      "terramaster": 7719,
      "bradley": 7720,
      "#vendor": 7721,
      "$f": 7722,
      "'echo": 7723,
      "'id'": 7724,
      "(with": 7725,
      "224": 7726,
      "315": 7727,
      "5:": 7728,
      "b)": 7729,
      "cid": 7730,
      "dub": 7731,
      "fp": 7732,
      "flix": 7733,
      "gle": 7734,
      "gid": 7735,
      "jd": 7736,
      "kk": 7737,
      "kyo": 7738,
      "msi": 7739,
      "mber": 7740,
      "mib": 7741,
      "nest": 7742,
      "oct": 7743,
      "ps:": 7744,
      "penta": 7745,
      "tid": 7746,
      "ttl": 7747,
      "xo": 7748,
      "xsl": 7749,
      "’t": 7750,
      "invite": 7751,
      "renew": 7752,
      "relic": 7753,
      "rexec": 7754,
      "alan": 7755,
      "acro": 7756,
      "thres": 7757,
      "sep": 7758,
      "seenet": 7759,
      "isn't": 7760,
      "vercel": 7761,
      "conside": 7762,
      "geten": 7763,
      "tos": 7764,
      "tofu": 7765,
      "stone": 7766,
      "chamilo": 7767,
      "getting": 7768,
      "uran": 7769,
      "idrac": 7770,
      "scout": 7771,
      "webapp": 7772,
      "webpage": 7773,
      "adis": 7774,
      "coffe": 7775,
      "ctime": 7776,
      "phan": 7777,
      "trunk": 7778,
      "filtered": 7779,
      "quare": 7780,
      "quiz": 7781,
      "disables": 7782,
      "fect": 7783,
      "netbios": 7784,
      "workstation": 7785,
      "solo": 7786,
      "clam": 7787,
      "ci:": 7788,
      "istic": 7789,
      "acharac": 7790,
      "reques": 7791,
      "scrip": 7792,
      "users\"": 7793,
      "intercom": 7794,
      "parquet": 7795,
      "opencats": 7796,
      "104": 7797,
      "observed": 7798,
      "teams": 7799,
      "berry": 7800,
      "guar": 7801,
      "124": 7802,
      "pm:": 7803,
      "platforms": 7804,
      "flow:": 7805,
      "activation": 7806,
      "blockchain": 7807,
      "selen": 7808,
      "opera": 7809,
      "operate": 7810,
      "container:": 7811,
      "performs": 7812,
      "securely": 7813,
      "message]}}": 7814,
      "debug]}}": 7815,
      "axigen": 7816,
      "metacharac": 7817,
      "commons": 7818,
      "histor": 7819,
      "mia": 7820,
      "caution": 7821,
      "safety": 7822,
      "defines": 7823,
      "typescript": 7824,
      "prompting": 7825,
      "merged": 7826,
      "cartwiz": 7827,
      "dmen": 7828,
      "supply": 7829,
      "papercut": 7830,
      "tuning": 7831,
      "primarily": 7832,
      "$1}'": 7833,
      "(default:": 7834,
      "kerberoast": 7835,
      "ret2win": 7836,
      "probe:": 7837,
      "trailing": 7838,
      "rendering": 7839,
      "navigate": 7840,
      "froxl": 7841,
      "8080}}": 7842,
      "effectively": 7843,
      "describes": 7844,
      "%2e": 7845,
      "toml`": 7846,
      "tamper": 7847,
      "dimension": 7848,
      "telesquare": 7849,
      "fonts": 7850,
      "crushftp": 7851,
      "assemble": 7852,
      "barracuda": 7853,
      "typo3": 7854,
      "threshold": 7855,
      "metacharacters": 7856,
      "froxlor": 7857,
      "&#": 7858,
      "'default": 7859,
      "(http": 7860,
      "(also": 7861,
      "(xxe": 7862,
      "213": 7863,
      "3\"": 7864,
      "6}}": 7865,
      "8:": 7866,
      "9)": 7867,
      "[n": 7868,
      "[x]": 7869,
      "\\+": 7870,
      "\\current": 7871,
      "]+": 7872,
      "bda": 7873,
      "d`": 7874,
      "gum": 7875,
      "gdb": 7876,
      "lers": 7877,
      "mg": 7878,
      "mart": 7879,
      "mdb": 7880,
      "nis": 7881,
      "qs": 7882,
      "tz": 7883,
      "vlan": 7884,
      "yac": 7885,
      "yun": 7886,
      "z:": 7887,
      "at:": 7888,
      "atar": 7889,
      "anager": 7890,
      "esc": 7891,
      "seal": 7892,
      "arises": 7893,
      "pel": 7894,
      "stub": 7895,
      "im:": 7896,
      "improperly": 7897,
      "get]}}": 7898,
      "idle": 7899,
      "{{data": 7900,
      "{{script": 7901,
      "{{session": 7902,
      "{{alias": 7903,
      "webrequest": 7904,
      "am:": 7905,
      "apx": 7906,
      "vive": 7907,
      "umbr": 7908,
      "mol": 7909,
      "quic": 7910,
      "ell": 7911,
      "elber": 7912,
      "disconnect": 7913,
      "path]}}": 7914,
      "perf": 7915,
      "reddit": 7916,
      "runner": 7917,
      "appending": 7918,
      "avis": 7919,
      "shiz": 7920,
      "spy": 7921,
      "silver": 7922,
      "manag": 7923,
      "applying": 7924,
      "site:": 7925,
      "grade": 7926,
      "directory)": 7927,
      "irc": 7928,
      "injection:": 7929,
      "show:": 7930,
      "structured": 7931,
      "memcached": 7932,
      "defaults": 7933,
      "aker": 7934,
      "searching": 7935,
      "10web": 7936,
      "1080": 7937,
      "subset": 7938,
      "subsequ": 7939,
      "pointing": 7940,
      "initiated": 7941,
      "checker": 7942,
      "genie": 7943,
      "ffmpeg": 7944,
      "org}}": 7945,
      "addressing": 7946,
      "groupware": 7947,
      "seccomp": 7948,
      "ssh:": 7949,
      "catalog": 7950,
      "basically": 7951,
      "cepted": 7952,
      "extreme": 7953,
      "hero": 7954,
      "protocol)": 7955,
      "nerd": 7956,
      "();": 7957,
      "509": 7958,
      "interactive]}}": 7959,
      "gateways": 7960,
      "cordo": 7961,
      "scode": 7962,
      "lightweight": 7963,
      "yeswiki": 7964,
      "planning": 7965,
      "wallet": 7966,
      "labels": 7967,
      "telecom": 7968,
      "bundles": 7969,
      "prefix}}": 7970,
      "width]}}": 7971,
      "expressions": 7972,
      "bbs": 7973,
      "advantech": 7974,
      "problems": 7975,
      "fmt:": 7976,
      "feeds": 7977,
      "skipping": 7978,
      "boolean": 7979,
      "intent": 7980,
      "pinning": 7981,
      "gke)": 7982,
      "lambda": 7983,
      "category:": 7984,
      "interpreter": 7985,
      "params": 7986,
      "mhz": 7987,
      "dispatcher": 7988,
      "[[:": 7989,
      "weaknesses": 7990,
      "descending": 7991,
      "coders": 7992,
      "expanded": 7993,
      "sugarcrm": 7994,
      "jellyfin": 7995,
      "nvidia": 7996,
      "tibco": 7997,
      "mosquitto": 7998,
      "considered": 7999
    },
    "merges": [
      [
        "i",
        "n"
      ],
      [
        "t",
        "e"
      ],
      [
        "r",
        "e"
      ],
      [
        "o",
        "n"
      ],
      [
        "e",
        "r"
      ],
      [
        "a",
        "t"
      ],
      [
        "i",
        "t"
      ],
      [
        "a",
        "l"
      ],
      [
        "a",
        "c"
      ],
      [
        "e",
        "n"
      ],
      [
        "o",
        "r"
      ],
      [
        "i",
        "on"
      ],
      [
        "a",
        "n"
      ],
      [
        "in",
        "g"
      ],
      [
        "t",
        "h"
      ],
      [
        "e",
        "s"
      ],
      [
        "s",
        "e"
      ],
      [
        "l",
        "e"
      ],
      [
        "i",
        "s"
      ],
      [
        "l",
        "o"
      ],
      [
        "a",
        "r"
      ],
      [
        "d",
        "e"
      ],
      [
        "a",
        "te"
      ],
      [
        "i",
        "c"
      ],
      [
        "o",
        "m"
      ],
      [
        "p",
        "e"
      ],
      [
        "v",
        "er"
      ],
      [
        "it",
        "y"
      ],
      [
        "c",
        "on"
      ],
      [
        "t",
        "y"
      ],
      [
        "en",
        "t"
      ],
      [
        "g",
        "e"
      ],
      [
        "ty",
        "pe"
      ],
      [
        "t",
        "ion"
      ],
      [
        "f",
        "i"
      ],
      [
        "type",
        "]"
      ],
      [
        "[",
        "type]"
      ],
      [
        "t",
        "o"
      ],
      [
        "u",
        "l"
      ],
      [
        "m",
        "e"
      ],
      [
        "te",
        "c"
      ],
      [
        "s",
        "t"
      ],
      [
        "in",
        "d"
      ],
      [
        "te",
        "d"
      ],
      [
        "a",
        "in"
      ],
      [
        "c",
        "h"
      ],
      [
        "de",
        "tec"
      ],
      [
        "th",
        "e"
      ],
      [
        "r",
        "o"
      ],
      [
        "f",
        "ind"
      ],
      [
        "se",
        "ver"
      ],
      [
        "sever",
        "ity"
      ],
      [
        "ac",
        "k"
      ],
      [
        "u",
        "s"
      ],
      [
        "find",
        "ing"
      ],
      [
        "i",
        "m"
      ],
      [
        "d",
        "i"
      ],
      [
        "ac",
        "tion"
      ],
      [
        "v",
        "ul"
      ],
      [
        "vul",
        "n"
      ],
      [
        "s",
        "]"
      ],
      [
        "i",
        "l"
      ],
      [
        "p",
        "at"
      ],
      [
        "at",
        "ion"
      ],
      [
        "[",
        "finding"
      ],
      [
        "severity",
        "]"
      ],
      [
        "action",
        "]"
      ],
      [
        "[finding",
        "s]"
      ],
      [
        "[",
        "severity]"
      ],
      [
        "[",
        "action]"
      ],
      [
        "e",
        "x"
      ],
      [
        "detec",
        "ted"
      ],
      [
        "ge",
        "t"
      ],
      [
        "i",
        "g"
      ],
      [
        "a",
        "b"
      ],
      [
        "a",
        "re"
      ],
      [
        "u",
        "n"
      ],
      [
        "u",
        "r"
      ],
      [
        "i",
        "d"
      ],
      [
        "t",
        "ar"
      ],
      [
        "at",
        "t"
      ],
      [
        "d",
        "om"
      ],
      [
        "f",
        "or"
      ],
      [
        "}",
        "}"
      ],
      [
        "tar",
        "get"
      ],
      [
        "{",
        "{"
      ],
      [
        "dom",
        "ain"
      ],
      [
        "s",
        "c"
      ],
      [
        "w",
        "e"
      ],
      [
        "v",
        "e"
      ],
      [
        "e",
        "c"
      ],
      [
        "att",
        "ack"
      ],
      [
        "w",
        "are"
      ],
      [
        "we",
        "b"
      ],
      [
        "lo",
        "w"
      ],
      [
        "c",
        "al"
      ],
      [
        "a",
        "s"
      ],
      [
        "a",
        "m"
      ],
      [
        "te",
        "r"
      ],
      [
        "re",
        "at"
      ],
      [
        "o",
        "w"
      ],
      [
        "l",
        "y"
      ],
      [
        "an",
        "d"
      ],
      [
        "th",
        "reat"
      ],
      [
        "m",
        "al"
      ],
      [
        "a",
        "d"
      ],
      [
        "s",
        ":"
      ],
      [
        "a",
        "p"
      ],
      [
        "m",
        "ent"
      ],
      [
        "sc",
        "an"
      ],
      [
        "u",
        "p"
      ],
      [
        "pat",
        "ch"
      ],
      [
        "me",
        "di"
      ],
      [
        "e",
        "d"
      ],
      [
        "a",
        "g"
      ],
      [
        "es",
        "cal"
      ],
      [
        "p",
        "ro"
      ],
      [
        "x",
        "t"
      ],
      [
        "v",
        "i"
      ],
      [
        "c",
        "o"
      ],
      [
        "escal",
        "ate"
      ],
      [
        "s",
        "er"
      ],
      [
        "c",
        "om"
      ],
      [
        "ig",
        "h"
      ],
      [
        "con",
        "te"
      ],
      [
        "t",
        "p"
      ],
      [
        "o",
        "f"
      ],
      [
        "c",
        "t"
      ],
      [
        "conte",
        "xt"
      ],
      [
        "o",
        "s"
      ],
      [
        "mal",
        "ware"
      ],
      [
        "context",
        "]"
      ],
      [
        "[",
        "threat"
      ],
      [
        "[",
        "scan"
      ],
      [
        "[threat",
        "]"
      ],
      [
        "h",
        "igh"
      ],
      [
        "ex",
        "p"
      ],
      [
        "p",
        "h"
      ],
      [
        "c",
        "r"
      ],
      [
        "t",
        "r"
      ],
      [
        "u",
        "m"
      ],
      [
        "w",
        "or"
      ],
      [
        "es",
        "s"
      ],
      [
        "m",
        "o"
      ],
      [
        "c",
        "e"
      ],
      [
        "h",
        "t"
      ],
      [
        "ab",
        "le"
      ],
      [
        "p",
        "le"
      ],
      [
        "a",
        "u"
      ],
      [
        "u",
        "re"
      ],
      [
        "fi",
        "le"
      ],
      [
        "n",
        "e"
      ],
      [
        "p",
        "l"
      ],
      [
        "us",
        "er"
      ],
      [
        "a",
        "ge"
      ],
      [
        "ht",
        "tp"
      ],
      [
        "it",
        "h"
      ],
      [
        "fi",
        "l"
      ],
      [
        "s",
        "s"
      ],
      [
        "is",
        "h"
      ],
      [
        "c",
        "ur"
      ],
      [
        "b",
        "e"
      ],
      [
        "a",
        "me"
      ],
      [
        "lo",
        "g"
      ],
      [
        "r",
        "i"
      ],
      [
        "in",
        "s"
      ],
      [
        "f",
        "o"
      ],
      [
        "t",
        "i"
      ],
      [
        "y",
        "s"
      ],
      [
        "w",
        "ith"
      ],
      [
        "es",
        "t"
      ],
      [
        "n",
        "ow"
      ],
      [
        "lo",
        "it"
      ],
      [
        "ph",
        "ish"
      ],
      [
        "ic",
        "al"
      ],
      [
        "te",
        "m"
      ],
      [
        "v",
        "ic"
      ],
      [
        "phish",
        "ing"
      ],
      [
        "q",
        "u"
      ],
      [
        "im",
        "ple"
      ],
      [
        "id",
        "er"
      ],
      [
        "en",
        "d"
      ],
      [
        "http",
        "s:"
      ],
      [
        "exp",
        "loit"
      ],
      [
        "u",
        "t"
      ],
      [
        "ins",
        "ider"
      ],
      [
        "imple",
        "ment"
      ],
      [
        "it",
        "ical"
      ],
      [
        "cr",
        "itical"
      ],
      [
        "a",
        "f"
      ],
      [
        "h",
        "o"
      ],
      [
        "e",
        "l"
      ],
      [
        "d",
        "is"
      ],
      [
        "con",
        "fi"
      ],
      [
        "k",
        "e"
      ],
      [
        "s",
        "i"
      ],
      [
        "u",
        "c"
      ],
      [
        "a",
        "il"
      ],
      [
        "o",
        "l"
      ],
      [
        "ser",
        "vic"
      ],
      [
        "for",
        "m"
      ],
      [
        "ent",
        "i"
      ],
      [
        "au",
        "th"
      ],
      [
        "pat",
        "h"
      ],
      [
        "com",
        "m"
      ],
      [
        "vuln",
        "er"
      ],
      [
        "se",
        "cur"
      ],
      [
        "2",
        "0"
      ],
      [
        "secur",
        "ity"
      ],
      [
        "p",
        "er"
      ],
      [
        "re",
        "d"
      ],
      [
        "f",
        "ec"
      ],
      [
        "d",
        "o"
      ],
      [
        "ne",
        "t"
      ],
      [
        "r",
        "un"
      ],
      [
        "n",
        "ame"
      ],
      [
        "p",
        "re"
      ],
      [
        "it",
        "i"
      ],
      [
        "c",
        "ess"
      ],
      [
        "re",
        "con"
      ],
      [
        "wor",
        "k"
      ],
      [
        "medi",
        "ate"
      ],
      [
        "al",
        "l"
      ],
      [
        "or",
        "y"
      ],
      [
        "im",
        "mediate"
      ],
      [
        "p",
        "t"
      ],
      [
        "d",
        "ate"
      ],
      [
        "ab",
        "il"
      ],
      [
        "medi",
        "um"
      ],
      [
        "p",
        "o"
      ],
      [
        "con",
        "t"
      ],
      [
        "s",
        "ion"
      ],
      [
        "a",
        "y"
      ],
      [
        "s",
        "ys"
      ],
      [
        "confi",
        "g"
      ],
      [
        "ap",
        "p"
      ],
      [
        "a",
        "v"
      ],
      [
        "vulner",
        "abil"
      ],
      [
        "s",
        "h"
      ],
      [
        "s",
        "o"
      ],
      [
        "sys",
        "tem"
      ],
      [
        "s",
        "u"
      ],
      [
        "le",
        "i"
      ],
      [
        "n",
        "uc"
      ],
      [
        "nuc",
        "lei"
      ],
      [
        "f",
        "r"
      ],
      [
        "b",
        "y"
      ],
      [
        "e",
        "w"
      ],
      [
        "v",
        "est"
      ],
      [
        "t",
        "ag"
      ],
      [
        "d",
        "d"
      ],
      [
        "c",
        "ve"
      ],
      [
        "am",
        "l"
      ],
      [
        "di",
        "re"
      ],
      [
        "in",
        "t"
      ],
      [
        "vi",
        "ew"
      ],
      [
        "s",
        "p"
      ],
      [
        "y",
        "aml"
      ],
      [
        "s",
        "il"
      ],
      [
        "c",
        "l"
      ],
      [
        "c",
        "i"
      ],
      [
        "{{",
        "["
      ],
      [
        "sil",
        "ent"
      ],
      [
        "up",
        "date"
      ],
      [
        "dd",
        "os"
      ],
      [
        "servic",
        "es"
      ],
      [
        "dire",
        "ct"
      ],
      [
        "n",
        "o"
      ],
      [
        "re",
        "mo"
      ],
      [
        "e",
        "m"
      ],
      [
        "af",
        "fec"
      ],
      [
        "immediate",
        "ly"
      ],
      [
        "d",
        "at"
      ],
      [
        "tag",
        "s:"
      ],
      [
        "st",
        "r"
      ],
      [
        "net",
        "work"
      ],
      [
        "detec",
        "t"
      ],
      [
        "i",
        "o"
      ],
      [
        "en",
        "able"
      ],
      [
        "affec",
        "ted"
      ],
      [
        "in",
        "vest"
      ],
      [
        "m",
        "is"
      ],
      [
        "]",
        "}}"
      ],
      [
        "invest",
        "ig"
      ],
      [
        "j",
        "ec"
      ],
      [
        "wor",
        "d"
      ],
      [
        "se",
        "t"
      ],
      [
        "in",
        "e"
      ],
      [
        "re",
        "n"
      ],
      [
        "ic",
        "ation"
      ],
      [
        "{{",
        "path"
      ],
      [
        "ac",
        "cess"
      ],
      [
        "ac",
        "t"
      ],
      [
        "fi",
        "ed"
      ],
      [
        "as",
        "s"
      ],
      [
        "ver",
        "sion"
      ],
      [
        "is",
        "t"
      ],
      [
        "u",
        "g"
      ],
      [
        "ac",
        "h"
      ],
      [
        "m",
        "an"
      ],
      [
        "w",
        "w"
      ],
      [
        "p",
        "an"
      ],
      [
        "s",
        "pe"
      ],
      [
        "re",
        "qu"
      ],
      [
        "f",
        "a"
      ],
      [
        "v",
        "end"
      ],
      [
        "vend",
        "or"
      ],
      [
        "or",
        "t"
      ],
      [
        "w",
        "h"
      ],
      [
        "log",
        "in"
      ],
      [
        "p",
        "r"
      ],
      [
        "an",
        "s"
      ],
      [
        "investig",
        "ate"
      ],
      [
        "form",
        "ation"
      ],
      [
        "fil",
        "es"
      ],
      [
        "in",
        "formation"
      ],
      [
        "app",
        "ly"
      ],
      [
        "io",
        "us"
      ],
      [
        "te",
        "n"
      ],
      [
        "si",
        "te"
      ],
      [
        "g",
        "r"
      ],
      [
        "vulnerabil",
        "ity"
      ],
      [
        "dat",
        "a"
      ],
      [
        "ex",
        "ec"
      ],
      [
        "id",
        "enti"
      ],
      [
        "sc",
        "ri"
      ],
      [
        "re",
        "g"
      ],
      [
        "pan",
        "el"
      ],
      [
        "lo",
        "ad"
      ],
      [
        "b",
        "o"
      ],
      [
        "scri",
        "pt"
      ],
      [
        "ic",
        "ious"
      ],
      [
        "th",
        "at"
      ],
      [
        "u",
        "ct"
      ],
      [
        "se",
        "d"
      ],
      [
        "ag",
        "ain"
      ],
      [
        "fil",
        "ter"
      ],
      [
        "again",
        "st"
      ],
      [
        "p",
        "ass"
      ],
      [
        "direct",
        "ory"
      ],
      [
        "identi",
        "fied"
      ],
      [
        "ic",
        "at"
      ],
      [
        "q",
        "l"
      ],
      [
        "re",
        "view"
      ],
      [
        "i",
        "z"
      ],
      [
        "ser",
        "ver"
      ],
      [
        "filter",
        "ing"
      ],
      [
        "th",
        "is"
      ],
      [
        "i",
        "r"
      ],
      [
        "m",
        "s"
      ],
      [
        "20",
        "2"
      ],
      [
        "d",
        "n"
      ],
      [
        "ul",
        "t"
      ],
      [
        "ho",
        "ur"
      ],
      [
        "i",
        "p"
      ],
      [
        "o",
        "p"
      ],
      [
        "o",
        "u"
      ],
      [
        "n",
        "ing"
      ],
      [
        "reg",
        "is"
      ],
      [
        "l",
        "in"
      ],
      [
        "ver",
        "y"
      ],
      [
        "f",
        "ic"
      ],
      [
        "pro",
        "tec"
      ],
      [
        "ar",
        "t"
      ],
      [
        "ter",
        "n"
      ],
      [
        "mis",
        "config"
      ],
      [
        "ow",
        "n"
      ],
      [
        "ar",
        "y"
      ],
      [
        "hour",
        "s"
      ],
      [
        "p",
        "ri"
      ],
      [
        "st",
        "re"
      ],
      [
        "ac",
        "ti"
      ],
      [
        "p",
        "ort"
      ],
      [
        "l",
        "im"
      ],
      [
        "comm",
        "un"
      ],
      [
        "remo",
        "te"
      ],
      [
        "h",
        "a"
      ],
      [
        "er",
        "s"
      ],
      [
        "s",
        "ql"
      ],
      [
        "av",
        "ail"
      ],
      [
        "auth",
        "ent"
      ],
      [
        "spe",
        "ci"
      ],
      [
        "avail",
        "able"
      ],
      [
        "l",
        "ist"
      ],
      [
        "dis",
        "co"
      ],
      [
        "enti",
        "al"
      ],
      [
        "in",
        "jec"
      ],
      [
        "user",
        "s"
      ],
      [
        "c",
        "red"
      ],
      [
        "co",
        "l"
      ],
      [
        "stre",
        "am"
      ],
      [
        "pre",
        "ss"
      ],
      [
        "c",
        "an"
      ],
      [
        "fo",
        "re"
      ],
      [
        "c",
        "2"
      ],
      [
        "log",
        "s"
      ],
      [
        "of",
        "t"
      ],
      [
        "lim",
        "it"
      ],
      [
        "r",
        "ate"
      ],
      [
        "protec",
        "tion"
      ],
      [
        "cred",
        "ential"
      ],
      [
        "ment",
        "ation"
      ],
      [
        "ate",
        "d"
      ],
      [
        "exec",
        "u"
      ],
      [
        "d",
        "er"
      ],
      [
        "ar",
        "ch"
      ],
      [
        "is",
        "ol"
      ],
      [
        "with",
        "in"
      ],
      [
        "cont",
        "act"
      ],
      [
        "ch",
        "an"
      ],
      [
        "s",
        "oft"
      ],
      [
        "run",
        "ning"
      ],
      [
        "co",
        "de"
      ],
      [
        "be",
        "fore"
      ],
      [
        "en",
        "s"
      ],
      [
        "m",
        "in"
      ],
      [
        "on",
        "e"
      ],
      [
        "in",
        "st"
      ],
      [
        "i",
        "f"
      ],
      [
        "0",
        "0"
      ],
      [
        "is",
        "p"
      ],
      [
        "c",
        "dn"
      ],
      [
        "4",
        "8"
      ],
      [
        "fr",
        "om"
      ],
      [
        "up",
        "stream"
      ],
      [
        "limit",
        "ing"
      ],
      [
        "r",
        "ans"
      ],
      [
        "om",
        "ware"
      ],
      [
        "rans",
        "omware"
      ],
      [
        "comm",
        "and"
      ],
      [
        "c",
        "lo"
      ],
      [
        "in",
        "ter"
      ],
      [
        "b",
        "ack"
      ],
      [
        "injec",
        "tion"
      ],
      [
        "en",
        "g"
      ],
      [
        "ro",
        "ss"
      ],
      [
        "k",
        "s"
      ],
      [
        "p",
        "age"
      ],
      [
        "auth",
        "or"
      ],
      [
        "so",
        "ur"
      ],
      [
        "e",
        "v"
      ],
      [
        "l",
        "ate"
      ],
      [
        "se",
        "g"
      ],
      [
        "`",
        "`"
      ],
      [
        "u",
        "b"
      ],
      [
        "an",
        "al"
      ],
      [
        "om",
        "e"
      ],
      [
        "l",
        "i"
      ],
      [
        "f",
        "ul"
      ],
      [
        "seg",
        "mentation"
      ],
      [
        "ar",
        "d"
      ],
      [
        "sh",
        "ow"
      ],
      [
        "word",
        "press"
      ],
      [
        "mal",
        "icious"
      ],
      [
        "c",
        "ross"
      ],
      [
        "disco",
        "very"
      ],
      [
        "ren",
        "t"
      ],
      [
        "regis",
        "tr"
      ],
      [
        "str",
        "uct"
      ],
      [
        "re",
        "ad"
      ],
      [
        "#",
        "#"
      ],
      [
        "an",
        "t"
      ],
      [
        "ch",
        "ec"
      ],
      [
        "c",
        "k"
      ],
      [
        "em",
        "ail"
      ],
      [
        "te",
        "st"
      ],
      [
        "ac",
        "e"
      ],
      [
        "iti",
        "es"
      ],
      [
        "u",
        "d"
      ],
      [
        "struct",
        "ure"
      ],
      [
        "script",
        "ing"
      ],
      [
        "me",
        "m"
      ],
      [
        "g",
        "o"
      ],
      [
        "re",
        "set"
      ],
      [
        "p",
        "ar"
      ],
      [
        "o",
        "ut"
      ],
      [
        "b",
        "it"
      ],
      [
        "de",
        "fa"
      ],
      [
        "system",
        "s"
      ],
      [
        "defa",
        "ult"
      ],
      [
        "al",
        "low"
      ],
      [
        "c",
        "re"
      ],
      [
        "vi",
        "le"
      ],
      [
        "pri",
        "vile"
      ],
      [
        "pl",
        "ug"
      ],
      [
        "sour",
        "ce"
      ],
      [
        "a",
        "se"
      ],
      [
        "b",
        "u"
      ],
      [
        "be",
        "ha"
      ],
      [
        "ww",
        "w"
      ],
      [
        "beha",
        "vi"
      ],
      [
        "a",
        "k"
      ],
      [
        "as",
        "h"
      ],
      [
        "behavi",
        "or"
      ],
      [
        "in",
        "fr"
      ],
      [
        "se",
        "arch"
      ],
      [
        "u",
        "e"
      ],
      [
        "infr",
        "a"
      ],
      [
        "infra",
        "structure"
      ],
      [
        "ig",
        "n"
      ],
      [
        "icat",
        "or"
      ],
      [
        "requ",
        "est"
      ],
      [
        "i",
        "ve"
      ],
      [
        "remo",
        "ve"
      ],
      [
        "p",
        "ack"
      ],
      [
        "ad",
        "d"
      ],
      [
        "cont",
        "ain"
      ],
      [
        "pl",
        "ay"
      ],
      [
        "ind",
        "icator"
      ],
      [
        "plug",
        "in"
      ],
      [
        "credential",
        "s"
      ],
      [
        "acti",
        "ve"
      ],
      [
        "vulnerabil",
        "ities"
      ],
      [
        "requ",
        "i"
      ],
      [
        "a",
        "st"
      ],
      [
        "privile",
        "ge"
      ],
      [
        "en",
        "ce"
      ],
      [
        "lo",
        "cal"
      ],
      [
        "pr",
        "int"
      ],
      [
        "e",
        "t"
      ],
      [
        "soft",
        "ware"
      ],
      [
        "cur",
        "rent"
      ],
      [
        "re",
        "c"
      ],
      [
        "op",
        "en"
      ],
      [
        "re",
        "sp"
      ],
      [
        "resp",
        "on"
      ],
      [
        "h",
        "e"
      ],
      [
        "in",
        "cl"
      ],
      [
        "le",
        "ct"
      ],
      [
        "k",
        "now"
      ],
      [
        "un",
        "t"
      ],
      [
        "servic",
        "e"
      ],
      [
        "um",
        "p"
      ],
      [
        "s",
        "us"
      ],
      [
        "ph",
        "p"
      ],
      [
        "d",
        "own"
      ],
      [
        "name",
        "}}"
      ],
      [
        "1",
        "0"
      ],
      [
        "exp",
        "os"
      ],
      [
        "pass",
        "word"
      ],
      [
        "r",
        "ary"
      ],
      [
        "per",
        "s"
      ],
      [
        "ful",
        "l"
      ],
      [
        "pat",
        "tern"
      ],
      [
        "o",
        "b"
      ],
      [
        "v",
        "al"
      ],
      [
        "y",
        "e"
      ],
      [
        "mem",
        "ory"
      ],
      [
        "d",
        "ump"
      ],
      [
        "w",
        "p"
      ],
      [
        "ad",
        "min"
      ],
      [
        "su",
        "b"
      ],
      [
        "f",
        "y"
      ],
      [
        "no",
        "t"
      ],
      [
        "authent",
        "ic"
      ],
      [
        "tp",
        "ut"
      ],
      [
        "ke",
        "y"
      ],
      [
        "i",
        "es"
      ],
      [
        "ag",
        "es"
      ],
      [
        "p",
        "ut"
      ],
      [
        "ou",
        "tput"
      ],
      [
        "a",
        "de"
      ],
      [
        "p",
        "lo"
      ],
      [
        "expos",
        "ure"
      ],
      [
        "jec",
        "t"
      ],
      [
        "is",
        "ten"
      ],
      [
        "ap",
        "pl"
      ],
      [
        "iti",
        "ve"
      ],
      [
        "te",
        "am"
      ],
      [
        "con",
        "d"
      ],
      [
        "f",
        "e"
      ],
      [
        "authentic",
        "ated"
      ],
      [
        "ne",
        "w"
      ],
      [
        "m",
        "on"
      ],
      [
        "po",
        "int"
      ],
      [
        "a",
        "w"
      ],
      [
        "speci",
        "fic"
      ],
      [
        "in",
        "fo"
      ],
      [
        "vi",
        "a"
      ],
      [
        "ar",
        "bit"
      ],
      [
        "ser",
        "ve"
      ],
      [
        "me",
        "d"
      ],
      [
        "ap",
        "i"
      ],
      [
        "m",
        "it"
      ],
      [
        "know",
        "n"
      ],
      [
        "w",
        "as"
      ],
      [
        "respon",
        "se"
      ],
      [
        "in",
        "iti"
      ],
      [
        "d",
        "es"
      ],
      [
        "m",
        "l"
      ],
      [
        "u",
        "se"
      ],
      [
        "id",
        "ent"
      ],
      [
        "re",
        "p"
      ],
      [
        "pro",
        "c"
      ],
      [
        "chec",
        "k"
      ],
      [
        "arbit",
        "rary"
      ],
      [
        "man",
        "age"
      ],
      [
        "c",
        "tion"
      ],
      [
        "ens",
        "itive"
      ],
      [
        "load",
        "s"
      ],
      [
        "attack",
        "er"
      ],
      [
        "t",
        "ro"
      ],
      [
        "registr",
        "y"
      ],
      [
        "in",
        "c"
      ],
      [
        "inst",
        "all"
      ],
      [
        "do",
        "or"
      ],
      [
        "d",
        "b"
      ],
      [
        "us",
        "ing"
      ],
      [
        "dis",
        "play"
      ],
      [
        "appl",
        "ication"
      ],
      [
        "g",
        "it"
      ],
      [
        "anal",
        "ys"
      ],
      [
        "analys",
        "is"
      ],
      [
        "s",
        "ensitive"
      ],
      [
        "b",
        "le"
      ],
      [
        "tr",
        "ation"
      ],
      [
        "j",
        "an"
      ],
      [
        "requi",
        "red"
      ],
      [
        "in",
        "put"
      ],
      [
        "l",
        "s"
      ],
      [
        "me",
        "chan"
      ],
      [
        "commun",
        "ication"
      ],
      [
        "mechan",
        "is"
      ],
      [
        "un",
        "d"
      ],
      [
        "ic",
        "k"
      ],
      [
        "re",
        "e"
      ],
      [
        "n",
        "ess"
      ],
      [
        "com",
        "p"
      ],
      [
        "pers",
        "isten"
      ],
      [
        "cr",
        "on"
      ],
      [
        "pt",
        "s"
      ],
      [
        "ho",
        "st"
      ],
      [
        "confi",
        "r"
      ],
      [
        "b",
        "er"
      ],
      [
        "p",
        "y"
      ],
      [
        "author",
        "iz"
      ],
      [
        "back",
        "door"
      ],
      [
        "em",
        "plo"
      ],
      [
        "l",
        "l"
      ],
      [
        "re",
        "s"
      ],
      [
        "id",
        "ence"
      ],
      [
        "ev",
        "idence"
      ],
      [
        "o",
        "t"
      ],
      [
        "execu",
        "tion"
      ],
      [
        "s",
        "ic"
      ],
      [
        "ic",
        "h"
      ],
      [
        "it",
        "or"
      ],
      [
        "y",
        "ou"
      ],
      [
        "o",
        "k"
      ],
      [
        "emplo",
        "ye"
      ],
      [
        "at",
        "tem"
      ],
      [
        "il",
        "l"
      ],
      [
        "pattern",
        "s"
      ],
      [
        "fo",
        "ren"
      ],
      [
        "mechanis",
        "ms"
      ],
      [
        "foren",
        "sic"
      ],
      [
        "col",
        "lect"
      ],
      [
        "b",
        "a"
      ],
      [
        "ach",
        "e"
      ],
      [
        "o",
        "ver"
      ],
      [
        "persisten",
        "ce"
      ],
      [
        "a",
        "ware"
      ],
      [
        "isol",
        "ation"
      ],
      [
        "medi",
        "ation"
      ],
      [
        "th",
        "er"
      ],
      [
        "re",
        "mediation"
      ],
      [
        "proc",
        "ed"
      ],
      [
        "proced",
        "ure"
      ],
      [
        "icat",
        "ing"
      ],
      [
        "m",
[...]
