{
  "version": "1.0",
  "truncation": null,
  "padding": null,
  "added_tokens": [
    {
      "id": 0,
      "content": "<pad>",
      "single_word": false,
      "lstrip": false,
      "rstrip": false,
      "normalized": false,
      "special": true
    },
    {
      "id": 1,
      "content": "<unk>",
      "single_word": false,
      "lstrip": false,
      "rstrip": false,
      "normalized": false,
      "special": true
    },
    {
      "id": 2,
      "content": "<bos>",
      "single_word": false,
      "lstrip": false,
      "rstrip": false,
      "normalized": false,
      "special": true
    },
    {
      "id": 3,
      "content": "<eos>",
      "single_word": false,
      "lstrip": false,
      "rstrip": false,
      "normalized": false,
      "special": true
    },
    {
      "id": 4,
      "content": "<sep>",
      "single_word": false,
      "lstrip": false,
      "rstrip": false,
      "normalized": false,
      "special": true
    }
  ],
  "normalizer": null,
  "pre_tokenizer": {
    "type": "ByteLevel",
    "add_prefix_space": false,
    "trim_offsets": true,
    "use_regex": true
  },
  "post_processor": {
    "type": "TemplateProcessing",
    "single": [
      {
        "SpecialToken": {
          "id": "<bos>",
          "type_id": 0
        }
      },
      {
        "Sequence": {
          "id": "A",
          "type_id": 0
        }
      },
      {
        "SpecialToken": {
          "id": "<eos>",
          "type_id": 0
        }
      }
    ],
    "pair": [
      {
        "Sequence": {
          "id": "A",
          "type_id": 0
        }
      },
      {
        "Sequence": {
          "id": "B",
          "type_id": 1
        }
      }
    ],
    "special_tokens": {
      "<bos>": {
        "id": "<bos>",
        "ids": [
          2
        ],
        "tokens": [
          "<bos>"
        ]
      },
      "<eos>": {
        "id": "<eos>",
        "ids": [
          3
        ],
        "tokens": [
          "<eos>"
        ]
      }
    }
  },
  "decoder": null,
  "model": {
    "type": "BPE",
    "dropout": null,
    "unk_token": "<unk>",
    "continuing_subword_prefix": null,
    "end_of_word_suffix": null,
    "fuse_unk": false,
    "byte_fallback": false,
    "ignore_merges": false,
    "vocab": {
      "<pad>": 0,
      "<unk>": 1,
      "<bos>": 2,
      "<eos>": 3,
      "<sep>": 4,
      "!": 5,
      "\"": 6,
      "#": 7,
      "$": 8,
      "%": 9,
      "&": 10,
      "'": 11,
      "(": 12,
      ")": 13,
      "*": 14,
      "+": 15,
      ",": 16,
      "-": 17,
      ".": 18,
      "/": 19,
      "0": 20,
      "1": 21,
      "2": 22,
      "3": 23,
      "4": 24,
      "5": 25,
      "6": 26,
      "7": 27,
      "8": 28,
      "9": 29,
      ":": 30,
      ";": 31,
      "<": 32,
      "=": 33,
      ">": 34,
      "?": 35,
      "@": 36,
      "A": 37,
      "B": 38,
      "C": 39,
      "D": 40,
      "E": 41,
      "F": 42,
      "G": 43,
      "H": 44,
      "I": 45,
      "J": 46,
      "K": 47,
      "L": 48,
      "M": 49,
      "N": 50,
      "O": 51,
      "P": 52,
      "Q": 53,
      "R": 54,
      "S": 55,
      "T": 56,
      "U": 57,
      "V": 58,
      "W": 59,
      "X": 60,
      "Y": 61,
      "Z": 62,
      "[": 63,
      "\\": 64,
      "]": 65,
      "^": 66,
      "_": 67,
      "`": 68,
      "a": 69,
      "b": 70,
      "c": 71,
      "d": 72,
      "e": 73,
      "f": 74,
      "g": 75,
      "h": 76,
      "i": 77,
      "j": 78,
      "k": 79,
      "l": 80,
      "m": 81,
      "n": 82,
      "o": 83,
      "p": 84,
      "q": 85,
      "r": 86,
      "s": 87,
      "t": 88,
      "u": 89,
      "v": 90,
      "w": 91,
      "x": 92,
      "y": 93,
      "z": 94,
      "{": 95,
      "|": 96,
      "}": 97,
      "~": 98,
      "¡": 99,
      "¢": 100,
      "£": 101,
      "¤": 102,
      "¥": 103,
      "¦": 104,
      "§": 105,
      "¨": 106,
      "©": 107,
      "ª": 108,
      "«": 109,
      "¬": 110,
      "®": 111,
      "¯": 112,
      "°": 113,
      "±": 114,
      "²": 115,
      "³": 116,
      "´": 117,
      "µ": 118,
      "¶": 119,
      "·": 120,
      "¸": 121,
      "¹": 122,
      "º": 123,
      "»": 124,
      "¼": 125,
      "½": 126,
      "¾": 127,
      "¿": 128,
      "Â": 129,
      "Ã": 130,
      "Ä": 131,
      "Å": 132,
      "Æ": 133,
      "Ç": 134,
      "È": 135,
      "É": 136,
      "Ê": 137,
      "Ë": 138,
      "Ì": 139,
      "Í": 140,
      "Î": 141,
      "Ï": 142,
      "Ð": 143,
      "Ñ": 144,
      "Ø": 145,
      "Ù": 146,
      "à": 147,
      "á": 148,
      "â": 149,
      "ã": 150,
      "ä": 151,
      "å": 152,
      "æ": 153,
      "ç": 154,
      "è": 155,
      "é": 156,
      "ê": 157,
      "ë": 158,
      "ì": 159,
      "í": 160,
      "ï": 161,
      "ð": 162,
      "Ā": 163,
      "ĉ": 164,
      "Ċ": 165,
      "č": 166,
      "Ġ": 167,
      "Ģ": 168,
      "ģ": 169,
      "Ĥ": 170,
      "ĥ": 171,
      "Ħ": 172,
      "ħ": 173,
      "Ĩ": 174,
      "ĩ": 175,
      "Ī": 176,
      "ī": 177,
      "Ĭ": 178,
      "ĭ": 179,
      "Į": 180,
      "į": 181,
      "İ": 182,
      "ı": 183,
      "Ĳ": 184,
      "ĳ": 185,
      "Ĵ": 186,
      "ĵ": 187,
      "Ķ": 188,
      "ķ": 189,
      "ĸ": 190,
      "Ĺ": 191,
      "ĺ": 192,
      "Ļ": 193,
      "ļ": 194,
      "Ľ": 195,
      "ľ": 196,
      "Ŀ": 197,
      "ŀ": 198,
      "Ł": 199,
      "ł": 200,
      "Ń": 201,
      "ĠĠ": 202,
      "Ġt": 203,
      "Ġa": 204,
      "in": 205,
      "he": 206,
      "on": 207,
      "re": 208,
      "st": 209,
      "at": 210,
      "er": 211,
      "Ġthe": 212,
      "Ġc": 213,
      "##": 214,
      "en": 215,
      "or": 216,
      "ĠĠĠĠ": 217,
      "es": 218,
      "Ġs": 219,
      "it": 220,
      "Ġf": 221,
      "ion": 222,
      "nd": 223,
      "Ġp": 224,
      "ing": 225,
      "al": 226,
      "Ġo": 227,
      "ct": 228,
      "Ġw": 229,
      "an": 230,
      "ou": 231,
      "le": 232,
      "se": 233,
      "Ġin": 234,
      "Ġto": 235,
      "Ġand": 236,
      "ar": 237,
      "Ġm": 238,
      "Ġd": 239,
      "###": 240,
      "ĠI": 241,
      "Ġb": 242,
      "is": 243,
      "Ġof": 244,
      "ic": 245,
      "ro": 246,
      "ent": 247,
      "Ġe": 248,
      "Ġre": 249,
      "Ġn": 250,
      "ĠIn": 251,
      "ed": 252,
      "ut": 253,
      "ction": 254,
      "str": 255,
      "Ġl": 256,
      "Ġ###": 257,
      "om": 258,
      "Ġth": 259,
      "Ġ=": 260,
      "et": 261,
      "Ġ\"": 262,
      "am": 263,
      "ve": 264,
      "ĠR": 265,
      "Ġh": 266,
      "ĠS": 267,
      "ĠT": 268,
      "ate": 269,
      "ĠĠĠĠĠĠĠĠ": 270,
      "im": 271,
      "as": 272,
      "Ġfor": 273,
      "de": 274,
      "um": 275,
      "Ġu": 276,
      "ll": 277,
      "ur": 278,
      "Ġg": 279,
      "ce": 280,
      "pon": 281,
      "stru": 282,
      "ch": 283,
      "ra": 284,
      "Ġis": 285,
      "ith": 286,
      "ul": 287,
      "if": 288,
      "ow": 289,
      "ponse": 290,
      "struction": 291,
      "Ġy": 292,
      "ĠC": 293,
      "ation": 294,
      "ĠRes": 295,
      "ĠInstruction": 296,
      "ĠResponse": 297,
      "ge": 298,
      "Ġ1": 299,
      "Ġwith": 300,
      "ist": 301,
      "ers": 302,
      "Ġpro": 303,
      "Ġthat": 304,
      "put": 305,
      "ĠA": 306,
      "ig": 307,
      "il": 308,
      "ol": 309,
      "Ġyou": 310,
      "ot": 311,
      "Ġan": 312,
      "em": 313,
      "Ġas": 314,
      "ess": 315,
      "Ġhe": 316,
      "id": 317,
      "Ġst": 318,
      "un": 319,
      "Ġbe": 320,
      "ab": 321,
      "ly": 322,
      "qu": 323,
      "Ġex": 324,
      "Ġon": 325,
      "iv": 326,
      "Ġcon": 327,
      "Ġ{": 328,
      "ir": 329,
      "Ġ<": 330,
      "ĠThe": 331,
      "Ġv": 332,
      "pp": 333,
      "Ġare": 334,
      "ay": 335,
      "ter": 336,
      "Ġde": 337,
      "Ġcan": 338,
      "th": 339,
      "ri": 340,
      "Ġor": 341,
      "ort": 342,
      "Ġ2": 343,
      "ad": 344,
      "Ġit": 345,
      "--": 346,
      "ment": 347,
      "ant": 348,
      "ĠInput": 349,
      "ĠP": 350,
      "ver": 351,
      "res": 352,
      "Ġcom": 353,
      "ame": 354,
      "nt": 355,
      "ld": 356,
      "\":": 357,
      "ĠH": 358,
      "Ġ(": 359,
      "Ġ-": 360,
      "end": 361,
      "te": 362,
      "cc": 363,
      "pe": 364,
      "ode": 365,
      "pt": 366,
      "ke": 367,
      "\",": 368,
      "int": 369,
      "ive": 370,
      "Ġim": 371,
      "Ġsu": 372,
      "ĠW": 373,
      "Ġne": 374,
      "Ġar": 375,
      "Ġ}": 376,
      "unction": 377,
      "Ġma": 378,
      "lo": 379,
      "Ġse": 380,
      "ord": 381,
      "ase": 382,
      "Ġwh": 383,
      "ity": 384,
      "age": 385,
      "Ġle": 386,
      "ĠF": 387,
      "od": 388,
      "Ġus": 389,
      "rom": 390,
      "Ġnum": 391,
      "Ġch": 392,
      "ple": 393,
      "Ġwe": 394,
      "ck": 395,
      "xt": 396,
      "iz": 397,
      "urn": 398,
      "Ġ'": 399,
      "ĠD": 400,
      "ht": 401,
      "able": 402,
      "Ġfunction": 403,
      "Ġr": 404,
      "ĠM": 405,
      "us": 406,
      "lp": 407,
      "ure": 408,
      "Ġ#": 409,
      "ata": 410,
      "ies": 411,
      "Ġ3": 412,
      "Ġret": 413,
      "du": 414,
      "Ġ[": 415,
      "her": 416,
      "Ġhelp": 417,
      "ore": 418,
      "Ġfrom": 419,
      "Ġsh": 420,
      ");": 421,
      "ĠY": 422,
      "ĠB": 423,
      "act": 424,
      "Ġacc": 425,
      "'s": 426,
      "yst": 427,
      "Ġimp": 428,
      "ine": 429,
      "Ġif": 430,
      "ould": 431,
      "Ġreturn": 432,
      "Ġpr": 433,
      "ĠN": 434,
      "Ġte": 435,
      "pl": 436,
      "Ġha": 437,
      "reate": 438,
      "ide": 439,
      "ect": 440,
      "Ġ|": 441,
      "ystem": 442,
      "ence": 443,
      "ĠE": 444,
      "ĠG": 445,
      "Ġint": 446,
      "ial": 447,
      "ue": 448,
      "ain": 449,
      "red": 450,
      "Ġal": 451,
      "Ġen": 452,
      "ass": 453,
      "Ġstr": 454,
      "ult": 455,
      "ie": 456,
      "Ġuse": 457,
      "Ġfo": 458,
      "00": 459,
      "art": 460,
      "lic": 461,
      "ber": 462,
      "ill": 463,
      "Ġinc": 464,
      "ĠYou": 465,
      "Ġpo": 466,
      "ind": 467,
      "Ġby": 468,
      "ight": 469,
      "Ġres": 470,
      "per": 471,
      "all": 472,
      "ust": 473,
      "ful": 474,
      "):": 475,
      "orm": 476,
      "Ġad": 477,
      "oo": 478,
      "ere": 479,
      "Ġapp": 480,
      "ite": 481,
      "ĠO": 482,
      "Ġyour": 483,
      "Ġ5": 484,
      "lu": 485,
      "ag": 486,
      "Ġtheir": 487,
      "Ġdata": 488,
      "llow": 489,
      "Ġass": 490,
      "ĠL": 491,
      "out": 492,
      "ST": 493,
      "ĠĠĠĠĠ": 494,
      "Ġ0": 495,
      "and": 496,
      "Ġ+": 497,
      "oc": 498,
      "ount": 499,
      "av": 500,
      "tern": 501,
      "ime": 502,
      "Ġi": 503,
      "Ġ4": 504,
      "Ġpl": 505,
      "ast": 506,
      "Ġcl": 507,
      "Ġaccess": 508,
      "ical": 509,
      "Ġthis": 510,
      "gr": 511,
      "ĠJ": 512,
      "ach": 513,
      "ĠU": 514,
      "Ġme": 515,
      "form": 516,
      "ile": 517,
      "ĠSystem": 518,
      "og": 519,
      "Ġj": 520,
      "name": 521,
      "el": 522,
      "Ġcode": 523,
      "cri": 524,
      "----": 525,
      "iven": 526,
      "Ġat": 527,
      "ray": 528,
      "Ġlist": 529,
      "ĠTh": 530,
      "``": 531,
      "ff": 532,
      "Ġdef": 533,
      "Ġassist": 534,
      "Ġhave": 535,
      "ener": 536,
      "our": 537,
      "ice": 538,
      "ib": 539,
      "ition": 540,
      "ents": 541,
      "ome": 542,
      "ub": 543,
      "Ġno": 544,
      "Ġ/": 545,
      "Ġfunctions": 546,
      "are": 547,
      "ance": 548,
      "ign": 549,
      "Ġprov": 550,
      "Ġimport": 551,
      "Ġassistant": 552,
      "Ġab": 553,
      "EM": 554,
      "ary": 555,
      "Ġhelpful": 556,
      "Ġcont": 557,
      "ak": 558,
      "STEM": 559,
      "ĠSY": 560,
      "ĠSYSTEM": 561,
      "ĠĠĠ": 562,
      "Ġfollow": 563,
      "ces": 564,
      "ost": 565,
      "Ġqu": 566,
      "Ġusing": 567,
      "of": 568,
      "ork": 569,
      "ail": 570,
      "ange": 571,
      "ations": 572,
      "ang": 573,
      "Ġprint": 574,
      "Ġwas": 575,
      "ne": 576,
      "ĠCreate": 577,
      "Ġnew": 578,
      "ress": 579,
      "Ġgiven": 580,
      "()": 581,
      "rou": 582,
      "ip": 583,
      "text": 584,
      "ack": 585,
      "ĠThis": 586,
      "ard": 587,
      "gram": 588,
      "cript": 589,
      "',": 590,
      "os": 591,
      "Ġword": 592,
      "Ġnumber": 593,
      "Ġstring": 594,
      "Ġem": 595,
      "ook": 596,
      "ize": 597,
      "Ġout": 598,
      "Ġval": 599,
      "reat": 600,
      "ans": 601,
      "get": 602,
      "so": 603,
      "ĠĠĠĠĠĠĠĠĠĠĠĠ": 604,
      "ternal": 605,
      "ep": 606,
      "ific": 607,
      "Ġinclu": 608,
      "ich": 609,
      "Ġspe": 610,
      "ace": 611,
      "ap": 612,
      "ions": 613,
      "Ġfe": 614,
      "tr": 615,
      "Ġexternal": 616,
      "ther": 617,
      "Ġnot": 618,
      "ous": 619,
      "Ġtw": 620,
      "Ġhas": 621,
      "Ġprogram": 622,
      "ud": 623,
      "Ġdis": 624,
      "Ġfollowing": 625,
      "ac": 626,
      "Ġsc": 627,
      "one": 628,
      "Ġall": 629,
      "Ġk": 630,
      "Ġtr": 631,
      "ound": 632,
      "Ġdes": 633,
      "rite": 634,
      "bers": 635,
      "Ġro": 636,
      "Ġthem": 637,
      "duct": 638,
      "Ġcomp": 639,
      "les": 640,
      "Ġ//": 641,
      "Ġsent": 642,
      "ated": 643,
      "Ġtra": 644,
      "cul": 645,
      "âĢ": 646,
      "Ġclass": 647,
      "Ġwhe": 648,
      "ear": 649,
      "ject": 650,
      "ory": 651,
      "enerate": 652,
      "Ġshould": 653,
      "Ġadd": 654,
      "odel": 655,
      "Ġsuch": 656,
      "ong": 657,
      "eng": 658,
      "ample": 659,
      "ĠĠĠĠĠĠĠĠĠ": 660,
      "Ġwhich": 661,
      "Ġcol": 662,
      "Ġun": 663,
      "iff": 664,
      "gh": 665,
      "Ġrequ": 666,
      "Ġtwo": 667,
      "Ġarray": 668,
      "Ġ$": 669,
      "ustom": 670,
      "yth": 671,
      "Ġele": 672,
      "alcul": 673,
      "ual": 674,
      "ark": 675,
      "Ġeach": 676,
      "ree": 677,
      "Ġinto": 678,
      "con": 679,
      "Ġper": 680,
      "ments": 681,
      "est": 682,
      "Ġwill": 683,
      "Ġform": 684,
      "we": 685,
      "ors": 686,
      "Ġup": 687,
      "Ġ10": 688,
      "Ġra": 689,
      "Ġtime": 690,
      "Ġrec": 691,
      "Ġprovide": 692,
      "word": 693,
      "Ġchar": 694,
      "Ġcomm": 695,
      "lf": 696,
      "Ġarr": 697,
      "(\"": 698,
      "ased": 699,
      "Ġ*": 700,
      "Ġdiff": 701,
      "Ġfind": 702,
      "ph": 703,
      "Ġev": 704,
      "Ġlet": 705,
      "cess": 706,
      "Ġresult": 707,
      "Ġmore": 708,
      "ding": 709,
      "Ġset": 710,
      "ates": 711,
      "ĠHere": 712,
      "Ġits": 713,
      "ire": 714,
      "ĠIt": 715,
      "Ġhow": 716,
      "Ġsp": 717,
      "Ġneed": 718,
      "Ġ6": 719,
      "ify": 720,
      "arr": 721,
      "Ġother": 722,
      "Ġspec": 723,
      "Ġmodel": 724,
      "num": 725,
      "Ġalso": 726,
      "ari": 727,
      "ery": 728,
      "Ġ{\"": 729,
      "</": 730,
      "Ġabout": 731,
      "ove": 732,
      "Ġsum": 733,
      "ning": 734,
      "Ġman": 735,
      "=\"": 736,
      "ov": 737,
      "Ġcreate": 738,
      "dd": 739,
      "Ġone": 740,
      "Ġname": 741,
      "ens": 742,
      "ython": 743,
      "__": 744,
      "Ġover": 745,
      "Ġcustom": 746,
      "gor": 747,
      "Ġthey": 748,
      "ĠHow": 749,
      "ike": 750,
      "Ġsentence": 751,
      "Ġx": 752,
      "Ġbet": 753,
      "irst": 754,
      "Ġnumbers": 755,
      "Ġgo": 756,
      "ys": 757,
      "Ġ``": 758,
      "arch": 759,
      "ake": 760,
      "Ġ<|": 761,
      "Ġ==": 762,
      "Ġdet": 763,
      "ating": 764,
      "endof": 765,
      "Ġbut": 766,
      "Ġ```": 767,
      "endoftext": 768,
      "|>": 769,
      "Ġ</": 770,
      "ally": 771,
      "com": 772,
      "Ġpre": 773,
      "Ġwork": 774,
      "))": 775,
      "Ġ8": 776,
      "ĠCan": 777,
      "ength": 778,
      "Ġdo": 779,
      "Ġty": 780,
      "Ġinte": 781,
      "Ġtext": 782,
      "ss": 783,
      "('": 784,
      "ĠWrite": 785,
      "Ġexp": 786,
      "Ġproduct": 787,
      "Ġeff": 788,
      "Ġdiffere": 789,
      "ient": 790,
      "Ġused": 791,
      "Ġpub": 792,
      "erson": 793,
      "velo": 794,
      "Ġke": 795,
      "Ġuser": 796,
      "alculate": 797,
      "ia": 798,
      "ON": 799,
      "its": 800,
      "erv": 801,
      "der": 802,
      "Ġapplic": 803,
      "led": 804,
      "Ġmy": 805,
      "row": 806,
      "ater": 807,
      "tring": 808,
      "ures": 809,
      "ry": 810,
      "ask": 811,
      "ays": 812,
      "Ġinput": 813,
      "chn": 814,
      "Ġph": 815,
      "Ġ7": 816,
      "own": 817,
      "Ġrange": 818,
      "ava": 819,
      "orld": 820,
      "ities": 821,
      "rough": 822,
      "ĠRe": 823,
      "to": 824,
      "Ġany": 825,
      "velop": 826,
      "Ġel": 827,
      "Ġpublic": 828,
      "Ġsome": 829,
      "Ġher": 830,
      "iqu": 831,
      "igh": 832,
      "Ġinform": 833,
      "ĠĠĠĠĠĠ": 834,
      "erm": 835,
      "Ġam": 836,
      "ility": 837,
      "Ġconst": 838,
      "ick": 839,
      "Ġpe": 840,
      "ĠTo": 841,
      "string": 842,
      "Ġmet": 843,
      "gest": 844,
      "Ġcur": 845,
      "Ġwho": 846,
      "Ġtable": 847,
      "Ġco": 848,
      "ĠSt": 849,
      "Ġlike": 850,
      "iew": 851,
      "Ġvari": 852,
      "ics": 853,
      "ithm": 854,
      "Ġthrough": 855,
      "ative": 856,
      "ĠWh": 857,
      "ience": 858,
      "bs": 859,
      "sed": 860,
      "ower": 861,
      "Ġcharact": 862,
      "Ġmake": 863,
      "list": 864,
      "Ġid": 865,
      "ween": 866,
      "pr": 867,
      "Ġmax": 868,
      "ĠV": 869,
      "bject": 870,
      "Ġtechn": 871,
      "ĠPython": 872,
      "Ġexample": 873,
      "des": 874,
      "Ġcount": 875,
      "Ġdi": 876,
      "tra": 877,
      "Ġbetween": 878,
      "Ġwords": 879,
      "Ġmin": 880,
      "Ġcons": 881,
      "Ġwould": 882,
      "Ġ20": 883,
      "gorithm": 884,
      "Ġsol": 885,
      "ns": 886,
      "Ġwhile": 887,
      "ps": 888,
      "Ġanal": 889,
      "ndom": 890,
      "ĠCon": 891,
      "po": 892,
      "itle": 893,
      "Ġfirst": 894,
      "Ġget": 895,
      "olog": 896,
      "--------": 897,
      "ĠAdd": 898,
      "redi": 899,
      "div": 900,
      "ef": 901,
      "ert": 902,
      "Ġinformation": 903,
      "vel": 904,
      "enc": 905,
      "ax": 906,
      "ices": 907,
      "ble": 908,
      "Ġalgorithm": 909,
      "],": 910,
      "ĠUse": 911,
      "ish": 912,
      "Ġsm": 913,
      "Ġvalue": 914,
      "rit": 915,
      "ings": 916,
      "++": 917,
      "struct": 918,
      "als": 919,
      "alth": 920,
      "ues": 921,
      "Ġsystem": 922,
      "Ġso": 923,
      "Ġperson": 924,
      "Ġcould": 925,
      "Ġrep": 926,
      "Ġche": 927,
      "Ġpart": 928,
      "ular": 929,
      "Ġlear": 930,
      "ath": 931,
      "Ġsk": 932,
      "ĠJava": 933,
      "Ġdec": 934,
      "Ġdat": 935,
      "angu": 936,
      "CT": 937,
      "ature": 938,
      "king": 939,
      "ired": 940,
      "Ġdifferent": 941,
      "Ġexper": 942,
      "ential": 943,
      "app": 944,
      "lect": 945,
      "erg": 946,
      "Ġ`": 947,
      "Ġprocess": 948,
      "ural": 949,
      "Ġend": 950,
      "ren": 951,
      "Ġour": 952,
      "ell": 953,
      "ible": 954,
      "âĢĻ": 955,
      "Ġrel": 956,
      "rent": 957,
      "oth": 958,
      "cription": 959,
      "lease": 960,
      "au": 961,
      "nder": 962,
      "Ġ9": 963,
      "line": 964,
      "Ġcreat": 965,
      "Ġitem": 966,
      "Ġfl": 967,
      "ĠCh": 968,
      "Ġinclude": 969,
      "Ġrem": 970,
      "Ġact": 971,
      "ĠGenerate": 972,
      "Ġinter": 973,
      "Ġmed": 974,
      "Ġtrans": 975,
      "Ġshe": 976,
      "ob": 977,
      "Ġtak": 978,
      "ution": 979,
      "Ġkn": 980,
      "Ġprovid": 981,
      "Ġstud": 982,
      "Ġhis": 983,
      "Ġhad": 984,
      "val": 985,
      "ody": 986,
      "ized": 987,
      "Ġoff": 988,
      "Ġart": 989,
      "Ġsort": 990,
      "anguage": 991,
      "ĠPro": 992,
      "arg": 993,
      "ild": 994,
      "Ġkey": 995,
      "ages": 996,
      "ĠK": 997,
      "Ġbased": 998,
      "Ġmost": 999,
      "ĠĠĠĠĠĠĠĠĠĠĠĠĠĠĠĠ": 1000,
      "Ġstart": 1001,
      "data": 1002,
      "ex": 1003,
      "Ġmark": 1004,
      "Ġtype": 1005,
      "==": 1006,
      "Ġmat": 1007,
      "Ġwhere": 1008,
      "Ġspecific": 1009,
      "Ġself": 1010,
      "Ġhigh": 1011,
      "hes": 1012,
      "Ġhealth": 1013,
      "Ġ>": 1014,
      "Ġdevelop": 1015,
      "Ġelse": 1016,
      "Ġopt": 1017,
      "anc": 1018,
      "ĠWhat": 1019,
      "resent": 1020,
      "gan": 1021,
      "Ġrandom": 1022,
      "Ġtask": 1023,
      "),": 1024,
      "Ġequ": 1025,
      "ci": 1026,
      "NT": 1027,
      "Ġcomple": 1028,
      "ĠEx": 1029,
      "Ġreg": 1030,
      "ife": 1031,
      "plo": 1032,
      "ctions": 1033,
      "ĠDes": 1034,
      ".\"": 1035,
      "pro": 1036,
      "Ġserv": 1037,
      "Ġthere": 1038,
      "par": 1039,
      "duc": 1040,
      "Ġcor": 1041,
      "Ġincluding": 1042,
      "Ġthese": 1043,
      "iness": 1044,
      "Ġcustomer": 1045,
      "Ġbeen": 1046,
      "Ġwhen": 1047,
      "Ġthan": 1048,
      "Ġ=>": 1049,
      "The": 1050,
      "Ġyear": 1051,
      "ique": 1052,
      "ting": 1053,
      "Ġbu": 1054,
      "Ġworld": 1055,
      "oh": 1056,
      "Ġway": 1057,
      ").": 1058,
      "ink": 1059,
      "Ġgenerate": 1060,
      "Ġloc": 1061,
      "Ġdesign": 1062,
      "Ġsub": 1063,
      "Ġvis": 1064,
      "':": 1065,
      "ople": 1066,
      "pport": 1067,
      "self": 1068,
      "Ġwhat": 1069,
      "Ġcontain": 1070,
      "Ġcurrent": 1071,
      "up": 1072,
      "Ġsim": 1073,
      "Ġmain": 1074,
      "ten": 1075,
      "Ġtem": 1076,
      "uring": 1077,
      "ĠHe": 1078,
      "Ġinv": 1079,
      "nce": 1080,
      "ness": 1081,
      "Ġlanguage": 1082,
      "ML": 1083,
      "op": 1084,
      "li": 1085,
      "ploy": 1086,
      "be": 1087,
      "ily": 1088,
      "Ġsign": 1089,
      "uments": 1090,
      "ull": 1091,
      "ĠNot": 1092,
      "hod": 1093,
      "oid": 1094,
      "ense": 1095,
      "td": 1096,
      "Ġcalculate": 1097,
      "QL": 1098,
      "Ġorder": 1099,
      "Ġstep": 1100,
      "])": 1101,
      "ars": 1102,
      "tal": 1103,
      "Ġwell": 1104,
      "Ġunder": 1105,
      "ergy": 1106,
      "ines": 1107,
      "ym": 1108,
      "ft": 1109,
      "Ġeffect": 1110,
      "Ġaut": 1111,
      "any": 1112,
      "Ġpass": 1113,
      "ml": 1114,
      "ru": 1115,
      "vert": 1116,
      "Ġhand": 1117,
      "Ġplay": 1118,
      "ĠAn": 1119,
      "yz": 1120,
      "entify": 1121,
      "Ġbus": 1122,
      "Ġrequired": 1123,
      "String": 1124,
      "Ġsoc": 1125,
      "ĠAs": 1126,
      "ec": 1127,
      "Ġimpro": 1128,
      "ĠAddition": 1129,
      "pect": 1130,
      "ology": 1131,
      "Ġmarket": 1132,
      "];": 1133,
      "Ġpeople": 1134,
      "Ġsal": 1135,
      "Ġread": 1136,
      "iss": 1137,
      "ER": 1138,
      "Ġlearning": 1139,
      "ĠWe": 1140,
      "ĠAdditionally": 1141,
      "length": 1142,
      "raph": 1143,
      "itive": 1144,
      "000": 1145,
      "Ġmay": 1146,
      "Ġpos": 1147,
      "ĠCom": 1148,
      "Ġincre": 1149,
      "Ġmult": 1150,
      "dex": 1151,
      "ĠFor": 1152,
      "count": 1153,
      "20": 1154,
      "Ġobject": 1155,
      "Ġappro": 1156,
      "Ġallow": 1157,
      "SS": 1158,
      "10": 1159,
      "Ġve": 1160,
      "lear": 1161,
      "Ġever": 1162,
      "Ġ+=": 1163,
      "read": 1164,
      "Ġthree": 1165,
      "ables": 1166,
      "Ġmethod": 1167,
      "Ġelements": 1168,
      "low": 1169,
      "Ġimpact": 1170,
      "ccess": 1171,
      "ateg": 1172,
      "call": 1173,
      "Ġenergy": 1174,
      "ohn": 1175,
      "Ġbook": 1176,
      "Ġfact": 1177,
      "Ġpat": 1178,
      "Ġpot": 1179,
      "Ġtotal": 1180,
      "LE": 1181,
      "Ġstat": 1182,
      "Ġent": 1183,
      "Ġcommun": 1184,
      "')": 1185,
      "ives": 1186,
      "description": 1187,
      "old": 1188,
      "Ġperform": 1189,
      "Ġ%": 1190,
      "Ġeng": 1191,
      "Ġadv": 1192,
      "Ġquery": 1193,
      "ield": 1194,
      "ality": 1195,
      "riend": 1196,
      "Ġcharacter": 1197,
      "ner": 1198,
      "plement": 1199,
      "work": 1200,
      "let": 1201,
      "atures": 1202,
      "search": 1203,
      "Ġoutput": 1204,
      "duce": 1205,
      "ty": 1206,
      "log": 1207,
      "cept": 1208,
      "hed": 1209,
      "Ġpa": 1210,
      "Ġlar": 1211,
      "dition": 1212,
      "Ġpop": 1213,
      "Ġsa": 1214,
      "ood": 1215,
      "Ġpar": 1216,
      "Ġstore": 1217,
      "Ġwater": 1218,
      "Ġtop": 1219,
      "Ġapplicable": 1220,
      "Ġref": 1221,
      "\")": 1222,
      "Ġelement": 1223,
      "ency": 1224,
      "Ġthen": 1225,
      "input": 1226,
      "ifi": 1227,
      "Ġmod": 1228,
      "Ġonly": 1229,
      "di": 1230,
      "Ġav": 1231,
      "Ġbusiness": 1232,
      "ious": 1233,
      "play": 1234,
      "hip": 1235,
      "Ġwant": 1236,
      "();": 1237,
      "Ġac": 1238,
      "Ġgener": 1239,
      "Ġback": 1240,
      "title": 1241,
      "els": 1242,
      "ton": 1243,
      "ian": 1244,
      "ited": 1245,
      "Ġday": 1246,
      "Ġcar": 1247,
      "mat": 1248,
      "ware": 1249,
      "cho": 1250,
      "fore": 1251,
      "ix": 1252,
      "Ġsur": 1253,
      "Ġlife": 1254,
      "Ġfil": 1255,
      "abase": 1256,
      "ĠOne": 1257,
      "iron": 1258,
      "function": 1259,
      "ather": 1260,
      "Ġwere": 1261,
      "ument": 1262,
      "ves": 1263,
      "Ġfin": 1264,
      "Ġsearch": 1265,
      "Ġcomput": 1266,
      "Ġactiv": 1267,
      "essage": 1268,
      "inc": 1269,
      "arm": 1270,
      "\"}": 1271,
      "aut": 1272,
      "ew": 1273,
      "head": 1274,
      "Ġunique": 1275,
      "oft": 1276,
      "ically": 1277,
      "\">": 1278,
      "Ġbl": 1279,
      "Ġstate": 1280,
      "Ġpoint": 1281,
      "Ġplan": 1282,
      "cus": 1283,
      "Ġgrou": 1284,
      "ĠâĢ": 1285,
      "Ġcheck": 1286,
      "Ġmov": 1287,
      "date": 1288,
      "ĠString": 1289,
      "Ġins": 1290,
      "Ġtakes": 1291,
      "Ġatt": 1292,
      "[]": 1293,
      "err": 1294,
      "Ġag": 1295,
      "ĠDe": 1296,
      "SE": 1297,
      "ream": 1298,
      "ger": 1299,
      "arget": 1300,
      "TML": 1301,
      "Ġens": 1302,
      "Ġlen": 1303,
      "set": 1304,
      "ĠSQL": 1305,
      "Ġformat": 1306,
      "ĠEn": 1307,
      "imate": 1308,
      "RO": 1309,
      "ric": 1310,
      "Ġtake": 1311,
      "son": 1312,
      "ĠĠĠĠĠĠĠĠĠĠĠĠĠ": 1313,
      "ploye": 1314,
      "'t": 1315,
      "Ġstory": 1316,
      "Ġemail": 1317,
      "ract": 1318,
      "yle": 1319,
      "port": 1320,
      "mer": 1321,
      "Ġposs": 1322,
      "cond": 1323,
      "ont": 1324,
      "ional": 1325,
      "Ġboth": 1326,
      "++)": 1327,
      "viron": 1328,
      "ames": 1329,
      "ization": 1330,
      "Ġpage": 1331,
      "ĠSure": 1332,
      "Ġgreat": 1333,
      "ability": 1334,
      "Ġbr": 1335,
      "but": 1336,
      "ever": 1337,
      "ences": 1338,
      "Ġlead": 1339,
      "cur": 1340,
      "Ġmust": 1341,
      "Ġprom": 1342,
      "idual": 1343,
      "Ġdiv": 1344,
      "stand": 1345,
      "ending": 1346,
      "Ġcommon": 1347,
      "ving": 1348,
      "Ġeven": 1349,
      "Ġpur": 1350,
      "Ġbo": 1351,
      "wn": 1352,
      "ĠX": 1353,
      "Script": 1354,
      "Ġrev": 1355,
      "Ġusers": 1356,
      "ources": 1357,
      "Ġage": 1358,
      "Ġhum": 1359,
      "rest": 1360,
      "ression": 1361,
      "ider": 1362,
      "ĠIf": 1363,
      "Ġtrain": 1364,
      "Ġlength": 1365,
      "Ġindiv": 1366,
      "**": 1367,
      "ĠAI": 1368,
      "Ġdep": 1369,
      "Ġvalues": 1370,
      "Ġweb": 1371,
      "Ġeas": 1372,
      "ES": 1373,
      "alse": 1374,
      "Ġindividual": 1375,
      "Ġsignific": 1376,
      "ety": 1377,
      "Ġlong": 1378,
      "Ġwebs": 1379,
      "\".": 1380,
      "Ġstruct": 1381,
      "Ġsocial": 1382,
      "ext": 1383,
      "reak": 1384,
      "Ġcost": 1385,
      "ash": 1386,
      "Ġinst": 1387,
      "Ġmon": 1388,
      "Ġdist": 1389,
      "new": 1390,
      "vent": 1391,
      "vironment": 1392,
      "12": 1393,
      "ĠHTML": 1394,
      "item": 1395,
      "ĠJavaScript": 1396,
      "Ġdatabase": 1397,
      "arguments": 1398,
      "Ġ12": 1399,
      "ysis": 1400,
      "Ġexpl": 1401,
      "Ġmulti": 1402,
      "sc": 1403,
      "ases": 1404,
      "Ġfound": 1405,
      "requ": 1406,
      "ling": 1407,
      "acc": 1408,
      "ols": 1409,
      "Ġchall": 1410,
      "ĠUs": 1411,
      "{\"": 1412,
      "amet": 1413,
      "por": 1414,
      "ples": 1415,
      "hor": 1416,
      "ĠPlease": 1417,
      "Ġexperience": 1418,
      "Ġsug": 1419,
      "Ġpotential": 1420,
      "ram": 1421,
      "add": 1422,
      "Ġpersonal": 1423,
      "Ġcal": 1424,
      "Ġidentify": 1425,
      "sole": 1426,
      "ward": 1427,
      "Ġhere": 1428,
      "Ġpower": 1429,
      "Ġright": 1430,
      "hen": 1431,
      "atural": 1432,
      "ication": 1433,
      "lude": 1434,
      "ose": 1435,
      "Ġfam": 1436,
      "IST": 1437,
      "Ġ:": 1438,
      "Ġcontent": 1439,
      "apt": 1440,
      "Ġimplement": 1441,
      "Ġgu": 1442,
      "Ġgra": 1443,
      "Ġimprove": 1444,
      "Ġtyp": 1445,
      "Ġlevel": 1446,
      "Ġinf": 1447,
      "imum": 1448,
      "Ġsmall": 1449,
      "Ġcharacters": 1450,
      "Ġmem": 1451,
      "Ġdeterm": 1452,
      "Ġbec": 1453,
      "Ġapplication": 1454,
      "Ġanalyz": 1455,
      "ise": 1456,
      "Ġtest": 1457,
      "Ġknow": 1458,
      "Ġlook": 1459,
      "Ġrequire": 1460,
      "ins": 1461,
      "gg": 1462,
      "Ġfeatures": 1463,
      "Ġorgan": 1464,
      "other": 1465,
      "Ġcolor": 1466,
      "ĠThey": 1467,
      "Ġvarious": 1468,
      "Ġ15": 1469,
      "ock": 1470,
      "ants": 1471,
      "Ġprof": 1472,
      "ĠAr": 1473,
      "oy": 1474,
      "imal": 1475,
      "ational": 1476,
      "Ġsuccess": 1477,
      "Ġarg": 1478,
      "Ġline": 1479,
      "ibr": 1480,
      "Ġ19": 1481,
      "Ġ\"\"": 1482,
      "In": 1483,
      "day": 1484,
      "reen": 1485,
      "Ġinvol": 1486,
      "Ġpredi": 1487,
      "Ġsupport": 1488,
      "Ġenvironment": 1489,
      "verage": 1490,
      "..": 1491,
      "Ġshow": 1492,
      "html": 1493,
      "body": 1494,
      "ĠShe": 1495,
      "Ġfood": 1496,
      "Ġhead": 1497,
      "ved": 1498,
      "Ġser": 1499,
      "Ġtechnology": 1500,
      "Ġvoid": 1501,
      "Ġcustomers": 1502,
      "ANT": 1503,
      "test": 1504,
      "Ġess": 1505,
      "ons": 1506,
      "ĠUn": 1507,
      "Ġmach": 1508,
      "tract": 1509,
      "LECT": 1510,
      "Ġgrow": 1511,
      "fter": 1512,
      "blem": 1513,
      "ĠIm": 1514,
      "Ġcompany": 1515,
      "Ġben": 1516,
      "Ġmany": 1517,
      "Ġcolum": 1518,
      "ĠHowever": 1519,
      "Ġwrit": 1520,
      "ator": 1521,
      "Ġfeel": 1522,
      "Ġanalysis": 1523,
      "bin": 1524,
      "ĠThere": 1525,
      "Ġeffic": 1526,
      "ital": 1527,
      "words": 1528,
      "iment": 1529,
      "Ġitems": 1530,
      "Ġwebsite": 1531,
      "ĠASS": 1532,
      "Ġunderstand": 1533,
      "array": 1534,
      "][": 1535,
      "ĠASSIST": 1536,
      "ĠASSISTANT": 1537,
      "aset": 1538,
      "plit": 1539,
      "ĠSE": 1540,
      "Ġdown": 1541,
      "Ġsn": 1542,
      "ROM": 1543,
      "ello": 1544,
      "Ġteam": 1545,
      "Ġhist": 1546,
      "ipp": 1547,
      "ĠFROM": 1548,
      "Ġlight": 1549,
      "'}": 1550,
      "abel": 1551,
      "Ġoper": 1552,
      "print": 1553,
      "lass": 1554,
      "append": 1555,
      "ION": 1556,
      "Ġtri": 1557,
      "AT": 1558,
      "//": 1559,
      "Ġtarget": 1560,
      "ĠTr": 1561,
      "AR": 1562,
      "Ġop": 1563,
      "Ġproducts": 1564,
      "Ġunt": 1565,
      "omet": 1566,
      "Ġsecond": 1567,
      "ote": 1568,
      "co": 1569,
      "ift": 1570,
      "St": 1571,
      "Ġmade": 1572,
      "quence": 1573,
      "imes": 1574,
      "Ġmaking": 1575,
      "Ġ[\"": 1576,
      "Ġimportant": 1577,
      "Ġ100": 1578,
      "List": 1579,
      "ven": 1580,
      "ause": 1581,
      "Ġenc": 1582,
      "Ġdisplay": 1583,
      "Ġpol": 1584,
      "Ġbeing": 1585,
      "ank": 1586,
      "chie": 1587,
      "Ġfield": 1588,
      "hing": 1589,
      "yn": 1590,
      "Ġrequest": 1591,
      "len": 1592,
      "Ġevery": 1593,
      "Ġpossible": 1594,
      "ets": 1595,
      "redients": 1596,
      "SON": 1597,
      "Ġproblem": 1598,
      "Ġbra": 1599,
      "ĠSc": 1600,
      "ape": 1601,
      "cribe": 1602,
      "zz": 1603,
      "ctor": 1604,
      "ret": 1605,
      "rect": 1606,
      "Ġdoc": 1607,
      "Ġmus": 1608,
      "ĠDesign": 1609,
      "Ġprice": 1610,
      "etwork": 1611,
      "Ġreduce": 1612,
      "Ġ<<": 1613,
      "pper": 1614,
      "sh": 1615,
      "Ġsignificant": 1616,
      "Ġ[]": 1617,
      "Ġfile": 1618,
      "['": 1619,
      "Ġterm": 1620,
      "py": 1621,
      "Ġlog": 1622,
      "ĠName": 1623,
      "Ġuntil": 1624,
      "Ġmean": 1625,
      "';": 1626,
      "Ġsoft": 1627,
      "Ġbenef": 1628,
      "ght": 1629,
      "Ġarea": 1630,
      "Ġstatic": 1631,
      "Ġ**": 1632,
      "time": 1633,
      "Name": 1634,
      "Ġfriend": 1635,
      "ified": 1636,
      "Ġsize": 1637,
      "Ġachie": 1638,
      "Ġbreak": 1639,
      "sum": 1640,
      "Ġamount": 1641,
      "by": 1642,
      "Ġcomplex": 1643,
      "ming": 1644,
      "Ġlast": 1645,
      "Ġlarge": 1646,
      "icle": 1647,
      "ale": 1648,
      "verse": 1649,
      "CTION": 1650,
      "Ġpattern": 1651,
      "ouse": 1652,
      "light": 1653,
      "ills": 1654,
      "Ġdig": 1655,
      "Ġcap": 1656,
      "Ġreal": 1657,
      "ails": 1658,
      "ĠApp": 1659,
      "Ġconsole": 1660,
      "Ġyears": 1661,
      "Ġensure": 1662,
      "Ġconf": 1663,
      "Ġbeh": 1664,
      "Ġbest": 1665,
      "ek": 1666,
      "ism": 1667,
      "atch": 1668,
      "Ġcent": 1669,
      "ivity": 1670,
      "ird": 1671,
      "pa": 1672,
      "Ġnatural": 1673,
      "iving": 1674,
      "ertain": 1675,
      "Ġexam": 1676,
      "Ġrepresent": 1677,
      "Ġaround": 1678,
      "ĠSELECT": 1679,
      "Ġproject": 1680,
      "omm": 1681,
      "Ġdev": 1682,
      "ries": 1683,
      "io": 1684,
      "nect": 1685,
      "Ġchange": 1686,
      "rix": 1687,
      "ough": 1688,
      "Ġtre": 1689,
      "iver": 1690,
      "itu": 1691,
      "ulation": 1692,
      "Ġmachine": 1693,
      "Ġstrateg": 1694,
      "Ġaddress": 1695,
      "Ġmedia": 1696,
      "ute": 1697,
      "oun": 1698,
      "Ġplace": 1699,
      "dustr": 1700,
      "Ġaddition": 1701,
      "ula": 1702,
      "Ġsever": 1703,
      "ele": 1704,
      "Ġeffective": 1705,
      "place": 1706,
      "']": 1707,
      "UN": 1708,
      "Ġpartic": 1709,
      "ption": 1710,
      "Ġgood": 1711,
      "Ġtemper": 1712,
      "ĠOut": 1713,
      "Ġemploye": 1714,
      "Ġide": 1715,
      "lean": 1716,
      "Ġindustr": 1717,
      "orpor": 1718,
      "Ġdataset": 1719,
      "ision": 1720,
      "oice": 1721,
      "Ġjust": 1722,
      "Ġdem": 1723,
      "aw": 1724,
      "ĠEm": 1725,
      "Ġstrings": 1726,
      "wer": 1727,
      "Ġquest": 1728,
      "Hello": 1729,
      "Ġoften": 1730,
      "Ġchang": 1731,
      "Ġcalcul": 1732,
      "Ch": 1733,
      "Ġcook": 1734,
      "Ġpract": 1735,
      "agement": 1736,
      "acy": 1737,
      "ĠJSON": 1738,
      "Ġphys": 1739,
      "Ġstructure": 1740,
      "Ġdevelopment": 1741,
      "AB": 1742,
      "Ġ.": 1743,
      "ah": 1744,
      "Ġcult": 1745,
      "include": 1746,
      "rehe": 1747,
      "Ġpresent": 1748,
      "aging": 1749,
      "Ġsteps": 1750,
      "Ġaccur": 1751,
      "Ġreturns": 1752,
      "Ġmessage": 1753,
      "Ġcity": 1754,
      "Ġwithin": 1755,
      "Ġpost": 1756,
      "Ġinterest": 1757,
      "train": 1758,
      "Ġrow": 1759,
      "Ġavail": 1760,
      "Ar": 1761,
      "umber": 1762,
      "Ġprovided": 1763,
      "Ġvisual": 1764,
      "gers": 1765,
      "Ġrespon": 1766,
      "Ġlibr": 1767,
      "Ġrun": 1768,
      "Ġown": 1769,
      "ording": 1770,
      "Ġbefore": 1771,
      "Ġtrue": 1772,
      "50": 1773,
      "ĠFUN": 1774,
      "char": 1775,
      "ESP": 1776,
      "conom": 1777,
      "ĠFUNCTION": 1778,
      "Ġseveral": 1779,
      "Ġsame": 1780,
      "ĠGiven": 1781,
      "Ġ&": 1782,
      "Ġpositive": 1783,
      "ters": 1784,
      "ONSE": 1785,
      "Ġclear": 1786,
      "ESPONSE": 1787,
      "Ġaud": 1788,
      "='": 1789,
      "ĠRESPONSE": 1790,
      "Ġhome": 1791,
      "ĠDevelop": 1792,
      "ross": 1793,
      "Ġrele": 1794,
      "====": 1795,
      "PI": 1796,
      "functioncall": 1797,
      "\"]": 1798,
      "mit": 1799,
      "Ġfore": 1800,
      "ade": 1801,
      "ason": 1802,
      "ribut": 1803,
      "Ġindex": 1804,
      "ĠThese": 1805,
      "\";": 1806,
      "aterial": 1807,
      "Ġgame": 1808,
      "Ġsun": 1809,
      "Ġduring": 1810,
      "');": 1811,
      "Ġnetwork": 1812,
      "Ġsuggest": 1813,
      "Ġnext": 1814,
      "Ġoptim": 1815,
      "iques": 1816,
      "Ġ__": 1817,
      "Ġclo": 1818,
      "nces": 1819,
      "user": 1820,
      "Ġrest": 1821,
      "me": 1822,
      "Ġemot": 1823,
      "inary": 1824,
      "sort": 1825,
      "Ġtitle": 1826,
      "Ġtasks": 1827,
      "Ġdate": 1828,
      "utes": 1829,
      "ĠSe": 1830,
      "ibon": 1831,
      "acci": 1832,
      "ways": 1833,
      "Ġselect": 1834,
      "vest": 1835,
      "ibonacci": 1836,
      "bo": 1837,
      "aste": 1838,
      "Ġwithout": 1839,
      "Ġcr": 1840,
      "oop": 1841,
      "duction": 1842,
      "://": 1843,
      "Ġchalleng": 1844,
      "Ġprime": 1845,
      "und": 1846,
      "Ġproper": 1847,
      "col": 1848,
      "Ġdire": 1849,
      "Ġquick": 1850,
      "Ġcour": 1851,
      "Ġservice": 1852,
      "Ġstudents": 1853,
      "lish": 1854,
      "ond": 1855,
      "here": 1856,
      "ource": 1857,
      "Ġĉ": 1858,
      "less": 1859,
      "ug": 1860,
      "ĠĠĠĠĠĠĠ": 1861,
      "cent": 1862,
      "ĠBe": 1863,
      "Ġbuil": 1864,
      "util": 1865,
      "ĠAnd": 1866,
      "Ġleft": 1867,
      "Ġleast": 1868,
      "Ġanalyze": 1869,
      "IN": 1870,
      "lay": 1871,
      "aking": 1872,
      "iled": 1873,
      "Ġ});": 1874,
      "Ġtechniques": 1875,
      "Ġ},": 1876,
      "Ġgr": 1877,
      "Ġcase": 1878,
      "value": 1879,
      "Ġmarketing": 1880,
      "ern": 1881,
      "ameters": 1882,
      "Ġing": 1883,
      "Ġways": 1884,
      "izing": 1885,
      "Ġkeep": 1886,
      "ush": 1887,
      "Ġair": 1888,
      "Ġprote": 1889,
      "Ġchild": 1890,
      "az": 1891,
      "Ġ30": 1892,
      "Ġcorrect": 1893,
      "Ġstyle": 1894,
      "ĠNew": 1895,
      "itial": 1896,
      "Ġsoftware": 1897,
      "Ġhuman": 1898,
      "Ġscript": 1899,
      "ĠWorld": 1900,
      "Ġpassword": 1901,
      "Ġevent": 1902,
      "Ġresearch": 1903,
      "Ġbody": 1904,
      "Ġonline": 1905,
      "Ġformula": 1906,
      "Ġaverage": 1907,
      "Ġcare": 1908,
      "ser": 1909,
      "uzz": 1910,
      "Ġconvert": 1911,
      "Ġlove": 1912,
      "ouble": 1913,
      "gin": 1914,
      "Ġtoget": 1915,
      "number": 1916,
      "ĠJohn": 1917,
      "lection": 1918,
      "Ġtogether": 1919,
      "ave": 1920,
      "Ġgroup": 1921,
      "earch": 1922,
      "Ġresponse": 1923,
      "Ġknown": 1924,
      "Ġment": 1925,
      "cel": 1926,
      "br": 1927,
      "Ġcam": 1928,
      "Ġsorted": 1929,
      "action": 1930,
      "back": 1931,
      "ffect": 1932,
      "key": 1933,
      "Ġincludes": 1934,
      "isk": 1935,
      "idd": 1936,
      "Ġ11": 1937,
      "Ġsure": 1938,
      "ats": 1939,
      "Ġfive": 1940,
      "Ġ\"\"\"": 1941,
      "ĠYour": 1942,
      "ĠList": 1943,
      "Ġocc": 1944,
      "heck": 1945,
      "Ġsqu": 1946,
      "bal": 1947,
      "rie": 1948,
      "ead": 1949,
      "Ġnames": 1950,
      "ior": 1951,
      "Ġcreating": 1952,
      "Ġintegers": 1953,
      "Ġ!": 1954,
      "asing": 1955,
      "Ġroot": 1956,
      "Ġiss": 1957,
      "Ġmeas": 1958,
      "Ġwrite": 1959,
      "cise": 1960,
      "face": 1961,
      "Ġsee": 1962,
      "pos": 1963,
      "index": 1964,
      "\");": 1965,
      "Ġletter": 1966,
      "Ġear": 1967,
      "min": 1968,
      "ategor": 1969,
      "oose": 1970,
      "Ġdoes": 1971,
      "Ġsequence": 1972,
      "Ġbenefits": 1973,
      "igin": 1974,
      "Ġaccount": 1975,
      "Ġcontains": 1976,
      "Ġpie": 1977,
      "ken": 1978,
      "ogn": 1979,
      "ipe": 1980,
      "ĠOutput": 1981,
      "Ġreport": 1982,
      "Ġminutes": 1983,
      "Ġlay": 1984,
      "Ġfrequ": 1985,
      "pri": 1986,
      "Ġmaterial": 1987,
      "tem": 1988,
      "Ġhig": 1989,
      "Ġavailable": 1990,
      "Ġcomprehe": 1991,
      "Ġeconom": 1992,
      "Ġstand": 1993,
      "ully": 1994,
      "Ġtrack": 1995,
      "ĠAl": 1996,
      "aur": 1997,
      "Ġdetermine": 1998,
      "::": 1999,
      "Ġafter": 2000,
      "Ġcondition": 2001,
      "Ġmonth": 2002,
      "Ġdocument": 2003,
      "olution": 2004,
      "ffic": 2005,
      "Ġfamily": 2006,
      "Ġuses": 2007,
      "Ġincorpor": 2008,
      "ivate": 2009,
      "ongest": 2010,
      "ln": 2011,
      "Ġstatement": 2012,
      "ted": 2013,
      "label": 2014,
      "ender": 2015,
      "Ġz": 2016,
      "ists": 2017,
      "Ġ25": 2018,
      "ides": 2019,
      "pose": 2020,
      "size": 2021,
      "ilities": 2022,
      "cessary": 2023,
      "max": 2024,
      "htt": 2025,
      "Ġfactors": 2026,
      "vant": 2027,
      "Ġneeds": 2028,
      "price": 2029,
      "sub": 2030,
      "book": 2031,
      "rol": 2032,
      "Ġpast": 2033,
      "Ġlocation": 2034,
      "Ġmultiple": 2035,
      "Ġcup": 2036,
      "Ġland": 2037,
      "Ġrelations": 2038,
      "Ġelect": 2039,
      "ww": 2040,
      "Ġperformance": 2041,
      "ances": 2042,
      "Ġver": 2043,
      "ering": 2044,
      "ĠBut": 2045,
      "ined": 2046,
      "Ġsw": 2047,
      "cl": 2048,
      "Ġextract": 2049,
      "lling": 2050,
      "Ġsolve": 2051,
      "Ġconsider": 2052,
      "Ġbel": 2053,
      "result": 2054,
      "Ġcomprehens": 2055,
      "gative": 2056,
      "Ġskills": 2057,
      "cle": 2058,
      "Ġmove": 2059,
      "Ġdr": 2060,
      "opp": 2061,
      "Ġcomputer": 2062,
      "Ġopen": 2063,
      "Ġalways": 2064,
      "eras": 2065,
      "Ġtry": 2066,
      "Ġpref": 2067,
      "Ġerr": 2068,
      "ier": 2069,
      "ĠWith": 2070,
      "ĠPr": 2071,
      "Ġresults": 2072,
      "icult": 2073,
      "Ġrecomm": 2074,
      "Ġext": 2075,
      "Ġsym": 2076,
      "Ġtemperature": 2077,
      "Ġeduc": 2078,
      "ĠĠĠĠĠĠĠĠĠĠ": 2079,
      "Ġ'{\"": 2080,
      "Ġindividuals": 2081,
      "Ġvalid": 2082,
      "sp": 2083,
      "Ġincrease": 2084,
      "Ġhour": 2085,
      "Ġfocus": 2086,
      "Ġallows": 2087,
      "View": 2088,
      "tle": 2089,
      "Ġcontin": 2090,
      "for": 2091,
      "ĠSh": 2092,
      "'m": 2093,
      "atform": 2094,
      "Ġmu": 2095,
      "ponent": 2096,
      "rase": 2097,
      "John": 2098,
      "Ġmovie": 2099,
      "ĠInc": 2100,
      "Ġexamples": 2101,
      "assword": 2102,
      "tool": 2103,
      "19": 2104,
      "Ġpredict": 2105,
      "Ġjob": 2106,
      "Ġhapp": 2107,
      "={": 2108,
      "Ġwind": 2109,
      "Ġcombin": 2110,
      "ailed": 2111,
      "Ġblo": 2112,
      "Ġrecommend": 2113,
      "Ġplease": 2114,
      "ĠAPI": 2115,
      "Ġ};": 2116,
      "ĠQ": 2117,
      "25": 2118,
      "ĠUsing": 2119,
      "Ġlim": 2120,
      "Ġefficient": 2121,
      "air": 2122,
      "resh": 2123,
      "view": 2124,
      "ights": 2125,
      "ĠMy": 2126,
      "Ġable": 2127,
      "Ġsample": 2128,
      "Ġcall": 2129,
      "Ġlow": 2130,
      "Ġinvest": 2131,
      "Ġlearn": 2132,
      "ERE": 2133,
      "oad": 2134,
      "anced": 2135,
      "eting": 2136,
      "Ġrelationship": 2137,
      "Ġphysical": 2138,
      "ought": 2139,
      "tt": 2140,
      "cont": 2141,
      "Ġpopular": 2142,
      "split": 2143,
      "Ġexplo": 2144,
      "Ġpoints": 2145,
      "Ġingredients": 2146,
      "json": 2147,
      "ron": 2148,
      "ories": 2149,
      "Ġsystems": 2150,
      "Ġlit": 2151,
      "Ġsound": 2152,
      "type": 2153,
      "Ġless": 2154,
      "([": 2155,
      "Ġmaint": 2156,
      "Ġdetails": 2157,
      "Ġpack": 2158,
      "Ġtypes": 2159,
      "irt": 2160,
      "Ġfun": 2161,
      "ane": 2162,
      "curity": 2163,
      "Ġ<=": 2164,
      "Ġpuzz": 2165,
      "Ġshort": 2166,
      "mon": 2167,
      "ips": 2168,
      "Th": 2169,
      "oud": 2170,
      "ered": 2171,
      "Ġstd": 2172,
      "vers": 2173,
      "dit": 2174,
      "Ġmaximum": 2175,
      "Ġbetter": 2176,
      "Ġview": 2177,
      "case": 2178,
      "Ġcrit": 2179,
      "Ġdra": 2180,
      "avor": 2181,
      "ground": 2182,
      "Ġachieve": 2183,
      "Ġrespons": 2184,
      "15": 2185,
      "Ġmethods": 2186,
      "ict": 2187,
      "Ġaccording": 2188,
      "Ġ18": 2189,
      "fit": 2190,
      "Ġnecessary": 2191,
      "Ġob": 2192,
      "ĠOnce": 2193,
      "my": 2194,
      "Ġsnipp": 2195,
      "Ġbas": 2196,
      "Ġloop": 2197,
      "ograph": 2198,
      "Ġtree": 2199,
      "Ġ@": 2200,
      "Ġsomet": 2201,
      "Ġexperi": 2202,
      "ĠLet": 2203,
      "ok": 2204,
      "ĠYork": 2205,
      "ification": 2206,
      "numbers": 2207,
      "pare": 2208,
      "ĠDef": 2209,
      "Ġaction": 2210,
      "Ġservices": 2211,
      "Ġcomprehensive": 2212,
      "gle": 2213,
      "way": 2214,
      "----------------": 2215,
      "Ġremove": 2216,
      "Ġequation": 2217,
      "Ġheart": 2218,
      "Ġsolution": 2219,
      "lick": 2220,
      "Ġplatform": 2221,
      "Ġeasy": 2222,
      "alk": 2223,
      "sv": 2224,
      "Ġdel": 2225,
      "ium": 2226,
      "olum": 2227,
      "Ġbehav": 2228,
      "ination": 2229,
      "oss": 2230,
      "ĠPl": 2231,
      "Ġvar": 2232,
      "ĠWH": 2233,
      "angle": 2234,
      "Ġanim": 2235,
      "cial": 2236,
      "calculate": 2237,
      "Ġability": 2238,
      "Ġmusic": 2239,
      "Ġlate": 2240,
      "Ġsimple": 2241,
      "Ġfru": 2242,
      "px": 2243,
      "Ġsumm": 2244,
      "Ġoil": 2245,
      "Ġest": 2246,
      "Array": 2247,
      "Ġnode": 2248,
      "Ġbeaut": 2249,
      "Ġindustry": 2250,
      "abor": 2251,
      "âĢĿ": 2252,
      "ared": 2253,
      "ĠSte": 2254,
      "Ġsentiment": 2255,
      "idth": 2256,
      "uture": 2257,
      "ĠInd": 2258,
      "ducing": 2259,
      "Ġind": 2260,
      "fe": 2261,
      "ng": 2262,
      "bot": 2263,
      "ĠHi": 2264,
      "ĠYes": 2265,
      "Ġans": 2266,
      "45": 2267,
      "ĠEng": 2268,
      "Ġside": 2269,
      "example": 2270,
      "Ġfr": 2271,
      "Ġretrie": 2272,
      "Ġgen": 2273,
      "Ġaudience": 2274,
      "Ġsources": 2275,
      "oring": 2276,
      "Ġsnippet": 2277,
      "wards": 2278,
      "Ġpoem": 2279,
      "Ġspace": 2280,
      "ince": 2281,
      "Ġinvolves": 2282,
      "ĠâĢľ": 2283,
      "Ġrole": 2284,
      "random": 2285,
      "Ġtradition": 2286,
      "Ġresources": 2287,
      "ĠReact": 2288,
      "Ġgrowth": 2289,
      "med": 2290,
      "Ġconsum": 2291,
      "oe": 2292,
      "Ġpurch": 2293,
      "Ġnp": 2294,
      "llig": 2295,
      "ced": 2296,
      "Ġexpress": 2297,
      "icate": 2298,
      "Ġsing": 2299,
      "Ġposition": 2300,
      "Ġcalled": 2301,
      "LL": 2302,
      "Ġcommunication": 2303,
      "Ġprivate": 2304,
      "Ġenh": 2305,
      "Ġauthor": 2306,
      "Ġlibrary": 2307,
      "aces": 2308,
      "Ġrate": 2309,
      "ĠSw": 2310,
      "cuss": 2311,
      "Ġrecipe": 2312,
      "Ġarticle": 2313,
      "Ġrecord": 2314,
      "Ġhistory": 2315,
      "Ġ50": 2316,
      "Ġcourse": 2317,
      "Ġtimes": 2318,
      "izer": 2319,
      "---": 2320,
      "Ġhy": 2321,
      "ĠWHERE": 2322,
      "ĠProv": 2323,
      "Ġfac": 2324,
      "oura": 2325,
      "Ġanother": 2326,
      "Ġglo": 2327,
      "come": 2328,
      "Ġveget": 2329,
      "Ġhim": 2330,
      "istic": 2331,
      "over": 2332,
      "Ġdon": 2333,
      "Ġoverall": 2334,
      "Ġdetailed": 2335,
      "Ġwarm": 2336,
      "Ġprovides": 2337,
      ")):": 2338,
      "ibility": 2339,
      "},": 2340,
      "amed": 2341,
      "Ġoptions": 2342,
      "ĠTrue": 2343,
      "Ġagain": 2344,
      "Ġthose": 2345,
      "Ġevents": 2346,
      "Ġpuzzle": 2347,
      "Ġreview": 2348,
      "aining": 2349,
      "oes": 2350,
      "Ġapproach": 2351,
      "ually": 2352,
      "Ġcolumn": 2353,
      "aves": 2354,
      "Ġflo": 2355,
      "ĠFalse": 2356,
      "Ġessential": 2357,
      "Ġsecurity": 2358,
      "Ġbooks": 2359,
      "Ġsat": 2360,
      "Ġmil": 2361,
      "Ġprofess": 2362,
      "State": 2363,
      "Ġactivities": 2364,
      "ains": 2365,
      "Ġur": 2366,
      "ĠWhen": 2367,
      "Ġfriends": 2368,
      "table": 2369,
      "Ġmiss": 2370,
      "Ġtransport": 2371,
      "Ġinteger": 2372,
      "ĠFind": 2373,
      "Ġorigin": 2374,
      "Ġcommand": 2375,
      "Ġsales": 2376,
      "Text": 2377,
      "ĠNode": 2378,
      "Ġsec": 2379,
      "lt": 2380,
      "Ġlink": 2381,
      "println": 2382,
      "Ġgreen": 2383,
      "ivers": 2384,
      "ese": 2385,
      "Ġlongest": 2386,
      "Ġmeans": 2387,
      "Ġsche": 2388,
      "Ġstrong": 2389,
      "load": 2390,
      "ĠMake": 2391,
      "Ġsomething": 2392,
      "ately": 2393,
      "ived": 2394,
      "Ġprogramming": 2395,
      "cy": 2396,
      "Ġchallenges": 2397,
      "ĠAd": 2398,
      "ĠDescribe": 2399,
      "Ġbrand": 2400,
      "ctionary": 2401,
      "sent": 2402,
      "ney": 2403,
      "Ġfalse": 2404,
      "Ġmatrix": 2405,
      "ik": 2406,
      "Ġregular": 2407,
      "su": 2408,
      "Ġnon": 2409,
      "Ġfuture": 2410,
      "Ġcome": 2411,
      "Ġturn": 2412,
      "Ġdeep": 2413,
      "Ġtraining": 2414,
      "Ġmot": 2415,
      "ĠSp": 2416,
      ",\"": 2417,
      "Ġ!=": 2418,
      "Ġfour": 2419,
      "meric": 2420,
      "Ġexpression": 2421,
      "Ġclean": 2422,
      "ustomer": 2423,
      "pportun": 2424,
      "Ġbinary": 2425,
      "Ġtravel": 2426,
      "ising": 2427,
      "ĠFin": 2428,
      "Ġpres": 2429,
      "lex": 2430,
      "ategory": 2431,
      "joy": 2432,
      "req": 2433,
      "izes": 2434,
      "Ġfew": 2435,
      "Ġmind": 2436,
      "Ġbrow": 2437,
      "Ġpay": 2438,
      "Ġdouble": 2439,
      "Ġnegative": 2440,
      "Ġhandle": 2441,
      "ancial": 2442,
      "Ġweek": 2443,
      "ĠSet": 2444,
      "Ġrelevant": 2445,
      "Ġcontrol": 2446,
      "Ġchanges": 2447,
      "Ġdistance": 2448,
      "Number": 2449,
      "Ġsens": 2450,
      "Ġguide": 2451,
      "ining": 2452,
      "rop": 2453,
      "Ġconnect": 2454,
      "Ġnews": 2455,
      "Ġjour": 2456,
      "Ġ16": 2457,
      "():": 2458,
      "Ġemployees": 2459,
      "11": 2460,
      "Ġpopulation": 2461,
      "Ġoccur": 2462,
      "ilar": 2463,
      "avig": 2464,
      "Ġgoals": 2465,
      "Ġlevels": 2466,
      "ently": 2467,
      "chool": 2468,
      "Ġpatterns": 2469,
      "ĠExpl": 2470,
      "Ġmeaning": 2471,
      "model": 2472,
      "Ġcell": 2473,
      "oup": 2474,
      "Ġimage": 2475,
      "Ġmanagement": 2476,
      "bon": 2477,
      "($": 2478,
      "care": 2479,
      "Ġbegin": 2480,
      "Ġalgorithms": 2481,
      "Ġinteract": 2482,
      "order": 2483,
      "Ġproviding": 2484,
      "Ġbal": 2485,
      "Ġappropri": 2486,
      "fect": 2487,
      "urther": 2488,
      "ĠOn": 2489,
      "ĠOr": 2490,
      "isf": 2491,
      "Ġothers": 2492,
      "land": 2493,
      "Ġrisk": 2494,
      "Ġspecial": 2495,
      "icken": 2496,
      "Ġhard": 2497,
      "iety": 2498,
      "ĠId": 2499,
      "aint": 2500,
      "Ġmuch": 2501,
      "Ġlower": 2502,
      "osp": 2503,
      "iod": 2504,
      "Ġnight": 2505,
      "oney": 2506,
      "Ġinstruction": 2507,
      "Ġdirect": 2508,
      "Ġred": 2509,
      "Ġstock": 2510,
      "Int": 2511,
      "Ġquality": 2512,
      "Ġconcept": 2513,
      "Ġfeature": 2514,
      "ĠDefine": 2515,
      "Ġtemp": 2516,
      "email": 2517,
      "Ġopportun": 2518,
      "password": 2519,
      "Ġstudent": 2520,
      "Ġphrase": 2521,
      "Ġlargest": 2522,
      "Ġfast": 2523,
      "Ġlooking": 2524,
      "ĠĠĠĠĠĠĠĠĠĠĠĠĠĠĠĠĠ": 2525,
      "Ġvariable": 2526,
      "Ġbusinesses": 2527,
      "Ġutil": 2528,
      "icles": 2529,
      "ything": 2530,
      "Ġinflu": 2531,
      "Ġcontribut": 2532,
      "Ġwriting": 2533,
      "Ġpath": 2534,
      "Ġautom": 2535,
      "Ġ['": 2536,
      "Ġnamed": 2537,
      "Ġtools": 2538,
      "Ele": 2539,
      "ULL": 2540,
      "next": 2541,
      "aries": 2542,
      "orts": 2543,
      "Ġcomplete": 2544,
      "ĠProvide": 2545,
      "OT": 2546,
      "Ġcategor": 2547,
      "Ġnow": 2548,
      "Ġterms": 2549,
      "istics": 2550,
      "ĠSo": 2551,
      "Ġheat": 2552,
      "Pro": 2553,
      "csv": 2554,
      "Ġjo": 2555,
      "ech": 2556,
      "Ġlocal": 2557,
      "Ġgreater": 2558,
      "Data": 2559,
      "alle": 2560,
      "ches": 2561,
      "ished": 2562,
      "url": 2563,
      "Ġnut": 2564,
      "ts": 2565,
      "Ġbro": 2566,
      "lligence": 2567,
      "alind": 2568,
      "100": 2569,
      "Ġequal": 2570,
      "hest": 2571,
      "write": 2572,
      "aring": 2573,
      "Ġstudy": 2574,
      "Ġdid": 2575,
      "Ġsense": 2576,
      "Ġbehavior": 2577,
      "uby": 2578,
      "alindrom": 2579,
      "Ġmo": 2580,
      "Ġcolumns": 2581,
      "ones": 2582,
      "find": 2583,
      "Ġcountry": 2584,
      "Ġoffer": 2585,
      "ĠUnited": 2586,
      "use": 2587,
      "Ġparticular": 2588,
      "iency": 2589,
      "Ġreverse": 2590,
      "Ġhelps": 2591,
      "Ġconc": 2592,
      "actions": 2593,
      "cending": 2594,
      "Ġrece": 2595,
      "Ġbelie": 2596,
      "Ġhours": 2597,
      "Ġtaking": 2598,
      "Ġrecogn": 2599,
      "Ġtables": 2600,
      "ores": 2601,
      "ĠNULL": 2602,
      "pre": 2603,
      "Ġphone": 2604,
      "HP": 2605,
      "loc": 2606,
      "utions": 2607,
      "Ġappropriate": 2608,
      "ĠAmeric": 2609,
      "Ġrestaur": 2610,
      "123": 2611,
      "Ġdiscuss": 2612,
      "Ġcolors": 2613,
      "Ġintern": 2614,
      "Ġdifficult": 2615,
      "Ġprints": 2616,
      "step": 2617,
      "Ġbecause": 2618,
      "jor": 2619,
      "Re": 2620,
      "not": 2621,
      "Ġclimate": 2622,
      "fully": 2623,
      "erences": 2624,
      "Ġshare": 2625,
      "Id": 2626,
      "Ġca": 2627,
      "Ġfeed": 2628,
      "Pr": 2629,
      "Ġbuilding": 2630,
      "learn": 2631,
      "Ġbackground": 2632,
      "ma": 2633,
      "ires": 2634,
      "ĠTra": 2635,
      "Ġcountries": 2636,
      "rics": 2637,
      "ee": 2638,
      "Ġthought": 2639,
      "Ġident": 2640,
      "Ġweather": 2641,
      "Ġdescription": 2642,
      "Ġcir": 2643,
      "Ġcontaining": 2644,
      "));": 2645,
      "Ġsust": 2646,
      "En": 2647,
      "ards": 2648,
      "ana": 2649,
      "Ġhealthy": 2650,
      "vey": 2651,
      "Ġfree": 2652,
      "RE": 2653,
      "Ġdue": 2654,
      "ault": 2655,
      "ĠBased": 2656,
      "Ġtraditional": 2657,
      "oci": 2658,
      "Ġmodels": 2659,
      "ĠBy": 2660,
      "orn": 2661,
      "Ġfinancial": 2662,
      "Ġdays": 2663,
      "lines": 2664,
      "Ġprev": 2665,
      "Ġletters": 2666,
      "iful": 2667,
      "Ġimages": 2668,
      "Ġanimals": 2669,
      "ĠSome": 2670,
      "Ġdetect": 2671,
      "right": 2672,
      "oms": 2673,
      "Ġheight": 2674,
      "This": 2675,
      "Ġvide": 2676,
      "Ġanswer": 2677,
      "inter": 2678,
      "Ġalong": 2679,
      "ĠConstruct": 2680,
      "Ġsubject": 2681,
      "based": 2682,
      "({": 2683,
      "Ġold": 2684,
      "Ġwide": 2685,
      "rypt": 2686,
      "Ġaffect": 2687,
      "Ġengine": 2688,
      "Ġargs": 2689,
      "Ġscen": 2690,
      "ention": 2691,
      "https": 2692,
      "Ġexplain": 2693,
      "Ġeducation": 2694,
      "Ġvers": 2695,
      "30": 2696,
      "the": 2697,
      "Ġareas": 2698,
      "Ġscient": 2699,
      "Ġsquare": 2700,
      "ĠIdentify": 2701,
      "Com": 2702,
      "Ġ/>": 2703,
      "Ġdistr": 2704,
      "Ġpaper": 2705,
      "Ġcapt": 2706,
      "Ġfit": 2707,
      "Ġmix": 2708,
      "Ġstrategies": 2709,
      "Ġcu": 2710,
      "Ġbecome": 2711,
      "ĠNOT": 2712,
      "product": 2713,
      "Ġsustain": 2714,
      "'.": 2715,
      "ĠPHP": 2716,
      "Ġworking": 2717,
      "Ġmental": 2718,
      "Ġ<-": 2719,
      "Ġport": 2720,
      "Ġpaint": 2721,
      "Ġmom": 2722,
      "Ġcertain": 2723,
      "ĠSu": 2724,
      "Ġwhether": 2725,
      "Ġbelow": 2726,
      "Ġspeed": 2727,
      "Ġwhy": 2728,
      "RL": 2729,
      "Ġgover": 2730,
      "Ġglobal": 2731,
      "Ġexist": 2732,
      "gen": 2733,
      "Ġprocessing": 2734,
      "Ġdifference": 2735,
      "Ġelif": 2736,
      "Ġsuper": 2737,
      "Ġphot": 2738,
      "Ġcoll": 2739,
      "Ġradi": 2740,
      "enge": 2741,
      "ledge": 2742,
      "Ġsatisf": 2743,
      "ĠStep": 2744,
      "erence": 2745,
      "Ġacross": 2746,
      "Ġdog": 2747,
      "otal": 2748,
      "Ġsymb": 2749,
      "Ġexec": 2750,
      "Ġunderstanding": 2751,
      "Ġbase": 2752,
      "nov": 2753,
      "ĠUS": 2754,
      "Ġflow": 2755,
      "Ġnumer": 2756,
      "itude": 2757,
      "Ġperfect": 2758,
      "ĠInt": 2759,
      "Ġobjects": 2760,
      "Ġnavig": 2761,
      "point": 2762,
      "Ġ200": 2763,
      "Ġcontext": 2764,
      "Ġfactor": 2765,
      "Ġbasic": 2766,
      "ĠData": 2767,
      "respon": 2768,
      "Ġdictionary": 2769,
      "Ġbar": 2770,
      "ĠFr": 2771,
      "Ġscore": 2772,
      "ĠNone": 2773,
      "ope": 2774,
      "Ġrelated": 2775,
      "parameters": 2776,
      "Ġ]": 2777,
      "Ġtf": 2778,
      "Ġ);": 2779,
      "Ġecho": 2780,
      "Cont": 2781,
      "Ġweight": 2782,
      "Ġ{}": 2783,
      "agram": 2784,
      "Ġnever": 2785,
      "Ġsklearn": 2786,
      "Ġmaterials": 2787,
      "ĠExplain": 2788,
      "Ġprevent": 2789,
      "Ġstress": 2790,
      "IT": 2791,
      "Ġchildren": 2792,
      "Ġpd": 2793,
      "Ġgre": 2794,
      "aling": 2795,
      "Ġquant": 2796,
      "Ġgovern": 2797,
      "Ġexplore": 2798,
      "nection": 2799,
      "Ġclassify": 2800,
      "Ġreach": 2801,
      "ends": 2802,
      "kes": 2803,
      "].": 2804,
      ":**": 2805,
      "Ġsitu": 2806,
      "Ġbuild": 2807,
      "Ġdesigned": 2808,
      "atus": 2809,
      "Ġ13": 2810,
      "Ġri": 2811,
      "rior": 2812,
      "Ġreducing": 2813,
      "ificial": 2814,
      "Ġeval": 2815,
      "ĠCl": 2816,
      "ĠStates": 2817,
      "ival": 2818,
      "Val": 2819,
      "main": 2820,
      "Âł": 2821,
      "Ġintegr": 2822,
      "ĠCons": 2823,
      "dis": 2824,
      "Ġdecision": 2825,
      "Search": 2826,
      "items": 2827,
      "dict": 2828,
      "Ġblue": 2829,
      "Ġexc": 2830,
      "gre": 2831,
      "gress": 2832,
      "ule": 2833,
      "Ġmajor": 2834,
      "ĠFirst": 2835,
      "Ġexer": 2836,
      "Ġey": 2837,
      "aily": 2838,
      "Ġconditions": 2839,
      "Ġlatest": 2840,
      "etic": 2841,
      "ustr": 2842,
      "Ġmight": 2843,
      "21": 2844,
      "Ġjava": 2845,
      "rand": 2846,
      "Ġenhance": 2847,
      "Ġprotect": 2848,
      "orical": 2849,
      "Ġinitial": 2850,
      "Ġnature": 2851,
      "Ġput": 2852,
      "Ġsong": 2853,
      "Ġmag": 2854,
      "'re": 2855,
      "ĠINT": 2856,
      "Ġgar": 2857,
      "crib": 2858,
      "leep": 2859,
      "Ġmodify": 2860,
      "Ġinstructions": 2861,
      "left": 2862,
      "Ġdescript": 2863,
      "path": 2864,
      "obile": 2865,
      "Ġhot": 2866,
      "ls": 2867,
      "Ġtax": 2868,
      "irtual": 2869,
      "Ġfields": 2870,
      "IM": 2871,
      "Ġenjoy": 2872,
      "board": 2873,
      "uate": 2874,
      "ders": 2875,
      "Ġsource": 2876,
      "ĠSm": 2877,
      "imately": 2878,
      "alyz": 2879,
      "ĠGet": 2880,
      "ATE": 2881,
      "Ġface": 2882,
      "etch": 2883,
      "alindrome": 2884,
      "ann": 2885,
      "ager": 2886,
      "Ġcorrespon": 2887,
      "Ġtransportation": 2888,
      "Ġgive": 2889,
      "Ġfresh": 2890,
      "ĠOver": 2891,
      "fort": 2892,
      "Ġprompt": 2893,
      "ĠRuby": 2894,
      "Ġquestions": 2895,
      "Ġdigital": 2896,
      "map": 2897,
      "Ġprim": 2898,
      "Ġjson": 2899,
      "arth": 2900,
      "ĠTe": 2901,
      "Ġdiscount": 2902,
      "Ġ17": 2903,
      "Ġcarbon": 2904,
      "ral": 2905,
      "lph": 2906,
      "ifier": 2907,
      "Ġassoci": 2908,
      "iting": 2909,
      "Ġquestion": 2910,
      "Ġretrieve": 2911,
      "((": 2912,
      "Ġsingle": 2913,
      "ql": 2914,
      "pty": 2915,
      "ott": 2916,
      "Ġpromot": 2917,
      "Ġexpect": 2918,
      "Ġpand": 2919,
      "Ġtrend": 2920,
      "Ġadditional": 2921,
      "Ġhouse": 2922,
      "ological": 2923,
      "poon": 2924,
      "do": 2925,
      "Ġ[{\"": 2926,
      "Ġeconomic": 2927,
      "Ġjourney": 2928,
      "ident": 2929,
      "Ġstill": 2930,
      "year": 2931,
      "Ġroom": 2932,
      "Ġvariables": 2933,
      "ĠPh": 2934,
      "Ġtowards": 2935,
      "python": 2936,
      "Ġupd": 2937,
      "Ġperiod": 2938,
      "Ġ14": 2939,
      "paign": 2940,
      "ĠTable": 2941,
      "Ġfrequency": 2942,
      "To": 2943,
      "oogle": 2944,
      "ĠSwift": 2945,
      "]:": 2946,
      "LAB": 2947,
      "Ġeffects": 2948,
      "ID": 2949,
      "ĠPerson": 2950,
      "Ġincreasing": 2951,
      "Ġtoday": 2952,
      "ATLAB": 2953,
      "jo": 2954,
      "button": 2955,
      "iddle": 2956,
      "itation": 2957,
      "side": 2958,
      "ĠCheck": 2959,
      "Ġleg": 2960,
      "reng": 2961,
      "urs": 2962,
      "Ġsimilar": 2963,
      "Ġcommunity": 2964,
      "ĠCould": 2965,
      "nums": 2966,
      "...": 2967,
      "Ġfont": 2968,
      "Ġcultural": 2969,
      "ĠGo": 2970,
      "keras": 2971,
      "ĠFibonacci": 2972,
      "Ġsupp": 2973,
      "pective": 2974,
      "Ġdescribe": 2975,
      "Ġactivity": 2976,
      "Ġgraph": 2977,
      "ĠMark": 2978,
      "udget": 2979,
      "Element": 2980,
      "friend": 2981,
      "ĉĉ": 2982,
      "atic": 2983,
      "Ġsky": 2984,
      "state": 2985,
      "Ġconvers": 2986,
      "abet": 2987,
      "code": 2988,
      "weet": 2989,
      "Ġexperiences": 2990,
      "Ġaccuracy": 2991,
      "ales": 2992,
      "cover": 2993,
      "Ġdevices": 2994,
      "lete": 2995,
      "ĠCalculate": 2996,
      "Sub": 2997,
      "hemat": 2998,
      "Ġwritten": 2999,
      "22": 3000,
      "Ġappear": 3001,
      "ĠFinally": 3002,
      "ĠBu": 3003,
      "comes": 3004,
      "Ġpow": 3005,
      "ties": 3006,
      "Ġupon": 3007,
      "Ġhighlight": 3008,
      "Ġknowledge": 3009,
      "ĠIs": 3010,
      "start": 3011,
      "Ġhighest": 3012,
      "ites": 3013,
      "Ġyoung": 3014,
      "fact": 3015,
      "ulate": 3016,
      "Ġimportance": 3017,
      "Ġschool": 3018,
      "agraph": 3019,
      "Ġcy": 3020,
      "unch": 3021,
      "Ġstay": 3022,
      "Ġvariety": 3023,
      "query": 3024,
      "issions": 3025,
      "Ġsentences": 3026,
      "Ġmatch": 3027,
      "By": 3028,
      "ĠMATLAB": 3029,
      "orth": 3030,
      "Ġgoal": 3031,
      "init": 3032,
      "imize": 3033,
      "Ġneeded": 3034,
      "CH": 3035,
      "Ġdaily": 3036,
      "Ġpepper": 3037,
      "01": 3038,
      "layers": 3039,
      "Ġfull": 3040,
      "Ġtag": 3041,
      "opping": 3042,
      "ius": 3043,
      "ither": 3044,
      "Ġmid": 3045,
      "ĠID": 3046,
      "Ġessay": 3047,
      "ided": 3048,
      "!\"": 3049,
      "Ġissues": 3050,
      "Ġpan": 3051,
      "Ġsuccessful": 3052,
      "Ġintelligence": 3053,
      "Ġegg": 3054,
      "ember": 3055,
      "Ġvery": 3056,
      "Ġtransform": 3057,
      "ĠCol": 3058,
      "Ġfinal": 3059,
      "Ġsy": 3060,
      "Ġblock": 3061,
      "Ġdescrib": 3062,
      "Ġcreated": 3063,
      "Ġbutton": 3064,
      "Ġworks": 3065,
      "Ġoriginal": 3066,
      "ĠInst": 3067,
      "Ġserver": 3068,
      "->": 3069,
      "Ġmill": 3070,
      "ury": 3071,
      "ĠBY": 3072,
      "Ġspecies": 3073,
      "round": 3074,
      "file": 3075,
      "Ġcompan": 3076,
      "Ġconsist": 3077,
      "Ġfi": 3078,
      "Ġhealthcare": 3079,
      "Enter": 3080,
      "Ġlab": 3081,
      "Ġcontact": 3082,
      "Ġleading": 3083,
      "status": 3084,
      "Ġloss": 3085,
      "Ġfeeling": 3086,
      "ala": 3087,
      "atter": 3088,
      "Ġbring": 3089,
      "Ġdisc": 3090,
      "ĠExcel": 3091,
      "Ġrequests": 3092,
      "Ġtips": 3093,
      "Ġpiece": 3094,
      "Ġtool": 3095,
      "root": 3096,
      "Ġwaste": 3097,
      "ĠFl": 3098,
      "Ġabove": 3099,
      "Ġreason": 3100,
      "Ġforest": 3101,
      "Ġvector": 3102,
      "Ġagainst": 3103,
      "dep": 3104,
      "opt": 3105,
      "uro": 3106,
      "Ġseries": 3107,
      "Ġthings": 3108,
      "Ġapplications": 3109,
      "aris": 3110,
      "idence": 3111,
      "Ġnums": 3112,
      "eria": 3113,
      "ĠRet": 3114,
      "Ġ>=": 3115,
      "message": 3116,
      "Ġaway": 3117,
      "Ġverb": 3118,
      "Ġefficiency": 3119,
      "Ġtell": 3120,
      "ĠEarth": 3121,
      "ded": 3122,
      "Ġcreative": 3123,
      "oint": 3124,
      "Ġfig": 3125,
      "post": 3126,
      "plic": 3127,
      "akes": 3128,
      "18": 3129,
      "Ġcompet": 3130,
      "Ġseen": 3131,
      "Ġadj": 3132,
      "Ġmakes": 3133,
      "Ġminimum": 3134,
      "Ġmeasure": 3135,
      "Ġtreat": 3136,
      "Ġboard": 3137,
      "Ġstru": 3138,
      "ĠArray": 3139,
      "Ġmeet": 3140,
      "Ind": 3141,
      "Ġfollows": 3142,
      "Ġprot": 3143,
      "ounter": 3144,
      "Ġamong": 3145,
      "Ġintro": 3146,
      "========": 3147,
      "Ġcampaign": 3148,
      "Ġblack": 3149,
      "node": 3150,
      "ging": 3151,
      "ges": 3152,
      "ied": 3153,
      "lying": 3154,
      "Ġcorresponding": 3155,
      "__(": 3156,
      "Ġchallenge": 3157,
      "ĠEnglish": 3158,
      "Ġpress": 3159,
      "arry": 3160,
      "Ġpair": 3161,
      "Ġeffectively": 3162,
      "elt": 3163,
      "ises": 3164,
      "pace": 3165,
      "Ġcat": 3166,
      "Ġideas": 3167,
      "gra": 3168,
      "Ġsav": 3169,
      "Ġliving": 3170,
      "Ġmathemat": 3171,
      "ients": 3172,
      "Ġclose": 3173,
      "Con": 3174,
      "anana": 3175,
      "mov": 3176,
      "Ġbow": 3177,
      "roid": 3178,
      "ĠRem": 3179,
      "Ġengaging": 3180,
      "Ġsalt": 3181,
      "Ġthird": 3182,
      "Ġemployee": 3183,
      "Ġill": 3184,
      "Ġsave": 3185,
      "sentence": 3186,
      "ĠPre": 3187,
      "Ġpractices": 3188,
      "Ġplant": 3189,
      "mosp": 3190,
      "Ġpolic": 3191,
      "Ġinnov": 3192,
      "ponents": 3193,
      "Ġdone": 3194,
      "comp": 3195,
      "23": 3196,
      "ĠAt": 3197,
      "ĠDet": 3198,
      "agon": 3199,
      "Ġfeedback": 3200,
      "ump": 3201,
      "Ġcollect": 3202,
      "Ġemotions": 3203,
      "Item": 3204,
      "Ġstreng": 3205,
      "Ġquickly": 3206,
      "Ġseem": 3207,
      "Ġfoot": 3208,
      "plays": 3209,
      "())": 3210,
      "irth": 3211,
      "\"}'}": 3212,
      "friendly": 3213,
      "lice": 3214,
      "ĠLe": 3215,
      "Ġwidth": 3216,
      "Ġtoo": 3217,
      "Ġpoll": 3218,
      "ĠâĢĵ": 3219,
      "Ġrenew": 3220,
      "Ġprofessional": 3221,
      "qr": 3222,
      "Ġpers": 3223,
      "inct": 3224,
      "Ġsomeone": 3225,
      "odes": 3226,
      "Ġparagraph": 3227,
      "Ġstrategy": 3228,
      "Ġidea": 3229,
      "ze": 3230,
      "js": 3231,
      "Ġencoura": 3232,
      "Ġfund": 3233,
      "allest": 3234,
      "Ġwalk": 3235,
      "Ex": 3236,
      "Ġdri": 3237,
      "istance": 3238,
      "Ġpreferences": 3239,
      "erse": 3240,
      "Ġgram": 3241,
      "Ġodd": 3242,
      "arent": 3243,
      "Ġfilter": 3244,
      "flow": 3245,
      "Ġanimal": 3246,
      "Ġchicken": 3247,
      "Ġ500": 3248,
      "Sc": 3249,
      "Ġcheese": 3250,
      "ĠRed": 3251,
      "Ġassign": 3252,
      "ĠAss": 3253,
      "Ġcra": 3254,
      "orage": 3255,
      "Ġdisplays": 3256,
      "Ġmembers": 3257,
      "ĠAm": 3258,
      "ĠOf": 3259,
      "ules": 3260,
      "Â°": 3261,
      "oman": 3262,
      "Ġatmosp": 3263,
      "Ġupdate": 3264,
      "ĠOur": 3265,
      "Ġactivation": 3266,
      "Ġbutter": 3267,
      "ĠConsider": 3268,
      "Ġoperations": 3269,
      "Ġsau": 3270,
      "Ġiter": 3271,
      "Se": 3272,
      "ares": 3273,
      "down": 3274,
      "ĠZ": 3275,
      "Ġrout": 3276,
      "artment": 3277,
      "ams": 3278,
      "onstr": 3279,
      "Ġsetting": 3280,
      "Ġoffers": 3281,
      "Ġdise": 3282,
      "Ġerror": 3283,
      "Ġcompare": 3284,
      "Ġes": 3285,
      "astic": 3286,
      "'ll": 3287,
      "uck": 3288,
      "Ġbudget": 3289,
      "Ġeither": 3290,
      "llo": 3291,
      "dule": 3292,
      "Em": 3293,
      "Ġmobile": 3294,
      "Ġ_": 3295,
      "Ġdest": 3296,
      "color": 3297,
      "man": 3298,
      "Ġdiet": 3299,
      "ror": 3300,
      "ĠCO": 3301,
      "ĠRewrite": 3302,
      "Ġbi": 3303,
      "Ġge": 3304,
      "Ġstarted": 3305,
      "Ġtypically": 3306,
      "ched": 3307,
      "ĠCont": 3308,
      "Ġlive": 3309,
      "create": 3310,
      "Ġcard": 3311,
      "Ġalph": 3312,
      "ype": 3313,
      "Ġ24": 3314,
      "____": 3315,
      "Ġrelationships": 3316,
      "Ġreplace": 3317,
      "amp": 3318,
      "Ġassociated": 3319,
      "Ġfra": 3320,
      "Ġmoney": 3321,
      "14": 3322,
      "><": 3323,
      "Ġhistorical": 3324,
      "Ġhab": 3325,
      "Ġvisit": 3326,
      "Ġincorporate": 3327,
      "mar": 3328,
      "Ġprior": 3329,
      "andom": 3330,
      "99": 3331,
      "16": 3332,
      "Ġ)": 3333,
      "Ġcloud": 3334,
      "Ġimag": 3335,
      "duced": 3336,
      "Ġwon": 3337,
      "Ġsmo": 3338,
      "ĠAS": 3339,
      "Ġblog": 3340,
      "Ġcout": 3341,
      "ĠInte": 3342,
      "Ġallowing": 3343,
      "Ġmodern": 3344,
      "ening": 3345,
      "roll": 3346,
      "Ġsmart": 3347,
      "ĠEach": 3348,
      "ĠProduct": 3349,
      "Ġstarting": 3350,
      "Ġdish": 3351,
      "Ġgovernment": 3352,
      "Ġtopic": 3353,
      "Ġbuy": 3354,
      "ĠTherefore": 3355,
      "ĠPrint": 3356,
      "coming": 3357,
      "Ġdistrib": 3358,
      "Ġvoice": 3359,
      "Ġvirtual": 3360,
      "Ġprevious": 3361,
      "]]": 3362,
      "ĠSpe": 3363,
      "alyze": 3364,
      "lation": 3365,
      "ensor": 3366,
      "Ġpersonalized": 3367,
      "this": 3368,
      "Ġadding": 3369,
      "ĠImplement": 3370,
      "Ġdark": 3371,
      "ĠURL": 3372,
      "New": 3373,
      "redict": 3374,
      "Ġadvanced": 3375,
      "Ġarch": 3376,
      "Ġthroughout": 3377,
      "Ġbird": 3378,
      "Ġbrown": 3379,
      "Ġenter": 3380,
      "Ġtriangle": 3381,
      "Ġhigher": 3382,
      "www": 3383,
      "Ġsolutions": 3384,
      "Ġmanage": 3385,
      "sol": 3386,
      "Ġwhite": 3387,
      "Ġdemonstr": 3388,
      "ĠDis": 3389,
      "Ġmoment": 3390,
      "ĠClass": 3391,
      "react": 3392,
      "ĠComp": 3393,
      "Ġmen": 3394,
      "Ġcomb": 3395,
      "Ġplayer": 3396,
      "Ġscience": 3397,
      "alls": 3398,
      "Calculate": 3399,
      "Ġcut": 3400,
      "Ġprogress": 3401,
      "Ġadvant": 3402,
      "Ġla": 3403,
      "Ġaccom": 3404,
      "itch": 3405,
      "ĠCar": 3406,
      "Ġadject": 3407,
      "Ġap": 3408,
      "resents": 3409,
      "Ġsets": 3410,
      "isions": 3411,
      "Ġgoing": 3412,
      "Ġcenter": 3413,
      "iet": 3414,
      "Ġinsert": 3415,
      "ĠĠĠĠĠĠĠĠĠĠĠĠĠĠĠĠĠĠĠĠ": 3416,
      "Ġdifferences": 3417,
      "Ġcaus": 3418,
      "SQL": 3419,
      "Ġstrugg": 3420,
      "Ġ?": 3421,
      "Ġavoid": 3422,
      "Ġgl": 3423,
      "ĠCSS": 3424,
      "ynam": 3425,
      "Ġissue": 3426,
      "Ġpurchase": 3427,
      "ster": 3428,
      "Ġsauce": 3429,
      "ina": 3430,
      "db": 3431,
      "Ġvegetables": 3432,
      ")]": 3433,
      "istr": 3434,
      "lower": 3435,
      "ipes": 3436,
      "af": 3437,
      "Ġspecified": 3438,
      "Ġelectric": 3439,
      "page": 3440,
      "Ġsleep": 3441,
      "Ġrestaurant": 3442,
      "Ġcompanies": 3443,
      "Ġbreat": 3444,
      "Ġopportunities": 3445,
      "Ġhope": 3446,
      "Ġmar": 3447,
      "def": 3448,
      "Ġrepresents": 3449,
      "Ġenvironmental": 3450,
      "ĠTrans": 3451,
      "Ġsides": 3452,
      "Ġmedical": 3453,
      "Ġreflect": 3454,
      "Ġfavor": 3455,
      "Ġsince": 3456,
      "Ġseason": 3457,
      "ĠKe": 3458,
      "inner": 3459,
      "Ġsepar": 3460,
      "Ġcolle": 3461,
      "Ġsymbol": 3462,
      "ms": 3463,
      "Ġprices": 3464,
      "cean": 3465,
      "cast": 3466,
      "Ġchoose": 3467,
      "owels": 3468,
      "fil": 3469,
      "Ġneural": 3470,
      "Ġpurpose": 3471,
      "Ġeasily": 3472,
      "Ġconse": 3473,
      "ĠXML": 3474,
      "Ġrenewable": 3475,
      "Ġgarlic": 3476,
      "Ġlives": 3477,
      "Ġproduction": 3478,
      "Ġground": 3479,
      "Ġappe": 3480,
      "Ġoptimize": 3481,
      "Ġcosts": 3482,
      "eries": 3483,
      "ĠQu": 3484,
      "izz": 3485,
      "Num": 3486,
      "ows": 3487,
      "Ġpowerful": 3488,
      "Ġhaving": 3489,
      "ĠStart": 3490,
      "Ġsalary": 3491,
      "Ġcooking": 3492,
      "ised": 3493,
      "Ġask": 3494,
      "Ġorders": 3495,
      "older": 3496,
      "Ġ&&": 3497,
      "('/": 3498,
      "Ġ[[": 3499,
      "Ġrequires": 3500,
      "Ġconstruct": 3501,
      "Ġgenerates": 3502,
      "Ġboo": 3503,
      "process": 3504,
      "Ġbowl": 3505,
      "Input": 3506,
      "Ġadapt": 3507,
      "uation": 3508,
      "Ġ40": 3509,
      "Ġrequirements": 3510,
      "icro": 3511,
      "ĠAfter": 3512,
      "Ġdraw": 3513,
      "Ġfurther": 3514,
      "Ġdigits": 3515,
      "idden": 3516,
      "Ġcollabor": 3517,
      "met": 3518,
      "Ġdemand": 3519,
      "Ġdivis": 3520,
      "Ġcomfort": 3521,
      "onym": 3522,
      "Ġsyn": 3523,
      "Ġpackage": 3524,
      "Ġfunc": 3525,
      "Ġcred": 3526,
      "ĠMan": 3527,
      "Ġrows": 3528,
      "Ġbeauty": 3529,
      "ids": 3530,
      "ĠDr": 3531,
      "Ġargument": 3532,
      "ET": 3533,
      "89": 3534,
      "ended": 3535,
      "itect": 3536,
      "ologies": 3537,
      "Ġcause": 3538,
      "Ġrecords": 3539,
      "Ġsurface": 3540,
      "Ġtrees": 3541,
      "plot": 3542,
      "]);": 3543,
      "Ġdream": 3544,
      "Ġonce": 3545,
      "Ġsummary": 3546,
      "Ġempty": 3547,
      "tml": 3548,
      "Ġleaves": 3549,
      "anation": 3550,
      "ĠApple": 3551,
      "ox": 3552,
      "}'}": 3553,
      "Ġcombination": 3554,
      "Ġplot": 3555,
      "Ġsugar": 3556,
      "ators": 3557,
      "Ġol": 3558,
      "Ġconcise": 3559,
      "Ġslow": 3560,
      "Ġgas": 3561,
      "ĠStud": 3562,
      "enced": 3563,
      "inking": 3564,
      "trans": 3565,
      "Ġtone": 3566,
      "Ġinterface": 3567,
      "){": 3568,
      "Ġcru": 3569,
      "ĠSum": 3570,
      "cu": 3571,
      "Ġmess": 3572,
      "pir": 3573,
      "yles": 3574,
      "Ġcategory": 3575,
      "Ġ1000": 3576,
      "Ġspeech": 3577,
      "Ġemissions": 3578,
      "acher": 3579,
      "centage": 3580,
      "Ġsustainable": 3581,
      "mark": 3582,
      "Ġrecent": 3583,
      "Ġexisting": 3584,
      "Ġ{'": 3585,
      "Ġmovies": 3586,
      "Ġbig": 3587,
      "Ġnear": 3588,
      "CHAR": 3589,
      "Ġlaw": 3590,
      "Ġbox": 3591,
      "ĠNe": 3592,
      "ĠEdit": 3593,
      "Index": 3594,
      "Ġdefault": 3595,
      "na": 3596,
      "Ġemotional": 3597,
      "Ġshape": 3598,
      "Ġattention": 3599,
      "dom": 3600,
      "Ġpark": 3601,
      "Ġmaintain": 3602,
      "ĠCo": 3603,
      "Ġteas": 3604,
      "Ġstrength": 3605,
      "outh": 3606,
      "Ġconnection": 3607,
      "Ġincreased": 3608,
      "style": 3609,
      "Ġmemory": 3610,
      "Ġatmosphere": 3611,
      "oot": 3612,
      "Ġ()": 3613,
      "Ġrating": 3614,
      "Ġexpens": 3615,
      "\"},": 3616,
      "Ġdevice": 3617,
      "ĠDoe": 3618,
      "imens": 3619,
      "Ġeverything": 3620,
      "Ġupper": 3621,
      ".\",": 3622,
      "quences": 3623,
      "phone": 3624,
      "Ġrunning": 3625,
      "aches": 3626,
      "Ġmass": 3627,
      "Ġmor": 3628,
      "Ġliter": 3629,
      "Ġcontra": 3630,
      "App": 3631,
      "Ġfue": 3632,
      "Ġimplementation": 3633,
      "amb": 3634,
      "Ġhtml": 3635,
      "script": 3636,
      "Ġmissing": 3637,
      "ring": 3638,
      "An": 3639,
      "Ġrain": 3640,
      "iced": 3641,
      "ĠSug": 3642,
      "Ġtrends": 3643,
      "Ġversion": 3644,
      "Ġshopping": 3645,
      "Ġparameters": 3646,
      "ĠUser": 3647,
      "Ġparent": 3648,
      "Ġkind": 3649,
      "Ġchat": 3650,
      "Ġprograms": 3651,
      "Ġfinding": 3652,
      "Ġbalance": 3653,
      "dat": 3654,
      "ouch": 3655,
      "Ġspread": 3656,
      "Ġmount": 3657,
      "yt": 3658,
      "ARCHAR": 3659,
      "Ġ->": 3660,
      "Ġproduce": 3661,
      "Ġimm": 3662,
      "ĠArt": 3663,
      "olume": 3664,
      "ready": 3665,
      "Ġinstance": 3666,
      "Ġprimary": 3667,
      "ĠTake": 3668,
      "Ġemb": 3669,
      "Ġinternet": 3670,
      "'])": 3671,
      "Ġlayer": 3672,
      "usion": 3673,
      "Ġlines": 3674,
      "Ġthink": 3675,
      "Ġobs": 3676,
      "Ġmi": 3677,
      "ĠThat": 3678,
      "EY": 3679,
      "Ġdistinct": 3680,
      "iversity": 3681,
      "Ph": 3682,
      "Ġdynam": 3683,
      "reci": 3684,
      "Ġann": 3685,
      "ĠMain": 3686,
      "Ġpolit": 3687,
      "Ġestab": 3688,
      "Ġvideo": 3689,
      "ĠBl": 3690,
      "Ġaim": 3691,
      "Ġframe": 3692,
      "Ġsubstring": 3693,
      "izations": 3694,
      "range": 3695,
      "Ġdecisions": 3696,
      "32": 3697,
      "nown": 3698,
      "username": 3699,
      "Ġcomponents": 3700,
      "Ġcommonly": 3701,
      "score": 3702,
      "Node": 3703,
      "Ġusage": 3704,
      "join": 3705,
      "une": 3706,
      "Ġadvent": 3707,
      "Ġculture": 3708,
      "Ġcomponent": 3709,
      "uff": 3710,
      "Ġste": 3711,
      "Ġprocesses": 3712,
      "rench": 3713,
      "Ġlists": 3714,
      "Tr": 3715,
      "ait": 3716,
      "Ġmedium": 3717,
      "Ġed": 3718,
      "AL": 3719,
      "Ġparticip": 3720,
      "Ġplatforms": 3721,
      "Ġlimit": 3722,
      "Ġconvey": 3723,
      "ND": 3724,
      "Ġ===": 3725,
      "Dense": 3726,
      "oding": 3727,
      "PE": 3728,
      "itable": 3729,
      "Ġplants": 3730,
      "dr": 3731,
      "erve": 3732,
      "apple": 3733,
      "Ġcomes": 3734,
      "------------": 3735,
      "ahren": 3736,
      "Ġfelt": 3737,
      "heit": 3738,
      "Ġactive": 3739,
      "Ġdesired": 3740,
      "Ġinteractive": 3741,
      "Ġconstant": 3742,
      "Ġcollection": 3743,
      "Ġdelic": 3744,
      "Ġnamespace": 3745,
      "ffee": 3746,
      "Ġfruits": 3747,
      "Ġspeak": 3748,
      "ĠVARCHAR": 3749,
      "Ġsurround": 3750,
      "Ġhom": 3751,
      "ifically": 3752,
      "ĠTw": 3753,
      "ahrenheit": 3754,
      "ged": 3755,
      "alking": 3756,
      "Ġsecure": 3757,
      "Ġveh": 3758,
      "Ġactions": 3759,
      "Ġdu": 3760,
      "Ġcre": 3761,
      "Ġsay": 3762,
      "ĠText": 3763,
      "Ġcrucial": 3764,
      "Ġnumpy": 3765,
      "Ġarchitect": 3766,
      "Ġcream": 3767,
      "Ġorganization": 3768,
      "ensity": 3769,
      "Ġsituation": 3770,
      "ipment": 3771,
      "Ġbuilt": 3772,
      "reet": 3773,
      "ressed": 3774,
      "Ġtaken": 3775,
      "Ġartificial": 3776,
      "Ġprin": 3777,
      "Ġfloat": 3778,
      "Ġaspect": 3779,
      "Ġtraffic": 3780,
      "Ġadded": 3781,
      "Ġcategories": 3782,
      "era": 3783,
      "Ġexport": 3784,
      "ĠConvert": 3785,
      "Sort": 3786,
      "ĠAcc": 3787,
      "Ġstorage": 3788,
      "Ġflex": 3789,
      "Ġsociety": 3790,
      "ref": 3791,
      "ĠNo": 3792,
      "Ġ---": 3793,
      "Ġtaste": 3794,
      "hent": 3795,
      "Ġmeeting": 3796,
      "Ġeasier": 3797,
      "ĠAmerican": 3798,
      "Ġload": 3799,
      "Ġbright": 3800,
      "Line": 3801,
      "sel": 3802,
      "ĠFunction": 3803,
      "ivid": 3804,
      "Ġnovel": 3805,
      "top": 3806,
      "Ġpromote": 3807,
      "ĠInitial": 3808,
      "ĠCertain": 3809,
      "ĠThen": 3810,
      "Ġaltern": 3811,
      "location": 3812,
      "ĠGoogle": 3813,
      "Ġadjust": 3814,
      "75": 3815,
      "term": 3816,
      "ĠMath": 3817,
      "Ġmathematical": 3818,
      "64": 3819,
      "spe": 3820,
      "Ġincome": 3821,
      "Ġdefine": 3822,
      "Ġaccept": 3823,
      "ĠMe": 3824,
      "Ġgroups": 3825,
      "Ġsmooth": 3826,
      "alf": 3827,
      "Ġstack": 3828,
      "Ġlocated": 3829,
      "Ġ32": 3830,
      "Ġgenerated": 3831,
      "Ġbill": 3832,
      "Ġapprox": 3833,
      "Ġsl": 3834,
      "abilities": 3835,
      "ĠChoose": 3836,
      "umb": 3837,
      "class": 3838,
      "}}": 3839,
      "dig": 3840,
      "Ġcau": 3841,
      "Ġhtt": 3842,
      "ĠEuro": 3843,
      "api": 3844,
      "aps": 3845,
      "Ġensuring": 3846,
      "qrt": 3847,
      "\"],": 3848,
      "RD": 3849,
      "Ġlinear": 3850,
      "Ġclassification": 3851,
      "Ġlittle": 3852,
      "Word": 3853,
      "rief": 3854,
      "anguages": 3855,
      "Ġbehind": 3856,
      "ĠCount": 3857,
      "versed": 3858,
      "Ġmeasures": 3859,
      "Ġcriteria": 3860,
      "most": 3861,
      "enue": 3862,
      "ĠSub": 3863,
      "Ġsaid": 3864,
      "Ġbeautiful": 3865,
      "uration": 3866,
      "lished": 3867,
      "house": 3868,
      "Ġalready": 3869,
      "ĠMed": 3870,
      "Ġproblems": 3871,
      "generate": 3872,
      "Ġsaf": 3873,
      "Ġlikely": 3874,
      "Ġoption": 3875,
      "quality": 3876,
      "ners": 3877,
      "Ġremov": 3878,
      "opped": 3879,
      "push": 3880,
      "Of": 3881,
      "rame": 3882,
      "aged": 3883,
      "ĠIntro": 3884,
      "oon": 3885,
      "Ġinstead": 3886,
      "ĠSuggest": 3887,
      "Ġplanet": 3888,
      "anner": 3889,
      "Ġcapital": 3890,
      "Ġ\\": 3891,
      "Char": 3892,
      "Ġhappy": 3893,
      "Ġhold": 3894,
      "Ġattribut": 3895,
      "ception": 3896,
      "ĠCertainly": 3897,
      "ĠOpt": 3898,
      "sing": 3899,
      "Ġcharacteristics": 3900,
      "Ġchart": 3901,
      "Ġradius": 3902,
      "ordin": 3903,
      "0000": 3904,
      "ored": 3905,
      "Ġedit": 3906,
      "67": 3907,
      "Ġrou": 3908,
      "Ġtomat": 3909,
      "phas": 3910,
      "tered": 3911,
      "idered": 3912,
      "Ġenough": 3913,
      "Ġprob": 3914,
      "amount": 3915,
      "omen": 3916,
      "Ġsuccessfully": 3917,
      "ĠAnother": 3918,
      "Ġurl": 3919,
      "Ġcannot": 3920,
      "Ġpredictions": 3921,
      "Ġsweet": 3922,
      "Ġlif": 3923,
      "Ġfavorite": 3924,
      "Ġled": 3925,
      "Ġsolar": 3926,
      "cell": 3927,
      "Ġfill": 3928,
      "Ġrecommendations": 3929,
      "Ġant": 3930,
      "Ġperm": 3931,
      "Ġhighly": 3932,
      "ĠSec": 3933,
      "ormal": 3934,
      "Ġcomplexity": 3935,
      "Create": 3936,
      "pen": 3937,
      "arger": 3938,
      "PO": 3939,
      "Ġthemes": 3940,
      "Ġnull": 3941,
      "ĠReturn": 3942,
      "ocol": 3943,
      "Ġlibraries": 3944,
      "Ġproperties": 3945,
      "roc": 3946,
      "Ġchoice": 3947,
      "ameter": 3948,
      "().": 3949,
      "hel": 3950,
      "Ġpieces": 3951,
      "Ġcalculates": 3952,
      "Ġexercise": 3953,
      "aving": 3954,
      "element": 3955,
      "Ġindic": 3956,
      "Ġvivid": 3957,
      "Ġcities": 3958,
      "Ġlov": 3959,
      "Ġearly": 3960,
      "Ġaccompl": 3961,
      "effic": 3962,
      "Ġâ": 3963,
      "Ġsmallest": 3964,
      "Ġcontrast": 3965,
      "Ġreader": 3966,
      "Ġconduct": 3967,
      "ĠFe": 3968,
      "'))": 3969,
      "Sum": 3970,
      "Ġdb": 3971,
      "Ġlimited": 3972,
      "Date": 3973,
      "city": 3974,
      "Ġconsidered": 3975,
      "iate": 3976,
      "Ġ:=": 3977,
      "ĠGP": 3978,
      "Ġscientific": 3979,
      "He": 3980,
      "illed": 3981,
      "ĠNumber": 3982,
      "Ġcover": 3983,
      "discount": 3984,
      "mic": 3985,
      "cing": 3986,
      "Ġstandard": 3987,
      "ĠuseState": 3988,
      "elsius": 3989,
      "grees": 3990,
      "Ġcontinu": 3991,
      "rency": 3992,
      "lst": 3993,
      "};": 3994,
      "Ġproductivity": 3995,
      "Ġrefers": 3996,
      "Ġhor": 3997,
      "ĠDo": 3998,
      "Ġmonit": 3999,
      "ection": 4000,
      "sor": 4001,
      "ĠSim": 4002,
      "rap": 4003,
      "ĠMon": 4004,
      "iveness": 4005,
      "Ġdf": 4006,
      "Ġdefin": 4007,
      "Ġdeveloping": 4008,
      "Ġplaying": 4009,
      "17": 4010,
      "acity": 4011,
      "aced": 4012,
      "overed": 4013,
      "Ġeyes": 4014,
      "unct": 4015,
      "ĠReg": 4016,
      "Count": 4017,
      "Ġaff": 4018,
      "Ġcurr": 4019,
      "Ġcommunicate": 4020,
      "Ġsmaller": 4021,
      "Ġtour": 4022,
      "room": 4023,
      "ball": 4024,
      "ĠSoc": 4025,
      "Ġsurv": 4026,
      "Ã©": 4027,
      "Ġresulting": 4028,
      "'ve": 4029,
      "Ġcreates": 4030,
      "Ġrespective": 4031,
      "Ġerrors": 4032,
      "ĠSort": 4033,
      "prime": 4034,
      "Ġlo": 4035,
      "Ġlanguages": 4036,
      "agn": 4037,
      "Value": 4038,
      "++;": 4039,
      "Ġflavor": 4040,
      "Ġlarger": 4041,
      "acter": 4042,
      "Ġparts": 4043,
      "late": 4044,
      "Ġsea": 4045,
      "}</": 4046,
      "ĠPer": 4047,
      "pite": 4048,
      "lock": 4049,
      "Ġplt": 4050,
      "agonist": 4051,
      "Ġslic": 4052,
      "matrix": 4053,
      "Ġoven": 4054,
      "iding": 4055,
      "total": 4056,
      "Ġheav": 4057,
      "xture": 4058,
      "Ġhidden": 4059,
      "press": 4060,
      "Ġmillion": 4061,
      "Ġfactorial": 4062,
      "ById": 4063,
      "200": 4064,
      "hood": 4065,
      "ĠAll": 4066,
      "Ġ||": 4067,
      "ĠĠĠĠĠĠĠĠĠĠĠĠĠĠ": 4068,
      "Ġtown": 4069,
      "Ġgard": 4070,
      "ĠPe": 4071,
      "Ġpandas": 4072,
      "Ġusername": 4073,
      "We": 4074,
      "php": 4075,
      "Ġregion": 4076,
      "plicates": 4077,
      "Time": 4078,
      "Ġfall": 4079,
      "Ġlst": 4080,
      "ĠCity": 4081,
      "Ġdelete": 4082,
      "structure": 4083,
      "Ġstream": 4084,
      "Ġdegrees": 4085,
      "Ġforms": 4086,
      "Ġfilm": 4087,
      "ABLE": 4088,
      "33": 4089,
      "Ġsummar": 4090,
      "Ġschedule": 4091,
      "Ġfar": 4092,
      "Res": 4093,
      "Ġscreen": 4094,
      "Ġfetch": 4095,
      "Ġrobot": 4096,
      "ĠWhile": 4097,
      "Ġ--": 4098,
      "Ġcm": 4099,
      "Ġcontinue": 4100,
      "ĠOverall": 4101,
      "Ġpad": 4102,
      "asons": 4103,
      "Ġroad": 4104,
      "Ġbott": 4105,
      "ession": 4106,
      "Ġbegan": 4107,
      "Ġemphas": 4108,
      "Ġexplanation": 4109,
      "Ġvisually": 4110,
      "Ġsafety": 4111,
      "chan": 4112,
      "reed": 4113,
      "ĠLoad": 4114,
      "Ġinstall": 4115,
      "Ġfamous": 4116,
      "ĠIng": 4117,
      "ĠSal": 4118,
      "Ġascending": 4119,
      "Ġwood": 4120,
      "uest": 4121,
      "Ġrender": 4122,
      "Ġtechnologies": 4123,
      "Ġnarr": 4124,
      "change": 4125,
      "Ġrock": 4126,
      "Ġbaking": 4127,
      "Ġharm": 4128,
      "connect": 4129,
      "lict": 4130,
      "Ġshows": 4131,
      "Ġteaspoon": 4132,
      "sorted": 4133,
      "mt": 4134,
      "sy": 4135,
      "return": 4136,
      "Ġcritical": 4137,
      "Ġadvert": 4138,
      "Ġmilk": 4139,
      "','": 4140,
      "Ġcool": 4141,
      "Ġmixture": 4142,
      "Ġet": 4143,
      "Ġrepe": 4144,
      "YPE": 4145,
      "Ġmiddle": 4146,
      "Ġforce": 4147,
      "ĠAre": 4148,
      "Ġ21": 4149,
      "ighb": 4150,
      "Ġwhole": 4151,
      "Ġeconomy": 4152,
      "arah": 4153,
      "Ġshap": 4154,
      "Ġinsights": 4155,
      "ltk": 4156,
      "Ġalphabet": 4157,
      "Ġmetap": 4158,
      "ĠFrom": 4159,
      "REATE": 4160,
      "80": 4161,
      "Ġwent": 4162,
      "Ġax": 4163,
      "Ġpeace": 4164,
      "Ġsignificance": 4165,
      "Ġlinked": 4166,
      "ĠAut": 4167,
      "author": 4168,
      "Ġpollution": 4169,
      "Ġprinci": 4170,
      "NN": 4171,
      "cher": 4172,
      "like": 4173,
      "Ġcele": 4174,
      "UT": 4175,
      "anger": 4176,
      "argin": 4177,
      "Ġwatch": 4178,
      "plate": 4179,
      "Ġpatient": 4180,
      "Ġstatus": 4181,
      "ots": 4182,
      "Ġstored": 4183,
      "Ġgeneral": 4184,
      "Ġvary": 4185,
      "Ġbirth": 4186,
      "Ġunits": 4187,
      "]}": 4188,
      "Ġcatch": 4189,
      "Ġrecognition": 4190,
      "Ġaccurate": 4191,
      "customer": 4192,
      "submit": 4193,
      "http": 4194,
      "Ġfilled": 4195,
      "ux": 4196,
      "ĠDate": 4197,
      "format": 4198,
      "address": 4199,
      "[:": 4200,
      "flo": 4201,
      "Ġhol": 4202,
      "Ġmotiv": 4203,
      "Ġsubst": 4204,
      "Get": 4205,
      "ĠGreat": 4206,
      "bit": 4207,
      "soft": 4208,
      "Ġice": 4209,
      "ĠEmploye": 4210,
      "Ġapproximately": 4211,
      "option": 4212,
      "Ġcups": 4213,
      "ĠTABLE": 4214,
      "ios": 4215,
      "pop": 4216,
      "Ġusually": 4217,
      "Ġreli": 4218,
      "Ġsoup": 4219,
      "Ġtheme": 4220,
      "Ġplayers": 4221,
      "Ġsorting": 4222,
      "Ġrise": 4223,
      "Max": 4224,
      "ler": 4225,
      "ĠFrench": 4226,
      "now": 4227,
      "Ġpython": 4228,
      "Ġremain": 4229,
      "Ġimproving": 4230,
      "Ġeveryone": 4231,
      "Ġeggs": 4232,
      "ero": 4233,
      "Ġclient": 4234,
      "Ġpractice": 4235,
      "object": 4236,
      "current": 4237,
      "Ġlabels": 4238,
      "05": 4239,
      "User": 4240,
      "Ġmyst": 4241,
      "Ġchallenging": 4242,
      "Ġmetrics": 4243,
      "Ġtoken": 4244,
      "Ġchem": 4245,
      "Ġmap": 4246,
      "Ġreviews": 4247,
      "ĠIngredients": 4248,
      "oyal": 4249,
      "atives": 4250,
      "Ġaccurately": 4251,
      "predict": 4252,
      "imin": 4253,
      "ĠLear": 4254,
      "Ġsports": 4255,
      "Ġbag": 4256,
      "Ġdescriptive": 4257,
      "go": 4258,
      "Class": 4259,
      "check": 4260,
      "Ġfruit": 4261,
      "Ġhost": 4262,
      "ivot": 4263,
      "Ġvalu": 4264,
      "></": 4265,
      "rain": 4266,
      "Ġcoffee": 4267,
      "12345": 4268,
      "life": 4269,
      "ivery": 4270,
      "Ġentire": 4271,
      "Ġnote": 4272,
      "ĠTechn": 4273,
      "Ġadvance": 4274,
      "error": 4275,
      "Change": 4276,
      "cient": 4277,
      "\"}}": 4278,
      "Ġtrip": 4279,
      "lar": 4280,
      "values": 4281,
      "first": 4282,
      "more": 4283,
      "Ġfibonacci": 4284,
      "ublic": 4285,
      "Ġ60": 4286,
      "Ġtail": 4287,
      "Ġmechan": 4288,
      "Ġinvolved": 4289,
      "Length": 4290,
      "elcome": 4291,
      "ancing": 4292,
      "Ġbread": 4293,
      "iost": 4294,
      "Ġclasses": 4295,
      "Ġund": 4296,
      "Ġwar": 4297,
      "ament": 4298,
      "Ġemploy": 4299,
      "ography": 4300,
      "Ġpainting": 4301,
      "het": 4302,
      "Ġnltk": 4303,
      "ission": 4304,
      "ops": 4305,
      "ĠScala": 4306,
      "ĠCustomer": 4307,
      "Ġanalyzing": 4308,
      "iostream": 4309,
      "Ġarticles": 4310,
      "Ġskin": 4311,
      "Ġreversed": 4312,
      "aching": 4313,
      "ĠProgram": 4314,
      "DO": 4315,
      "LP": 4316,
      "Ġdecre": 4317,
      "ufact": 4318,
      "orry": 4319,
      "Ġmath": 4320,
      "ister": 4321,
      "Ġreasoning": 4322,
      "rror": 4323,
      "cat": 4324,
      "rist": 4325,
      "relu": 4326,
      "ĠĠĠĠĠĠĠĠĠĠĠ": 4327,
      "erge": 4328,
      "ector": 4329,
      "Ġdecimal": 4330,
      "Ġsynt": 4331,
      "Ġprotagonist": 4332,
      "Ġengagement": 4333,
      "Ġsecret": 4334,
      "ley": 4335,
      "ango": 4336,
      "valid": 4337,
      "Ġgender": 4338,
      "ellow": 4339,
      "Ġsection": 4340,
      "ĠKEY": 4341,
      "Product": 4342,
      "ĠEurope": 4343,
      "Ġfiles": 4344,
      "Ġanx": 4345,
      "Ġgenre": 4346,
      "Ġnavigate": 4347,
      "othing": 4348,
      "Ġsaw": 4349,
      "Ġaw": 4350,
      "pot": 4351,
      "inte": 4352,
      "Ġextra": 4353,
      "selves": 4354,
      "apan": 4355,
      "Ġtrying": 4356,
      "net": 4357,
      "Ġ\",": 4358,
      "ride": 4359,
      "Ġchopped": 4360,
      "Ġpressure": 4361,
      "60": 4362,
      "SV": 4363,
      "Ġrecy": 4364,
      "Submit": 4365,
      "Ġdom": 4366,
      "Ġknew": 4367,
      "Ġevaluate": 4368,
      "Ġinvent": 4369,
      "Ġolive": 4370,
      "person": 4371,
      "ĠĠĉ": 4372,
      "Ġpalindrome": 4373,
      "ĠUp": 4374,
      "eue": 4375,
      "eter": 4376,
      "Ġju": 4377,
      "known": 4378,
      "Ġconflict": 4379,
      "Col": 4380,
      "Ġinit": 4381,
      "ĠDec": 4382,
      "Ġfeet": 4383,
      "Ġparticularly": 4384,
      "Ġflour": 4385,
      "icing": 4386,
      "__':": 4387,
      "sequence": 4388,
      "Ġgather": 4389,
      "otes": 4390,
      "ervice": 4391,
      "Phone": 4392,
      "iles": 4393,
      "achine": 4394,
      "Ġdepending": 4395,
      "ny": 4396,
      "Ġappli": 4397,
      "ses": 4398,
      "sal": 4399,
      "ened": 4400,
      "Ġ'__": 4401,
      "ĠRead": 4402,
      "Ġcareer": 4403,
      "Ġgold": 4404,
      "Ġemerg": 4405,
      "Ġrevenue": 4406,
      "Ġincorporating": 4407,
      "Ġ28": 4408,
      "Ġdiscover": 4409,
      "Ġocean": 4410,
      "ĠItal": 4411,
      "Ġsafe": 4412,
      "Ġdelicious": 4413,
      "ĠPar": 4414,
      "Ġdiverse": 4415,
      "ocation": 4416,
      "Ġfire": 4417,
      "endent": 4418,
      "Ġparse": 4419,
      "car": 4420,
      "Ġmeal": 4421,
      "Ġtesting": 4422,
      "Ġĉĉ": 4423,
      "Ġplanning": 4424,
      "Ġremote": 4425,
      "Ġmultipl": 4426,
      "ube": 4427,
      "}>": 4428,
      "Ġlost": 4429,
      "ĠTime": 4430,
      "Ġfinds": 4431,
      "Ġequipment": 4432,
      "ÂłÂł": 4433,
      "Ġ23": 4434,
      "Ġmonths": 4435,
      "Ġcontribute": 4436,
      "Ġ22": 4437,
      "Ġchatbot": 4438,
      "Ġcomputing": 4439,
      "encies": 4440,
      "pat": 4441,
      "Ġexact": 4442,
      "token": 4443,
      "ðŁ": 4444,
      "iter": 4445,
      "host": 4446,
      "ĠCREATE": 4447,
      "Ġadjectives": 4448,
      "Ġtense": 4449,
      "Ġdress": 4450,
      "Ġhumans": 4451,
      "ĠInitialize": 4452,
      "Wh": 4453,
      "Ġrates": 4454,
      "books": 4455,
      "wh": 4456,
      "rill": 4457,
      "Ġmultip": 4458,
      "Ġmenu": 4459,
      "Ġmedian": 4460,
      "Ġfarm": 4461,
      "Ġwild": 4462,
      "Ġoutcomes": 4463,
      "weight": 4464,
      "Ġsynonym": 4465,
      "tain": 4466,
      "Ġtrust": 4467,
      "uted": 4468,
      "urity": 4469,
      "quential": 4470,
      "ialog": 4471,
      "uc": 4472,
      "rel": 4473,
      "ĠEns": 4474,
      "Ġcells": 4475,
      "Ġvolume": 4476,
      "`.": 4477,
      "Ġlonger": 4478,
      "Ġrh": 4479,
      "hesis": 4480,
      "Ġpolitical": 4481,
      "Ġtook": 4482,
      "Ġposts": 4483,
      "RDER": 4484,
      "Ġmargin": 4485,
      "ĠJack": 4486,
      "being": 4487,
      "13": 4488,
      "rec": 4489,
      "ĠAv": 4490,
      "ole": 4491,
      "Ġclick": 4492,
      "My": 4493,
      "target": 4494,
      "ĠFurther": 4495,
      "ubble": 4496,
      "ĠCode": 4497,
      "Ġimmed": 4498,
      "Ġfitness": 4499,
      "att": 4500,
      "Ġexh": 4501,
      "position": 4502,
      "rition": 4503,
      "hello": 4504,
      "ĠSarah": 4505,
      "ili": 4506,
      "Ġtechnique": 4507,
      "Add": 4508,
      "Ġcand": 4509,
      "Ġrepl": 4510,
      "Ġgain": 4511,
      "uly": 4512,
      "Ġones": 4513,
      "news": 4514,
      "bar": 4515,
      "amm": 4516,
      "Ġresponsible": 4517,
      "ĠSocial": 4518,
      "irus": 4519,
      "Ġbrief": 4520,
      "Ġstop": 4521,
      "antity": 4522,
      "Ġrules": 4523,
      "Ġinputs": 4524,
      "Ġvol": 4525,
      "apter": 4526,
      "etime": 4527,
      "Ġvowels": 4528,
      "---|": 4529,
      "ĠHer": 4530,
      "Ġencrypt": 4531,
      "Ġaccomplish": 4532,
      "Ġsummer": 4533,
      "Ġindustries": 4534,
      "ĠMySQL": 4535,
      "ĠIndia": 4536,
      "lies": 4537,
      "Ġstates": 4538,
      "Ġauthent": 4539,
      "Ġmiles": 4540,
      "ĠBuild": 4541,
      "ks": 4542,
      "icial": 4543,
      "erred": 4544,
      "Ġsand": 4545,
      "Ġfigure": 4546,
      "Ġtouch": 4547,
      "Ġ''": 4548,
      "ĠChar": 4549,
      "Ġarguments": 4550,
      "rate": 4551,
      "width": 4552,
      "Ġmodified": 4553,
      "255": 4554,
      "ĠAf": 4555,
      "irm": 4556,
      "AM": 4557,
      "Ġsil": 4558,
      "verb": 4559,
      "ĠMay": 4560,
      "augh": 4561,
      "content": 4562,
      "At": 4563,
      "Ġexcept": 4564,
      "Ġrect": 4565,
      "Ġmanner": 4566,
      "ai": 4567,
      "choice": 4568,
      "box": 4569,
      "Ġ\");": 4570,
      "ĠRandom": 4571,
      "ocument": 4572,
      "Ġscenari": 4573,
      "hold": 4574,
      "ĠForm": 4575,
      "Ġprintf": 4576,
      "aster": 4577,
      "ĠâĢĺ": 4578,
      "Ġtur": 4579,
      "Ġround": 4580,
      "Ġtwe": 4581,
      "ronic": 4582,
      "Ġyourself": 4583,
      "ceed": 4584,
      "Ġinvolve": 4585,
      "\",\"": 4586,
      "Ġrecurs": 4587,
      "ĠThank": 4588,
      "Ġthoughts": 4589,
      "ply": 4590,
      "hand": 4591,
      "Ġsplit": 4592,
      "Ġhalf": 4593,
      "UP": 4594,
      "orest": 4595,
      "ervation": 4596,
      "Ġroutine": 4597,
      "acks": 4598,
      "Ġevidence": 4599,
      "Ġengage": 4600,
      "Ġmovement": 4601,
      "--|": 4602,
      "Ġremind": 4603,
      "ĠSmith": 4604,
      "stac": 4605,
      "Ġthinking": 4606,
      "ĠInstructions": 4607,
      "Ġstars": 4608,
      "cal": 4609,
      "abc": 4610,
      "Ġsuitable": 4611,
      "ĠWar": 4612,
      "ĠAct": 4613,
      "ĠInclude": 4614,
      "Ġcaused": 4615,
      "Ġquantity": 4616,
      "reme": 4617,
      "Ġded": 4618,
      "quest": 4619,
      "ĠORDER": 4620,
      "success": 4621,
      "Ġsend": 4622,
      "Ġcommit": 4623,
      "wise": 4624,
      "Ġrelax": 4625,
      "Ġec": 4626,
      "Ġteacher": 4627,
      "Ġexpected": 4628,
      "Ġparty": 4629,
      "Ġcircle": 4630,
      "Age": 4631,
      "Ġplastic": 4632,
      "Ġacade": 4633,
      "sem": 4634,
      "isine": 4635,
      "Map": 4636,
      "anges": 4637,
      "ĠHealth": 4638,
      "Ġstores": 4639,
      "Ġmanufact": 4640,
      "ĠJapan": 4641,
      "irl": 4642,
      "Ġdescending": 4643,
      "Ġgetting": 4644,
      "Ġaware": 4645,
      "che": 4646,
      "Ġfish": 4647,
      "Ġsatisfaction": 4648,
      "Ġadvantages": 4649,
      "40": 4650,
      "500": 4651,
      "edy": 4652,
      "bu": 4653,
      "Ġrelease": 4654,
      "itter": 4655,
      "idge": 4656,
      "ĠWord": 4657,
      "ĠIntroduction": 4658,
      "`,": 4659,
      "ached": 4660,
      "Ġmaintaining": 4661,
      "ĠEnsure": 4662,
      "Cl": 4663,
      "ume": 4664,
      "**:": 4665,
      "Ġwindow": 4666,
      "Ġbrain": 4667,
      "volution": 4668,
      "Ġpages": 4669,
      "Ġbelieve": 4670,
      "Ġchecks": 4671,
      "Ġarchitecture": 4672,
      "ĠComput": 4673,
      "True": 4674,
      "Ġimplementing": 4675,
      "izza": 4676,
      "illa": 4677,
      "gment": 4678,
      "Ġlabel": 4679,
      "Ġoccurren": 4680,
      "Ġpet": 4681,
      "Ġmoon": 4682,
      "holder": 4683,
      "Ġgames": 4684,
      "Ġrich": 4685,
      "strings": 4686,
      "Ġexpenses": 4687,
      "straint": 4688,
      "ĠMod": 4689,
      "rating": 4690,
      "rem": 4691,
      "Ġfix": 4692,
      "ĠTools": 4693,
      "Ġhabit": 4694,
      "\"?": 4695,
      "Ġ($": 4696,
      "Ġexpand": 4697,
      "UR": 4698,
      "Ġcame": 4699,
      "pan": 4700,
      "world": 4701,
      "Ġdam": 4702,
      "atex": 4703,
      "Ġobstac": 4704,
      "ĠFurthermore": 4705,
      "Ġplayed": 4706,
      "ĠTest": 4707,
      "ĠDeterm": 4708,
      "Ġdynamic": 4709,
      "=['": 4710,
      "Ġadventure": 4711,
      "Ad": 4712,
      "rew": 4713,
      "nswer": 4714,
      "anging": 4715,
      "cular": 4716,
      "very": 4717,
      "duces": 4718,
      "She": 4719,
      "Ġconsumption": 4720,
      "cling": 4721,
      "Ġmatter": 4722,
      "ĠComm": 4723,
      "Ġdelivery": 4724,
      "bl": 4725,
      "Ġreasons": 4726,
      "Ġten": 4727,
      "free": 4728,
      "pped": 4729,
      "Ġborder": 4730,
      "Ġ45": 4731,
      "ension": 4732,
      "autiful": 4733,
      "Ġanxiety": 4734,
      "CD": 4735,
      "orial": 4736,
      "Ġkit": 4737,
      "Ġcoordin": 4738,
      "-|": 4739,
      "Ġpivot": 4740,
      "ĠHey": 4741,
      "Ġloyal": 4742,
      "ĠLearning": 4743,
      "umn": 4744,
      "Ġcelebr": 4745,
      "ony": 4746,
      "ĠAlso": 4747,
      "Ġcapture": 4748,
      "Form": 4749,
      "osition": 4750,
      "Ġ80": 4751,
      "Ġmorning": 4752,
      ")/": 4753,
      "ĠRE": 4754,
      "ĠSol": 4755,
      "ĠBook": 4756,
      "Ġdivisible": 4757,
      "ades": 4758,
      "Ġefficiently": 4759,
      "ban": 4760,
      "Ġ\")": 4761,
      "90": 4762,
      "Ġ})": 4763,
      "Ġcomparis": 4764,
      "ĠSecurity": 4765,
      "Ġchemical": 4766,
      "Ġbed": 4767,
      "ils": 4768,
      "erate": 4769,
      "Ġforward": 4770,
      "emic": 4771,
      "Ġprojects": 4772,
      "Ġfaster": 4773,
      "Ġdepth": 4774,
      "Ġsignificantly": 4775,
      "Ġpayment": 4776,
      "Ġnumerous": 4777,
      "Ġwoman": 4778,
      "Ġshell": 4779,
      "Ġreading": 4780,
      "Ġdocuments": 4781,
      "Ġstir": 4782,
      "fulness": 4783,
      "Ġcentury": 4784,
      "olumn": 4785,
      "Act": 4786,
      "onom": 4787,
      "Ġarrays": 4788,
      "ĠVal": 4789,
      "Ġnarrative": 4790,
      "ĠHigh": 4791,
      "Ġdetail": 4792,
      "(),": 4793,
      "Ġfeelings": 4794,
      "Ġcars": 4795,
      "Ġstudies": 4796,
      "Error": 4797,
      "Ġoutside": 4798,
      "lib": 4799,
      "Ġappreci": 4800,
      "force": 4801,
      "Ġir": 4802,
      "Ġreality": 4803,
      "ously": 4804,
      "Ġspir": 4805,
      "Ġinnovative": 4806,
      "bed": 4807,
      "unning": 4808,
      "Ġ<!": 4809,
      "da": 4810,
      "Ġapply": 4811,
      "Ġ${": 4812,
      "orrow": 4813,
      "Ġinside": 4814,
      "Ġdigit": 4815,
      "Ġcast": 4816,
      "ĠClassify": 4817,
      "Ġchanging": 4818,
      "Ġlandsc": 4819,
      "inf": 4820,
      "Ġclu": 4821,
      "Ġclust": 4822,
      "Ġreaders": 4823,
      "ĠCook": 4824,
      "Ġter": 4825,
      "Ġopportunity": 4826,
      "ĠFlask": 4827,
      "Ġsix": 4828,
      "Ġappealing": 4829,
      "Ġ2020": 4830,
      "Ġfiction": 4831,
      "unctuation": 4832,
      "distance": 4833,
      "Ġdry": 4834,
      "Ġune": 4835,
      "ene": 4836,
      "Ġselection": 4837,
      "Ġassess": 4838,
      "aff": 4839,
      "gon": 4840,
      "Ġ\";": 4841,
      "atitude": 4842,
      "Ġkeywords": 4843,
      "antic": 4844,
      "Ġdisease": 4845,
      "df": 4846,
      "gression": 4847,
      "Ġvill": 4848,
      "ĠMachine": 4849,
      "poons": 4850,
      "ĠAfric": 4851,
      "Ġdead": 4852,
      "overs": 4853,
      "Ġimproved": 4854,
      "Ġpadding": 4855,
      "ĠPR": 4856,
      "Ġopin": 4857,
      "ĠStr": 4858,
      "ifications": 4859,
      "Ġmanaging": 4860,
      "Ġillustr": 4861,
      "Ġball": 4862,
      "ensorflow": 4863,
      "Ġmessages": 4864,
      "osed": 4865,
      "ipping": 4866,
      "ĠIntern": 4867,
      "ĠCal": 4868,
      "ĠCent": 4869,
      "Ġinvestment": 4870,
      "atoes": 4871,
      "Ġinfluence": 4872,
      "from": 4873,
      "Ġmood": 4874,
      "endar": 4875,
      "Ġattract": 4876,
      "Or": 4877,
      "Ġexpert": 4878,
      "orrect": 4879,
      "Ġstyles": 4880,
      "Ġrevolution": 4881,
      "ipher": 4882,
      "iling": 4883,
      "Ġonion": 4884,
      "Ġrecipes": 4885,
      "Ġmention": 4886,
      "ĠDep": 4887,
      "Ġshown": 4888,
      "Ġabilities": 4889,
      "Ġpowder": 4890,
      "Ġbatter": 4891,
      "Ġreally": 4892,
      "Ġintric": 4893,
      "ĠLine": 4894,
      "last": 4895,
      "Ġmis": 4896,
      "igate": 4897,
      "Ġhash": 4898,
      "aim": 4899,
      "level": 4900,
      "ulations": 4901,
      "pected": 4902,
      "Ġjoy": 4903,
      "Ġconsequences": 4904,
      "send": 4905,
      "Ġanything": 4906,
      "Ġvast": 4907,
      "Ġ'{": 4908,
      "Ġorganizations": 4909,
      "Ġtopics": 4910,
      "Prime": 4911,
      "utive": 4912,
      "irect": 4913,
      "Ġinterests": 4914,
      "Ġsit": 4915,
      "Ġcurrently": 4916,
      "ĠAnalyze": 4917,
      "Ġcases": 4918,
      "Ġthemselves": 4919,
      "agrams": 4920,
      "Ġdrive": 4921,
      "ĠSpec": 4922,
      "ky": 4923,
      "ĠOpen": 4924,
      "Ġtemperatures": 4925,
      "Ġestablish": 4926,
      "'d": 4927,
      "Ġdialog": 4928,
      "Ġmeters": 4929,
      "But": 4930,
      "Ġlot": 4931,
      "ĠPo": 4932,
      "ashion": 4933,
      "Ġpresence": 4934,
      "Write": 4935,
      "Ġ...": 4936,
      "ino": 4937,
      "Ġflu": 4938,
      "Ġkeras": 4939,
      "Ġefforts": 4940,
      "area": 4941,
      "ĠConsole": 4942,
      "Ġemails": 4943,
      "Ġupdated": 4944,
      "Ġbit": 4945,
      "Ġsounds": 4946,
      "[\"": 4947,
      "ĠRep": 4948,
      "Ġfox": 4949,
      "Ġnetworks": 4950,
      "Ġindep": 4951,
      "ĠImpro": 4952,
      "Ġtracking": 4953,
      "Ġdescriptions": 4954,
      "ying": 4955,
      "pping": 4956,
      "ĠObject": 4957,
      "Ġproperty": 4958,
      "Ġscene": 4959,
      "sych": 4960,
      "ung": 4961,
      "oded": 4962,
      "Ġremaining": 4963,
      "Ġserve": 4964,
      "ĠIncre": 4965,
      "ĠTitle": 4966,
      "arest": 4967,
      "Ġpercentage": 4968,
      "shape": 4969,
      "Ġextends": 4970,
      "Ġreceive": 4971,
      "\"\"": 4972,
      "Ġconcer": 4973,
      "ĠGive": 4974,
      "Ġdishes": 4975,
      "Ġbecame": 4976,
      "').": 4977,
      "yond": 4978,
      "Ġhands": 4979,
      "Ġprobability": 4980,
      "oration": 4981,
      "ĠResearch": 4982,
      "cellent": 4983,
      "Ġpassage": 4984,
      "lose": 4985,
      "Ġpain": 4986,
      "Ġcold": 4987,
      "fast": 4988,
      "pret": 4989,
      "ĠNow": 4990,
      "Ġregression": 4991,
      "mid": 4992,
      "response": 4993,
      "Ġopp": 4994,
      "ĠRo": 4995,
      "umps": 4996,
      "Ġult": 4997,
      "roller": 4998,
      "Ġpict": 4999,
      "ĠCompare": 5000,
      "'],": 5001,
      ":</": 5002,
      "atory": 5003,
      "Ġsite": 5004,
      "Ġfindings": 5005,
      "Ġprotein": 5006,
      "Ġvideos": 5007,
      "Ġencourage": 5008,
      "Ġshift": 5009,
      "Ġenable": 5010,
      "ARY": 5011,
      "Ġsuggestions": 5012,
      "gree": 5013,
      "ctors": 5014,
      "Ġlived": 5015,
      "raft": 5016,
      "Ġacademic": 5017,
      "ĠMax": 5018,
      "Ġdeveloped": 5019,
      "Ġlayers": 5020,
      "Ġtomatoes": 5021,
      "Ġtit": 5022,
      "Ġregard": 5023,
      "Ġgot": 5024,
      "Ġbelong": 5025,
      "ĠSupp": 5026,
      "ĠTom": 5027,
      "usive": 5028,
      "ĠNext": 5029,
      "Ġpolicy": 5030,
      "Ġaspects": 5031,
      "stock": 5032,
      "Ġbeach": 5033,
      "uracy": 5034,
      "ĠGood": 5035,
      "Ġcounts": 5036,
      "anish": 5037,
      "());": 5038,
      "Ġready": 5039,
      "Ġgarden": 5040,
      "Ġinfra": 5041,
      "UM": 5042,
      "Ġancient": 5043,
      "rought": 5044,
      "Ġrot": 5045,
      "Ġspent": 5046,
      "Table": 5047,
      "gex": 5048,
      "Ġlogical": 5049,
      "ĠAnswer": 5050,
      "ifies": 5051,
      "Ġexperiment": 5052,
      "Ġpractical": 5053,
      "?\"": 5054,
      "Ġdp": 5055,
      "ĠBeautiful": 5056,
      "Ġbottom": 5057,
      "ership": 5058,
      "ocolate": 5059,
      ":\",": 5060,
      "Ġfear": 5061,
      "Click": 5062,
      "ĠAND": 5063,
      "stance": 5064,
      "Ġsett": 5065,
      "Ġlowercase": 5066,
      "Ġphotos": 5067,
      "ĠRedu": 5068,
      "ĠIter": 5069,
      "Ġthreat": 5070,
      "POST": 5071,
      "####": 5072,
      "Ġgroc": 5073,
      "ĠState": 5074,
      "Ġdestination": 5075,
      "Ġmetaphor": 5076,
      "xy": 5077,
      "enance": 5078,
      "ĠAb": 5079,
      "Ġimpacts": 5080,
      "Ġchann": 5081,
      "ĠMult": 5082,
      "Ġ90": 5083,
      "Ġboolean": 5084,
      "ING": 5085,
      "Ġfront": 5086,
      "Ġseparate": 5087,
      "Ġconstraint": 5088,
      "Ġgrade": 5089,
      "ĠDetermine": 5090,
      "Ġwalking": 5091,
      "Ġscale": 5092,
      "Ġking": 5093,
      "Ġlapt": 5094,
      "Ġdepartment": 5095,
      "Ġvaluable": 5096,
      "Ġburn": 5097,
      "image": 5098,
      "ĠCelsius": 5099,
      "ĠGe": 5100,
      "Ġanalyt": 5101,
      "Ġimplemented": 5102,
      "oke": 5103,
      "Ġfully": 5104,
      "Ġstarts": 5105,
      "Ġbeginning": 5106,
      "UNT": 5107,
      "ried": 5108,
      "Ġearth": 5109,
      "Ġcombine": 5110,
      "24": 5111,
      "Ġcross": 5112,
      "ibilities": 5113,
      "Ġtensorflow": 5114,
      "Ġmatches": 5115,
      "Ġdance": 5116,
      "Ġnodes": 5117,
      "Ġrap": 5118,
      "ourage": 5119,
      "Ġyog": 5120,
      "letter": 5121,
      "Ġcomparison": 5122,
      "Ġalign": 5123,
      "ensive": 5124,
      "ĠExample": 5125,
      "oices": 5126,
      "tf": 5127,
      "erver": 5128,
      "Ġcalculating": 5129,
      "Ġyet": 5130,
      "Ġcouldn": 5131,
      "Ġvisited": 5132,
      "fer": 5133,
      "ned": 5134,
      "then": 5135,
      "Ġseed": 5136,
      "txt": 5137,
      "urt": 5138,
      "ache": 5139,
      "Ġpromoting": 5140,
      "ĠEl": 5141,
      "ustomers": 5142,
      "ĠChrist": 5143,
      "Ġdistribution": 5144,
      "pecial": 5145,
      "Ġgreenhouse": 5146,
      "Ġprec": 5147,
      "ROUP": 5148,
      "Ġnutrition": 5149,
      "${": 5150,
      "cost": 5151,
      "Ġoutputs": 5152,
      "Ġrespond": 5153,
      "Str": 5154,
      "US": 5155,
      "ĠMany": 5156,
      "IMARY": 5157,
      "Ġbeyond": 5158,
      "gricult": 5159,
      "sets": 5160,
      "Ġinterested": 5161,
      "Ġconcerns": 5162,
      "mp": 5163,
      "ĠAccording": 5164,
      "Button": 5165,
      "icy": 5166,
      "vector": 5167,
      "ĠGra": 5168,
      "perature": 5169,
      "Ġmanip": 5170,
      "Ġmonthly": 5171,
      "Ġleave": 5172,
      "azon": 5173,
      "ration": 5174,
      "Ġbold": 5175,
      "ivil": 5176,
      "Ġhypot": 5177,
      "ĠAmerica": 5178,
      "efficient": 5179,
      "Ġreceived": 5180,
      "ĠAge": 5181,
      "ĠProm": 5182,
      "Ġ('": 5183,
      "ĠMore": 5184,
      "Ġcausing": 5185,
      "ĠAnge": 5186,
      "isms": 5187,
      "Ġattributes": 5188,
      "utations": 5189,
      "Ġ27": 5190,
      "Ġsoil": 5191,
      "Ġdecided": 5192,
      "task": 5193,
      "Ġoffice": 5194,
      "Ġinsp": 5195,
      "Ġexploring": 5196,
      "Ġidentifying": 5197,
      "Ġseconds": 5198,
      "Ġdescribes": 5199,
      "ĠPRIMARY": 5200,
      "Soup": 5201,
      "TP": 5202,
      "Ġmist": 5203,
      "Ġendpoint": 5204,
      "Un": 5205,
      "asure": 5206,
      "ĠPost": 5207,
      "Ġapples": 5208,
      "Ġremember": 5209,
      "ĠUniversity": 5210,
      "cer": 5211,
      "height": 5212,
      "Ġdetermined": 5213,
      "link": 5214,
      "Ġclassifier": 5215,
      "rig": 5216,
      "org": 5217,
      "uth": 5218,
      "Ġrandomly": 5219,
      "Ġreleased": 5220,
      "onic": 5221,
      "Ġidentity": 5222,
      "Ġexerc": 5223,
      "Ġblood": 5224,
      "Ġadvertising": 5225,
      "valuate": 5226,
      "Ġupdates": 5227,
      "acters": 5228,
      "chain": 5229,
      "Ġrice": 5230,
      "Ġcompute": 5231,
      "ĠKeep": 5232,
      "raw": 5233,
      "ĠRemove": 5234,
      "Ġrom": 5235,
      "Ġnoun": 5236,
      "Ġcredit": 5237,
      "hors": 5238,
      "ĠTrain": 5239,
      "merce": 5240,
      "Ġcarry": 5241,
      "sm": 5242,
      "ĠGROUP": 5243,
      "agine": 5244,
      "Ġqual": 5245,
      "Ġwin": 5246,
      "users": 5247,
      "EN": 5248,
      "ato": 5249,
      "Ġpriorit": 5250,
      "Book": 5251,
      "ĠCompose": 5252,
      "Component": 5253,
      "replace": 5254,
      "ĠGerm": 5255,
      "Ġobtain": 5256,
      "Ġeye": 5257,
      "Ġcompleted": 5258,
      "ĠLatex": 5259,
      "Ġcalculated": 5260,
      "Ġrestaurants": 5261,
      "ĠCSV": 5262,
      "Ġvehicles": 5263,
      "ĠExt": 5264,
      "Ġlocations": 5265,
      "chen": 5266,
      "iation": 5267,
      "Ġneighb": 5268,
      "Ġsoon": 5269,
      "Ġmeets": 5270,
      "Ġinfrastructure": 5271,
      "Ġcounter": 5272,
      "arp": 5273,
      "ĠLa": 5274,
      "Ġgrowing": 5275,
      "Ġrepresentation": 5276,
      "Ġpick": 5277,
      "reatest": 5278,
      "part": 5279,
      "with": 5280,
      "route": 5281,
      "Ġbirds": 5282,
      "Ġcompared": 5283,
      "rupt": 5284,
      "Ġvul": 5285,
      "ĠLog": 5286,
      "Ġsupply": 5287,
      "Ġgirl": 5288,
      "output": 5289,
      "Ġwhose": 5290,
      "Ġ2021": 5291,
      "Ġappears": 5292,
      "Ġalternative": 5293,
      "rive": 5294,
      "Ġpairs": 5295,
      "Ġpolicies": 5296,
      "?:": 5297,
      "Field": 5298,
      "radi": 5299,
      "oli": 5300,
      "Ġ'.": 5301,
      "Ġapple": 5302,
      "wo": 5303,
      "Ġflight": 5304,
      "Ġentertain": 5305,
      "Ġgrav": 5306,
      "Ġflowers": 5307,
      "Ġpars": 5308,
      "Ġadds": 5309,
      "pecially": 5310,
      "Ġvibr": 5311,
      "ĠJO": 5312,
      "Ġkeyword": 5313,
      "ESC": 5314,
      "Ġextreme": 5315,
      "ĠDriver": 5316,
      "Ġlogo": 5317,
      "Ġobserv": 5318,
      "Ġphr": 5319,
      "Ġmountain": 5320,
      "pow": 5321,
      "ĠSince": 5322,
      "urch": 5323,
      "ĠLanguage": 5324,
      "ographic": 5325,
      "ey": 5326,
      "Ġinteractions": 5327,
      "Ġoptimal": 5328,
      "Ġregions": 5329,
      "Ġorganized": 5330,
      "Ġdanger": 5331,
      "Ġdivide": 5332,
      "ĠIterate": 5333,
      "=(": 5334,
      "ĠAlex": 5335,
      "Ġetc": 5336,
      "ĠBeautifulSoup": 5337,
      "FF": 5338,
      "NA": 5339,
      "ĠDi": 5340,
      "ĠEnc": 5341,
      "compile": 5342,
      "ĠMar": 5343,
      "ounds": 5344,
      "Ġspaces": 5345,
      "Ġamounts": 5346,
      "Inte": 5347,
      "Ġespecially": 5348,
      "Ġwonder": 5349,
      "Ġstories": 5350,
      "ado": 5351,
      "Ġpassion": 5352,
      "ĠPart": 5353,
      "ĠMet": 5354,
      "Ġproperly": 5355,
      "Ġobstacles": 5356,
      "entle": 5357,
      "Ġdict": 5358,
      "Ġinterpret": 5359,
      "Ġcommunities": 5360,
      "Ġoperation": 5361,
      "Ġmission": 5362,
      "movie": 5363,
      "Ġdefinition": 5364,
      "Ġitself": 5365,
      "Ġputs": 5366,
      "ĠChina": 5367,
      "Ġtreatment": 5368,
      "pack": 5369,
      "cd": 5370,
      "Ġcart": 5371,
      "ĠLast": 5372,
      "ognitive": 5373,
      "Ġinteresting": 5374,
      "Ġinternational": 5375,
      "Qu": 5376,
      "ĠPlan": 5377,
      "OR": 5378,
      "Ġscal": 5379,
      "Ġstructures": 5380,
      "Ġdeliver": 5381,
      "Case": 5382,
      "bles": 5383,
      "reg": 5384,
      "azy": 5385,
      "ĠDon": 5386,
      "models": 5387,
      "Ġonto": 5388,
      "Ġdriving": 5389,
      "Ġcombinations": 5390,
      "Ġcin": 5391,
      "anch": 5392,
      "assed": 5393,
      "Ġ35": 5394,
      "Ġdirectory": 5395,
      "Ġconcepts": 5396,
      "Email": 5397,
      "Ġwa": 5398,
      "Ġrather": 5399,
      "Ġincluded": 5400,
      "ĠSpanish": 5401,
      "Ġreve": 5402,
      "asc": 5403,
      "umin": 5404,
      "getElement": 5405,
      "Ġtrade": 5406,
      "comm": 5407,
      "Ġdiagn": 5408,
      "cout": 5409,
      "ping": 5410,
      "Ġpsych": 5411,
      "Ġprofession": 5412,
      "genre": 5413,
      "Ġthick": 5414,
      "common": 5415,
      "ports": 5416,
      "Ġroute": 5417,
      ">{": 5418,
      "Ġsnow": 5419,
      "Ġimagery": 5420,
      "Ġcreation": 5421,
      "Ġintricate": 5422,
      "kens": 5423,
      "ilit": 5424,
      "Ġgrand": 5425,
      "Ġrecommended": 5426,
      ".,": 5427,
      "category": 5428,
      "Ġaccessible": 5429,
      "Ġoutdo": 5430,
      "ED": 5431,
      "dro": 5432,
      "iately": 5433,
      "Ġhun": 5434,
      "getElementById": 5435,
      "ae": 5436,
      "Ġexcellent": 5437,
      "Ġdeb": 5438,
      "sql": 5439,
      "writ": 5440,
      "Ġeffort": 5441,
      "ians": 5442,
      "Ġcou": 5443,
      "atically": 5444,
      "ĠChe": 5445,
      "Ġcapabilities": 5446,
      "Ġfuel": 5447,
      "frequ": 5448,
      "Ġuseful": 5449,
      "()`": 5450,
      "Ġsorry": 5451,
      "ĠGu": 5452,
      "arian": 5453,
      "Ġsuggests": 5454,
      "Ġhair": 5455,
      "Ġtexture": 5456,
      "Ġconversation": 5457,
      "movies": 5458,
      "osystem": 5459,
      "Ġtechnical": 5460,
      "Ġoperator": 5461,
      "Ġgrid": 5462,
      "Ġpandemic": 5463,
      "making": 5464,
      "Ġkil": 5465,
      ".*": 5466,
      "Ġdates": 5467,
      "Ġnormal": 5468,
      "emale": 5469,
      "Ġplans": 5470,
      "ĠAnal": 5471,
      "Ġcris": 5472,
      "Ġgrammat": 5473,
      "frame": 5474,
      "ĠDespite": 5475,
      "Ġcombined": 5476,
      "Ġprinciples": 5477,
      "Activity": 5478,
      "ĠCreat": 5479,
      "ĠFahrenheit": 5480,
      "Ġwidely": 5481,
      "ĠSent": 5482,
      "quantity": 5483,
      "Ġ[];": 5484,
      "Ġprepare": 5485,
      "Ġmeditation": 5486,
      "Ġbecomes": 5487,
      "Ġmode": 5488,
      "Ġthing": 5489,
      "ada": 5490,
      "ĠNatural": 5491,
      "Ġrecursive": 5492,
      "iction": 5493,
      "Ġstar": 5494,
      "acing": 5495,
      "Ġsimpl": 5496,
      "Object": 5497,
      "Ġfreq": 5498,
      "Ġdoing": 5499,
      "used": 5500,
      "where": 5501,
      "Ġeffectiveness": 5502,
      "ainer": 5503,
      "Ġemotion": 5504,
      "Ġfair": 5505,
      "ĠKing": 5506,
      "Ġsimply": 5507,
      "Ġsensory": 5508,
      "Ġexecute": 5509,
      "Ġimmediately": 5510,
      "ĠIts": 5511,
      "Ġequations": 5512,
      "Ġchanged": 5513,
      "Ġlayout": 5514,
      "Ġestim": 5515,
      "Ġdiseases": 5516,
      "Ġfashion": 5517,
      "Ġyellow": 5518,
      "Ġvan": 5519,
      "Ġorange": 5520,
      "Ġloved": 5521,
      "ĠHello": 5522,
      "Ġshared": 5523,
      "Ġnotes": 5524,
      "Ġprepar": 5525,
      "Ġkeys": 5526,
      "Ġcapacity": 5527,
      "Ġpresentation": 5528,
      "Ġhref": 5529,
      "Ġhelping": 5530,
      "Ġclassic": 5531,
      "Set": 5532,
      "Ġandroid": 5533,
      "parse": 5534,
      "Ġprofile": 5535,
      "Ġtablespoon": 5536,
      "ĠAmazon": 5537,
      "asket": 5538,
      "ĠVe": 5539,
      "Ġhandling": 5540,
      "Ġcooked": 5541,
      "ĠSelect": 5542,
      "ĠOptimize": 5543,
      "ĠItalian": 5544,
      "pus": 5545,
      "Ġclients": 5546,
      "ĠGPT": 5547,
      "DB": 5548,
      "Ġrestr": 5549,
      "ĠHis": 5550,
      "Ġquote": 5551,
      "ĠNational": 5552,
      "Ġeat": 5553,
      "Ġqueue": 5554,
      "Ġmodule": 5555,
      "Ġprofit": 5556,
      "Ġloan": 5557,
      "base": 5558,
      "Ġbur": 5559,
      "Ġ-=": 5560,
      "ĠMicro": 5561,
      "Ġrepresenting": 5562,
      "Ġmole": 5563,
      "Ġjuice": 5564,
      "Ġgives": 5565,
      "Ġplaces": 5566,
      "Ġartist": 5567,
      "Ġdeath": 5568,
      "ĠWill": 5569,
      "Ġfunctionality": 5570,
      "Ġfocu": 5571,
      "Ġprediction": 5572,
      "ondon": 5573,
      "ĠFrance": 5574,
      "ambda": 5575,
      "II": 5576,
      "ĠDay": 5577,
      "Ġscores": 5578,
      "Ġcomputers": 5579,
      "Ġoffering": 5580,
      "Ġsurvey": 5581,
      "Ġelectricity": 5582,
      "filter": 5583,
      "Ġdialogue": 5584,
      "Ġsummarize": 5585,
      "ĠJane": 5586,
      "Ġwebsites": 5587,
      "Ġdidn": 5588,
      "Ġnavigation": 5589,
      "Ġfocused": 5590,
      "Ġmerge": 5591,
      "Ġlack": 5592,
      "Ġtele": 5593,
      "Ġgreatest": 5594,
      "Ġcompl": 5595,
      "Ġplaceholder": 5596,
      "Ġnutri": 5597,
      "ĠImagine": 5598,
      "uming": 5599,
      "ĠNorth": 5600,
      "Ġexperienced": 5601,
      "Ġlinks": 5602,
      "ĠCOUNT": 5603,
      "Ġparents": 5604,
      "salary": 5605,
      "Tree": 5606,
      "Ġinstr": 5607,
      "ĠPot": 5608,
      "]))": 5609,
      "amples": 5610,
      "Ġconven": 5611,
      "ĠGener": 5612,
      "atten": 5613,
      "Ġtransactions": 5614,
      "Ġselected": 5615,
      "Ġinj": 5616,
      "Ġbul": 5617,
      "Ġsubmit": 5618,
      "Ġswitch": 5619,
      "Ġcit": 5620,
      "ĠSouth": 5621,
      "ĠBrit": 5622,
      "ĠThrough": 5623,
      "ĠVis": 5624,
      "Ġiniti": 5625,
      "Ġmultiply": 5626,
      "Ġecosystem": 5627,
      "oph": 5628,
      "Ġlifest": 5629,
      "Sh": 5630,
      "ouns": 5631,
      "ĠAngeles": 5632,
      "\").": 5633,
      "Ġpred": 5634,
      "ĠON": 5635,
      "ĠiPhone": 5636,
      "Ġmoving": 5637,
      "ĠJOIN": 5638,
      "Ġ123": 5639,
      "processing": 5640,
      "vis": 5641,
      "iring": 5642,
      "SELECT": 5643,
      "Ġtablespoons": 5644,
      "Ġconstructor": 5645,
      "Ġframework": 5646,
      "Ġinventory": 5647,
      "]+": 5648,
      "ĠMat": 5649,
      "Ġmagn": 5650,
      "\\\"": 5651,
      "Ġrisks": 5652,
      "Ġinterview": 5653,
      "Ġoptimized": 5654,
      "Ġvalidate": 5655,
      "Ġgift": 5656,
      "Ġfollowed": 5657,
      "Ġlandscape": 5658,
      "Ġexchange": 5659,
      "ĠDESC": 5660,
      "Ġsharing": 5661,
      "formation": 5662,
      "Ġexercises": 5663,
      "icated": 5664,
      "Ġglass": 5665,
      "ĠWeb": 5666,
      "Ġdirectly": 5667,
      "Ġcomfortable": 5668,
      "Math": 5669,
      "fs": 5670,
      "Ġclim": 5671,
      "Ġarrange": 5672,
      "CTYPE": 5673,
      "Ġserving": 5674,
      "marize": 5675,
      "ĠFace": 5676,
      "ĠBr": 5677,
      "Ġleads": 5678,
      "lin": 5679,
      "ĠSplit": 5680,
      "Ġcreativity": 5681,
      "ecute": 5682,
      "Ġcauses": 5683,
      "idents": 5684,
      "Ġspecifically": 5685,
      "55": 5686,
      "Ġic": 5687,
      "Ġgentle": 5688,
      "Ġvac": 5689,
      "Ġfoods": 5690,
      "DOCTYPE": 5691,
      "AX": 5692,
      "fig": 5693,
      "vas": 5694,
      "request": 5695,
      "idx": 5696,
      "Ġcollege": 5697,
      "Ġtheory": 5698,
      "Ġfail": 5699,
      "Ġden": 5700,
      "gs": 5701,
      "Ġcake": 5702,
      "Ġstage": 5703,
      "Ġ31": 5704,
      "Ġafford": 5705,
      "IG": 5706,
      "ĠĠĉĉ": 5707,
      "Ġ<?": 5708,
      "Ġtrained": 5709,
      "Ġrepresented": 5710,
      "Ġcamera": 5711,
      "Ġ\"$": 5712,
      "Ġcopy": 5713,
      "Ġmember": 5714,
      "solving": 5715,
      "Ġwaves": 5716,
      "ĠChange": 5717,
      "Ġdepend": 5718,
      "ENT": 5719,
      "Ġrule": 5720,
      "lications": 5721,
      "Ġfat": 5722,
      "yme": 5723,
      "tree": 5724,
      "Ġthrow": 5725,
      "ĠJust": 5726,
      "commerce": 5727,
      "ryption": 5728,
      "Ġfaced": 5729,
      "Ġconnected": 5730,
      "Ġmultiplication": 5731,
      ")-": 5732,
      "iday": 5733,
      "Ġdoor": 5734,
      "Ġ70": 5735,
      "Ġcuisine": 5736,
      "Ġpizza": 5737,
      "Ġmeat": 5738,
      "ongo": 5739,
      "Ġvegetable": 5740,
      "Ġloyalty": 5741,
      "Ġmit": 5742,
      "ĠWater": 5743,
      "Ġbenefit": 5744,
      "elements": 5745,
      "temp": 5746,
      "Ġnumerical": 5747,
      "Ġphrases": 5748,
      "cles": 5749,
      "dered": 5750,
      "Ġspending": 5751,
      "'),": 5752,
      "det": 5753,
      "Ġwanted": 5754,
      "ulf": 5755,
      "Ġbank": 5756,
      "dest": 5757,
      "Ġrapid": 5758,
      "banana": 5759,
      "Ġsusp": 5760,
      "Ġ36": 5761,
      "uting": 5762,
      "ĠPark": 5763,
      "Ġleader": 5764,
      "Ġdirection": 5765,
      "Content": 5766,
      "Ġsyntax": 5767,
      "atio": 5768,
      "charAt": 5769,
      "Ġwarming": 5770,
      "AI": 5771,
      "Ġslo": 5772,
      "Ġbubble": 5773,
      "Ġalone": 5774,
      "Ġmel": 5775,
      "Ġgradu": 5776,
      "orders": 5777,
      "Ġweak": 5778,
      "Ġworked": 5779,
      "Ġstorm": 5780,
      "Ġsubs": 5781,
      "Ġalert": 5782,
      "stud": 5783,
      "Ġwr": 5784,
      "Ġideal": 5785,
      "ingu": 5786,
      "Ġoptimization": 5787,
      "ison": 5788,
      "Ġfootprint": 5789,
      "Ġhttps": 5790,
      "Te": 5791,
      "Ġovercome": 5792,
      "ĠProcess": 5793,
      "dog": 5794,
      "gy": 5795,
      "Ġconn": 5796,
      "ĠPres": 5797,
      "Ġdecor": 5798,
      "Ġangle": 5799,
      "Ġresol": 5800,
      "jango": 5801,
      "ĠSun": 5802,
      "Ġchain": 5803,
      "cket": 5804,
      "Ġplays": 5805,
      "ĠPlace": 5806,
      "Ġutilize": 5807,
      "Ġawareness": 5808,
      "pes": 5809,
      "Ġcomment": 5810,
      "grade": 5811,
      "Ġvulner": 5812,
      "*)": 5813,
      "pg": 5814,
      "Ġ}'}": 5815,
      "Ġpublished": 5816,
      "ĠSummarize": 5817,
      "WriteLine": 5818,
      "Ġagricult": 5819,
      "CA": 5820,
      "Ġpassed": 5821,
      "Ġreliable": 5822,
      "Integer": 5823,
      "Ġshowc": 5824,
      "ĠSuppose": 5825,
      "ĠSearch": 5826,
      "ĠDuring": 5827,
      "ĠGr": 5828,
      "plicate": 5829,
      "ands": 5830,
      "Ġoperating": 5831,
      "digit": 5832,
      "dy": 5833,
      "high": 5834,
      "arily": 5835,
      "ocal": 5836,
      "ifying": 5837,
      "Ġrights": 5838,
      "Ġmentioned": 5839,
      "lab": 5840,
      "Ġguest": 5841,
      "Ġevol": 5842,
      "ĠImport": 5843,
      "Ġsynonyms": 5844,
      "VER": 5845,
      "Ġorganic": 5846,
      "Ġheavy": 5847,
      "gar": 5848,
      "empt": 5849,
      "iverse": 5850,
      "Ġbreath": 5851,
      "itution": 5852,
      "Ġteams": 5853,
      "ĠÂ": 5854,
      "attle": 5855,
      "Ġ(\"": 5856,
      "Ġincred": 5857,
      "Man": 5858,
      "Type": 5859,
      "itam": 5860,
      "Ġstick": 5861,
      "Ġdegree": 5862,
      "ishing": 5863,
      "event": 5864,
      "rooms": 5865,
      "hips": 5866,
      "Ġeducational": 5867,
      "Numbers": 5868,
      "Ġmerg": 5869,
      "Ġban": 5870,
      "Ġlazy": 5871,
      "Ġvi": 5872,
      "active": 5873,
      "substring": 5874,
      "eled": 5875,
      "Ġcognitive": 5876,
      "Ġleaving": 5877,
      "Ġsettings": 5878,
      "\"))": 5879,
      "Your": 5880,
      "Ġheard": 5881,
      "ĠBoth": 5882,
      "Ġgrammar": 5883,
      "cum": 5884,
      "Ġple": 5885,
      "Ġcapable": 5886,
      "Ġdemonstrate": 5887,
      ")(": 5888,
      "ĠParis": 5889,
      "ĠMin": 5890,
      "ĠGree": 5891,
      "fl": 5892,
      "rs": 5893,
      "Ġtalk": 5894,
      "angular": 5895,
      "Ġdee": 5896,
      "ĠWork": 5897,
      "Ġtea": 5898,
      "cii": 5899,
      "ĠMarketing": 5900,
      "Ġachieving": 5901,
      "ĠCommun": 5902,
      "Ġcats": 5903,
      "Ġdimens": 5904,
      "Ġly": 5905,
      "Ġdrink": 5906,
      "Ġcalls": 5907,
      "ĠTechnology": 5908,
      "reverse": 5909,
      "Ġriver": 5910,
      "ĠBen": 5911,
      "Ġpasta": 5912,
      "Ġcollaboration": 5913,
      "Ġadvancements": 5914,
      "Ġclf": 5915,
      "Ġfrequent": 5916,
      "randint": 5917,
      "Ġfinally": 5918,
      "xygen": 5919,
      "ropy": 5920,
      "Ġvirus": 5921,
      "Ġlaptop": 5922,
      "ipped": 5923,
      "Ġkitchen": 5924,
      "Ġassistance": 5925,
      "azing": 5926,
      "Regression": 5927,
      "HTML": 5928,
      "Ġtom": 5929,
      "istical": 5930,
      "lication": 5931,
      "Ġtraits": 5932,
      "Ġrecently": 5933,
      "Ġconsidering": 5934,
      "Ġuppercase": 5935,
      "Ġunex": 5936,
      "Ġlater": 5937,
      "ĠStudent": 5938,
      ")^": 5939,
      "Ġpatients": 5940,
      "Ġtip": 5941,
      "orough": 5942,
      "ĠCat": 5943,
      "ĠAM": 5944,
      "Ġclothing": 5945,
      "Ġaudio": 5946,
      "clusion": 5947,
      "Ġlaunch": 5948,
      "iant": 5949,
      "upper": 5950,
      "Ġreq": 5951,
      "urance": 5952,
      "Ġsquares": 5953,
      "istory": 5954,
      "Ġcleaning": 5955,
      "run": 5956,
      "omial": 5957,
      "Ġ26": 5958,
      "ĠEnd": 5959,
      "ĠScience": 5960,
      "Ġconsumer": 5961,
      "================": 5962,
      "Ġtick": 5963,
      "Ġeating": 5964,
      "chars": 5965,
      "ĠPol": 5966,
      "Ġlemon": 5967,
      "phant": 5968,
      "Ġgoods": 5969,
      "Ġcreatures": 5970,
      ".\")": 5971,
      "Ġpossess": 5972,
      "Row": 5973,
      "Ġnu": 5974,
      "ĠInter": 5975,
      "Ġcomments": 5976,
      "Ġgenerating": 5977,
      "ĠEmily": 5978,
      "Ġsliced": 5979,
      "1000": 5980,
      "asy": 5981,
      "Ġconstruction": 5982,
      "Ġqueries": 5983,
      "Ġequival": 5984,
      "Ġengineering": 5985,
      "Ġvibrant": 5986,
      "idity": 5987,
      "Ġtemplate": 5988,
      "Ġparameter": 5989,
      "Ġavailability": 5990,
      "transform": 5991,
      "Ġhelped": 5992,
      "Ġsalad": 5993,
      "Classifier": 5994,
      "dimens": 5995,
      "water": 5996,
      "Ġsqrt": 5997,
      "ĠDear": 5998,
      "ĠEduc": 5999,
      "CE": 6000,
      "World": 6001,
      "Ġdinner": 6002,
      "Ġbot": 6003,
      "Ġcorre": 6004,
      "Ġhex": 6005,
      "Ġroll": 6006,
      "Ġresponses": 6007,
      "Ġjoin": 6008,
      "ĠPersonal": 6009,
      "Ġcompetition": 6010,
      "nal": 6011,
      "race": 6012,
      "Ġrelig": 6013,
      "mean": 6014,
      "field": 6015,
      "Ġcards": 6016,
      "Ġedge": 6017,
      "Ġow": 6018,
      "Ġunit": 6019,
      "whel": 6020,
      "Ġpoet": 6021,
      "ĠLink": 6022,
      "Ġinfluenced": 6023,
      "Ġmicro": 6024,
      "ĠItem": 6025,
      "ruit": 6026,
      "equ": 6027,
      "Ġchocolate": 6028,
      "Ġmachines": 6029,
      "ĠOrgan": 6030,
      "Ġretail": 6031,
      "Ġguess": 6032,
      "pared": 6033,
      "Ġbroad": 6034,
      "edIn": 6035,
      "accuracy": 6036,
      "ync": 6037,
      "amily": 6038,
      ")))": 6039,
      "Ġobjectives": 6040,
      "Ġlifestyle": 6041,
      "Ġtall": 6042,
      "enn": 6043,
      "idate": 6044,
      "Ġ2019": 6045,
      "exp": 6046,
      "ĠUpdate": 6047,
      "Ġaf": 6048,
      "Ġgiving": 6049,
      "Ġstreet": 6050,
      "ppers": 6051,
      "Ġdamage": 6052,
      "section": 6053,
      "ilies": 6054,
      "Ġimple": 6055,
      "Ġvegan": 6056,
      "Ġlogic": 6057,
      "OP": 6058,
      "Read": 6059,
      "inger": 6060,
      "ĠType": 6061,
      "ilder": 6062,
      "Ġspend": 6063,
      "Ġachieved": 6064,
      "Ġmaintenance": 6065,
      "Ġscenario": 6066,
      "ira": 6067,
      "Ġjump": 6068,
      "Ġsolid": 6069,
      "chools": 6070,
      "source": 6071,
      "Ġsizes": 6072,
      "icip": 6073,
      "ulated": 6074,
      "ashing": 6075,
      "Model": 6076,
      "[],": 6077,
      "Ġfro": 6078,
      "que": 6079,
      "ĠBar": 6080,
      "Ġenables": 6081,
      "Ġflav": 6082,
      "Ġconfig": 6083,
      "Ġregularly": 6084,
      "Ġiterate": 6085,
      "Ġhttp": 6086,
      "wers": 6087,
      "Ġeth": 6088,
      "Ġchoices": 6089,
      "Ġswap": 6090,
      "Ġboost": 6091,
      "Apple": 6092,
      "Ġwealth": 6093,
      "Ġquantum": 6094,
      "Ġdescribed": 6095,
      "LT": 6096,
      "lim": 6097,
      "xml": 6098,
      "ĠÃ": 6099,
      "ĠTheir": 6100,
      "Ġfib": 6101,
      "imeter": 6102,
      "Ġurban": 6103,
      "local": 6104,
      "ĠEmployee": 6105,
      "ĠSpecifically": 6106,
      "Ġtsp": 6107,
      "uss": 6108,
      "nam": 6109,
      "ool": 6110,
      "Price": 6111,
      "veys": 6112,
      "Ġstunning": 6113,
      "ffective": 6114,
      "ĠFacebook": 6115,
      "sqrt": 6116,
      "Ġsolving": 6117,
      "mber": 6118,
      "Ġflask": 6119,
      "Ġmonitor": 6120,
      "OS": 6121,
      "Ġnest": 6122,
      "ĠLinear": 6123,
      "Vector": 6124,
      "Ġwat": 6125,
      "Ġreduced": 6126,
      "Ġ',": 6127,
      "IMIT": 6128,
      "Key": 6129,
      "2022": 6130,
      "Ġvisualization": 6131,
      "ptoms": 6132,
      "ĠAndroid": 6133,
      "CR": 6134,
      "Over": 6135,
      "Ġweights": 6136,
      "Ġvision": 6137,
      "Ġconversion": 6138,
      "Ġcampaigns": 6139,
      "\\\":": 6140,
      "Ġhear": 6141,
      "rise": 6142,
      "anged": 6143,
      "Ġcalories": 6144,
      "Ġcentral": 6145,
      "products": 6146,
      "Ġvillage": 6147,
      "gins": 6148,
      "vised": 6149,
      "Ġstatistics": 6150,
      "Ġprimes": 6151,
      "Ġherself": 6152,
      "opy": 6153,
      "Task": 6154,
      "pay": 6155,
      "Ġmotion": 6156,
      "Ġseemed": 6157,
      "Ġvisitors": 6158,
      "Ġadvantage": 6159,
      "03": 6160,
      "NS": 6161,
      "illet": 6162,
      "Ġshowcase": 6163,
      "Ġforecast": 6164,
      "dataset": 6165,
      "Ġelectr": 6166,
      "cm": 6167,
      "ĠModel": 6168,
      "(\"%": 6169,
      "ĠIncorpor": 6170,
      "Ġsituations": 6171,
      "Ġequivalent": 6172,
      "]{": 6173,
      "Ġut": 6174,
      "Ġmut": 6175,
      "Ġcourses": 6176,
      "Ġimplements": 6177,
      "!/": 6178,
      "EX": 6179,
      "Ġder": 6180,
      "Ġeco": 6181,
      "ĠOther": 6182,
      "Ġsheet": 6183,
      "Ġattempt": 6184,
      "Ġsem": 6185,
      "ably": 6186,
      "cious": 6187,
      "Ġdietary": 6188,
      "Ġhabits": 6189,
      "EG": 6190,
      "Random": 6191,
      "iking": 6192,
      "squ": 6193,
      "Ġthorough": 6194,
      "Ġheld": 6195,
      "Ġrank": 6196,
      "Ġtried": 6197,
      "arity": 6198,
      "Ġmother": 6199,
      "Ġimplications": 6200,
      "Ġpersonality": 6201,
      "contact": 6202,
      "float": 6203,
      "Ġwinter": 6204,
      "utral": 6205,
      "ĠCome": 6206,
      "Ġcalm": 6207,
      "Ġmal": 6208,
      "ĠIns": 6209,
      "Ġfoss": 6210,
      "Ġcontainer": 6211,
      ">();": 6212,
      "Ġsight": 6213,
      "sear": 6214,
      "usiness": 6215,
      "Ġnothing": 6216,
      "props": 6217,
      "Ġzero": 6218,
      "Ġjobs": 6219,
      "ĠMicrosoft": 6220,
      "Ġpunctuation": 6221,
      "osite": 6222,
      "Ġallowed": 6223,
      "Ġfrequently": 6224,
      "Ġcycle": 6225,
      "Ġtags": 6226,
      "Bu": 6227,
      "iors": 6228,
      "Ġbell": 6229,
      "Ġmanager": 6230,
      "Ġsymbols": 6231,
      "aughter": 6232,
      "Ġoverwhel": 6233,
      "Ġanalytics": 6234,
      "uries": 6235,
      "Ġinformed": 6236,
      "Ġq": 6237,
      "Ġbond": 6238,
      "Ġreads": 6239,
      "Ġwit": 6240,
      "porary": 6241,
      "Ġdogs": 6242,
      "inal": 6243,
      "Ġexhib": 6244,
      "jpg": 6245,
      "Ġpush": 6246,
      "Ġdeal": 6247,
      "ĠBro": 6248,
      "Ġclaim": 6249,
      "Ġconsists": 6250,
      "fol": 6251,
      "Ġresolution": 6252,
      "ĠLIMIT": 6253,
      "Ġunc": 6254,
      "Ġdatetime": 6255,
      "Ġbreaks": 6256,
      "Ġconsistent": 6257,
      "Ġcro": 6258,
      "parent": 6259,
      "[-": 6260,
      "freq": 6261,
      "ictions": 6262,
      "Ġcoding": 6263,
      "ĠAir": 6264,
      "Ġbecoming": 6265,
      "ults": 6266,
      "ags": 6267,
      "osen": 6268,
      "Ġtitles": 6269,
      "Ġunexpected": 6270,
      "ĠOff": 6271,
      "nesses": 6272,
      "28": 6273,
      "AS": 6274,
      "Ġgeneration": 6275,
      "ustral": 6276,
      "ement": 6277,
      "Ġstatistical": 6278,
      "Ġcultures": 6279,
      "Ġfight": 6280,
      "iforn": 6281,
      "Ġsched": 6282,
      "paramet": 6283,
      "ĠTwitter": 6284,
      "oul": 6285,
      "Ġran": 6286,
      "ĠView": 6287,
      "Ġmusical": 6288,
      "AP": 6289,
      "Ġdiced": 6290,
      "Ġheader": 6291,
      "Ġhappiness": 6292,
      "ratic": 6293,
      "Ġduration": 6294,
      "Ġchance": 6295,
      "ĠUnder": 6296,
      "Ġblank": 6297,
      "Ġhous": 6298,
      "lobal": 6299,
      "oday": 6300,
      "Ġfundament": 6301,
      "radius": 6302,
      "efore": 6303,
      "Ġselecting": 6304,
      "Ġmagical": 6305,
      "oxide": 6306,
      "Ġauthentication": 6307,
      "she": 6308,
      "ĠCur": 6309,
      "Ġ#!/": 6310,
      "asts": 6311,
      "reheat": 6312,
      "(`": 6313,
      "Ġcos": 6314,
      "ĠSam": 6315,
      "Ġskillet": 6316,
      "linear": 6317,
      "ĠNote": 6318,
      "itary": 6319,
      "Ġ75": 6320,
      "\"></": 6321,
      "Ġfuels": 6322,
      "Ġannual": 6323,
      "What": 6324,
      "Ġfine": 6325,
      "select": 6326,
      "Ġprioritize": 6327,
      "ev": 6328,
      "adam": 6329,
      "ĠEvery": 6330,
      "Ġduplicates": 6331,
      "ifornia": 6332,
      "cessed": 6333,
      "rown": 6334,
      "atively": 6335,
      "Ġscientists": 6336,
      "Ġnearby": 6337,
      "Ġmanufacturing": 6338,
      "pred": 6339,
      "Ġtimeline": 6340,
      "Ġcreature": 6341,
      "Ġorganize": 6342,
      "Ġkeeping": 6343,
      "Ġhardware": 6344,
      "6789": 6345,
      "Ġbound": 6346,
      "rapy": 6347,
      "Ġlisten": 6348,
      "Ġanyone": 6349,
      "Ġskill": 6350,
      "Ġendl": 6351,
      "posal": 6352,
      "Ġhighlights": 6353,
      "Ġdiscovered": 6354,
      "digits": 6355,
      "Ġremoving": 6356,
      "ĠSalt": 6357,
      "binary": 6358,
      "Words": 6359,
      "Ġtweet": 6360,
      "Ġchannels": 6361,
      "DP": 6362,
      "Password": 6363,
      "aj": 6364,
      "Ġinvoice": 6365,
      "04": 6366,
      "iny": 6367,
      "std": 6368,
      "ccoli": 6369,
      "oftware": 6370,
      "Ġdivided": 6371,
      "Ġcorrectly": 6372,
      "--------------------------------": 6373,
      "Ġaffected": 6374,
      "Ġinnovation": 6375,
      "iam": 6376,
      "Ġhit": 6377,
      "Ġpriv": 6378,
      "Ġsubtract": 6379,
      "Ġwebpage": 6380,
      "Ġfriendly": 6381,
      "ĠClimate": 6382,
      "cap": 6383,
      "Ġorg": 6384,
      "ured": 6385,
      "Ġrecognize": 6386,
      "Print": 6387,
      "eral": 6388,
      "ums": 6389,
      "pons": 6390,
      "Ġstaff": 6391,
      "Ġmedic": 6392,
      "Ġlengths": 6393,
      "On": 6394,
      "berries": 6395,
      "Ġoutline": 6396,
      "Ġpartners": 6397,
      "Ġofficial": 6398,
      "Ġmemories": 6399,
      "Ġoccurrences": 6400,
      "Ġcoordinates": 6401,
      "Ġdevelopers": 6402,
      "Ġcalendar": 6403,
      "istration": 6404,
      "Ġdreams": 6405,
      "Ġsql": 6406,
      "Ġ29": 6407,
      "ĠEle": 6408,
      "Ġupcoming": 6409,
      "Ġrealized": 6410,
      "Ġspeaker": 6411,
      "Ġfossil": 6412,
      "\\.": 6413,
      "sec": 6414,
      "ĠTV": 6415,
      "ĠSecond": 6416,
      "NLP": 6417,
      "ollow": 6418,
      "Ġtransition": 6419,
      "insert": 6420,
      "Ġevalu": 6421,
      "ĠArtificial": 6422,
      "Ġluck": 6423,
      "Ġnearest": 6424,
      "Ġoverview": 6425,
      "Ġworkout": 6426,
      "Ġsearching": 6427,
      "Ġattack": 6428,
      "characters": 6429,
      "Ġdoesn": 6430,
      "Ġautomatically": 6431,
      "Controller": 6432,
      "Ġliterature": 6433,
      "Ġapplied": 6434,
      "ĠWind": 6435,
      "ĠNetwork": 6436,
      "Ġoutcome": 6437,
      "Ġinspir": 6438,
      "})": 6439,
      "edia": 6440,
      "ĠRob": 6441,
      "Ġ34": 6442,
      "Ġfacilit": 6443,
      "Ġencrypted": 6444,
      "can": 6445,
      "Ġcivil": 6446,
      "Ġanagrams": 6447,
      "ĠHum": 6448,
      "avas": 6449,
      "Ġgoes": 6450,
      "Ġexpressions": 6451,
      "den": 6452,
      "roup": 6453,
      "Ġobjective": 6454,
      "dio": 6455,
      "Ġshapes": 6456,
      "Rec": 6457,
      "mond": 6458,
      "Ġinternal": 6459,
      "uten": 6460,
      "ĠAlice": 6461,
      "Ġserved": 6462,
      "iginal": 6463,
      "Ġscheme": 6464,
      "Ġcraft": 6465,
      "Ġspirit": 6466,
      "Jane": 6467,
      "Ġformal": 6468,
      "Ġpresented": 6469,
      "ference": 6470,
      "wide": 6471,
      "Ġbre": 6472,
      "ĠHome": 6473,
      "2023": 6474,
      "Ġlighting": 6475,
      "aming": 6476,
      "bert": 6477,
      "ĠConnect": 6478,
      "itement": 6479,
      "Ġweeks": 6480,
      "hetic": 6481,
      "orus": 6482,
      "ĠMus": 6483,
      "ommod": 6484,
      "iture": 6485,
      "rots": 6486,
      "asted": 6487,
      "prene": 6488,
      "Ġwalked": 6489,
      "ĠPage": 6490,
      "Ġreference": 6491,
      "Client": 6492,
      "Ġclues": 6493,
      "Ġhoney": 6494,
      "Ġappoint": 6495,
      "column": 6496,
      "Ġphen": 6497,
      "ĠEvaluate": 6498,
      "results": 6499,
      "ttp": 6500,
      "ĠInstead": 6501,
      "Ġentertainment": 6502,
      "off": 6503,
      "Ġchosen": 6504,
      "pril": 6505,
      "Ġhomes": 6506,
      "related": 6507,
      "It": 6508,
      "Welcome": 6509,
      "fall": 6510,
      "essed": 6511,
      "Ġmeals": 6512,
      "Ġultimately": 6513,
      "Ġcoc": 6514,
      "Ġep": 6515,
      "reeze": 6516,
      "bsite": 6517,
      "Ġtransaction": 6518,
      "________": 6519,
      "Ġoutdoor": 6520,
      "avascript": 6521,
      "la": 6522,
      "sw": 6523,
      "Ġcoming": 6524,
      "Ġsell": 6525,
      "Ġfunctional": 6526,
      "Ġstatements": 6527,
      "reprene": 6528,
      "stdio": 6529,
      "itute": 6530,
      "Ġmamm": 6531,
      "Ġrent": 6532,
      "ĠAg": 6533,
      "employe": 6534,
      "ĠPM": 6535,
      "Ġinches": 6536,
      "Ġdesigns": 6537,
      "verty": 6538,
      "Ġdatasets": 6539,
      "Ġfacing": 6540,
      "anf": 6541,
      "Ġhar": 6542,
      "Ġresource": 6543,
      "Ġadvice": 6544,
      "marks": 6545,
      "ibly": 6546,
      "Ġuniverse": 6547,
      "ĠStore": 6548,
      "Ġgraphics": 6549,
      "Ġastr": 6550,
      "ara": 6551,
      "Ġcancer": 6552,
      "Ġrespect": 6553,
      "Ġapps": 6554,
      "Ġbreakfast": 6555,
      "Im": 6556,
      "orient": 6557,
      "Ġoxygen": 6558,
      "Ġpros": 6559,
      "Ġcomposition": 6560,
      "Ġdioxide": 6561,
      "Ġsymptoms": 6562,
      "ĠAc": 6563,
      "Ġshad": 6564,
      "Ġrare": 6565,
      "Ġminimize": 6566,
      "Listener": 6567,
      "02": 6568,
      "Generate": 6569,
      "document": 6570,
      "Ġmys": 6571,
      "redient": 6572,
      "ustling": 6573,
      "Ġroles": 6574,
      "Ġviews": 6575,
      "Ġslight": 6576,
      "ĠPoint": 6577,
      "ĠLos": 6578,
      "Ġtwist": 6579,
      "ĠTwo": 6580,
      "''": 6581,
      "mn": 6582,
      "voice": 6583,
      "ĠRen": 6584,
      "Ġtruly": 6585,
      "Ġpowers": 6586,
      "ka": 6587,
      "Ġbasket": 6588,
      "Ġjumps": 6589,
      "Ġreports": 6590,
      "Ġgrocery": 6591,
      "orch": 6592,
      "lla": 6593,
      "ĠEnergy": 6594,
      "container": 6595,
      "Ġdecrease": 6596,
      "Ġseek": 6597,
      "Ġtranslation": 6598,
      "Ġacqu": 6599,
      "Ġhydro": 6600,
      "Select": 6601,
      "Ġdeeper": 6602,
      "ynt": 6603,
      "arter": 6604,
      "Color": 6605,
      "Ġgolden": 6606,
      "Ġcyber": 6607,
      "child": 6608,
      "ĠWest": 6609,
      "odd": 6610,
      "ĠFranc": 6611,
      "Ġexpertise": 6612,
      "PA": 6613,
      "Ġease": 6614,
      "Ġproced": 6615,
      "ĠPreheat": 6616,
      "pelling": 6617,
      "ĠJan": 6618,
      "aph": 6619,
      "Ġfiltered": 6620,
      "Ġapart": 6621,
      "sales": 6622,
      "ups": 6623,
      "omin": 6624,
      "letters": 6625,
      "Ġlegal": 6626,
      "Ġestimated": 6627,
      "Ġtomorrow": 6628,
      "Ġtim": 6629,
      "Ġworth": 6630,
      "ĠGreen": 6631,
      "Ġinformative": 6632,
      "optim": 6633,
      "Ġ?>": 6634,
      "EF": 6635,
      "Ġbrought": 6636,
      "ilding": 6637,
      "Ġlistening": 6638,
      "128": 6639,
      "ĠRemember": 6640,
      "Ġahead": 6641,
      "(){": 6642,
      "Ġliterary": 6643,
      "interest": 6644,
      "System": 6645,
      "Ġsuff": 6646,
      "Ġstrange": 6647,
      "Ġcommands": 6648,
      "Ġdomain": 6649,
      "uary": 6650,
      "Ġwomen": 6651,
      "ĠUsers": 6652,
      "IND": 6653,
      "ĠEngine": 6654,
      "CO": 6655,
      "Ġpen": 6656,
      "ascii": 6657,
      "dev": 6658,
      "Ġvehicle": 6659,
      "Ġhoriz": 6660,
      "Ġworkplace": 6661,
      "sentiment": 6662,
      "Ġexpectations": 6663,
      "click": 6664,
      "rot": 6665,
      "Ġrand": 6666,
      "Ġcarefully": 6667,
      "Ġlyrics": 6668,
      "Ġsorts": 6669,
      "Ġexcitement": 6670,
      "Ġrectangle": 6671,
      "Ġphenomen": 6672,
      "ief": 6673,
      "Ġgenerally": 6674,
      "Ġdisplaying": 6675,
      "Check": 6676,
      "tom": 6677,
      "Ġborn": 6678,
      "Ġonions": 6679,
      "encing": 6680,
      "span": 6681,
      "umbled": 6682,
      "alax": 6683,
      "ĠEst": 6684,
      "oosing": 6685,
      "Ġlights": 6686,
      "Ġconstantly": 6687,
      "Ġbattery": 6688,
      "ĠCost": 6689,
      "Ġspin": 6690,
      "Ġindependent": 6691,
      "Ġtu": 6692,
      "chs": 6693,
      "ĠCategor": 6694,
      "Ġstoring": 6695,
      "Ġrising": 6696,
      "++){": 6697,
      "Ġmuse": 6698,
      "ITY": 6699,
      "handle": 6700,
      "Ġproduced": 6701,
      "listen": 6702,
      "Ġmovements": 6703,
      "Ġobj": 6704,
      "Ġclosest": 6705,
      "Ġpal": 6706,
      "Ġwel": 6707,
      "ĠLondon": 6708,
      "appy": 6709,
      "Ġimmers": 6710,
      "Ġparticipants": 6711,
      "Ġbillion": 6712,
      "Ġprofessionals": 6713,
      "ĠBritish": 6714,
      "Ġwait": 6715,
      "Ġutilized": 6716,
      "Ġutilizing": 6717,
      "Ġperspective": 6718,
      "%.": 6719,
      "ocab": 6720,
      "ĠUI": 6721,
      "veloper": 6722,
      "Ġflower": 6723,
      "Ġsavings": 6724,
      "Ġadjective": 6725,
      "dimensional": 6726,
      "Ġinqu": 6727,
      "ĠJune": 6728,
      "Ġformed": 6729,
      "posed": 6730,
      "Arr": 6731,
      "Ġseems": 6732,
      "65": 6733,
      "BC": 6734,
      "atur": 6735,
      "agers": 6736,
      "Ġrace": 6737,
      "Ġgenetic": 6738,
      "Ġexcited": 6739,
      "Ġseeds": 6740,
      "(-": 6741,
      "TTP": 6742,
      "YZ": 6743,
      "Ġstret": 6744,
      "open": 6745,
      "Ġmoves": 6746,
      "Ġstudying": 6747,
      "Ġflexibility": 6748,
      "Ġ>>": 6749,
      "Ġentry": 6750,
      "Ġages": 6751,
      "You": 6752,
      "Ġbeef": 6753,
      "Ġvariations": 6754,
      "Ġblockchain": 6755,
      "Ġpersu": 6756,
      "mail": 6757,
      "Ġath": 6758,
      "\":\"": 6759,
      "Ġremains": 6760,
      "month": 6761,
      ":]": 6762,
      "bash": 6763,
      "iber": 6764,
      "oub": 6765,
      "idential": 6766,
      "ĠonChange": 6767,
      "Ġ(-": 6768,
      "exic": 6769,
      "Ġfamilies": 6770,
      "ĠSequential": 6771,
      "Ġphoto": 6772,
      "ĠArrayList": 6773,
      "ĠCompany": 6774,
      "44": 6775,
      "Me": 6776,
      "Ġvitam": 6777,
      "Ġpron": 6778,
      "Ġlearned": 6779,
      "Ġturned": 6780,
      "Ġmeaningful": 6781,
      "Ġpermutations": 6782,
      "Ġsession": 6783,
      "aby": 6784,
      "Ġincreases": 6785,
      "Ġencryption": 6786,
      "Ġmindfulness": 6787,
      "Ġhotel": 6788,
      "reedom": 6789,
      "35": 6790,
      "Ġisland": 6791,
      "ilos": 6792,
      "ĠMount": 6793,
      "Ġevolution": 6794,
      "Ġwants": 6795,
      "Ġawait": 6796,
      "ĠModify": 6797,
      "Ġkingdom": 6798,
      "ĠMoreover": 6799,
      "Ġdro": 6800,
      "Ġplaced": 6801,
      "Ġminced": 6802,
      "Ġstructured": 6803,
      "diff": 6804,
      "Ġaid": 6805,
      "ĠIP": 6806,
      "rows": 6807,
      "Ġroots": 6808,
      "Ġautomation": 6809,
      "Ġsustainability": 6810,
      "ĠFrancis": 6811,
      "Ġdepict": 6812,
      "Ġconsumers": 6813,
      "Ġasked": 6814,
      "storm": 6815,
      "Ġther": 6816,
      "ĠRoman": 6817,
      "Ġsty": 6818,
      "Ġshop": 6819,
      "Ġpotatoes": 6820,
      "Ġbool": 6821,
      "backs": 6822,
      "Ġprotected": 6823,
      "aight": 6824,
      "break": 6825,
      "Ġfurn": 6826,
      "Ġwalls": 6827,
      "Ġbreeze": 6828,
      "Ġdefined": 6829,
      "Ġpeppers": 6830,
      "express": 6831,
      "Manager": 6832,
      "ogram": 6833,
      "plete": 6834,
      "hern": 6835,
      "Ġdesigning": 6836,
      "lier": 6837,
      "layer": 6838,
      "Ġwrong": 6839,
      "Ġneg": 6840,
      "Ġwear": 6841,
      "ĠBefore": 6842,
      "berry": 6843,
      "Ġnoise": 6844,
      "Ġextensive": 6845,
      "Ġhyper": 6846,
      "Ġincreasingly": 6847,
      "ĠIntelligence": 6848,
      "URL": 6849,
      "categor": 6850,
      "hour": 6851,
      "ĠSur": 6852,
      "ĠPa": 6853,
      "VID": 6854,
      "Ġdrop": 6855,
      "Ġregex": 6856,
      "ĠJo": 6857,
      "Ġoccas": 6858,
      "Ġopening": 6859,
      "Ġcompletely": 6860,
      "Ġmoments": 6861,
      "Ġsongs": 6862,
      "Override": 6863,
      "bb": 6864,
      "close": 6865,
      "Ġfather": 6866,
      "Ġdough": 6867,
      "ords": 6868,
      "Ġminute": 6869,
      "Ġtransfer": 6870,
      "standing": 6871,
      "lessly": 6872,
      "vantages": 6873,
      "power": 6874,
      "Ġepo": 6875,
      "dec": 6876,
      "ayes": 6877,
      "Ġflavors": 6878,
      "Ġaccommod": 6879,
      "dden": 6880,
      "Ġimpacted": 6881,
      "84": 6882,
      "orge": 6883,
      "Ġabsor": 6884,
      "plotlib": 6885,
      "ĠCalifornia": 6886,
      "cross": 6887,
      "entropy": 6888,
      "unique": 6889,
      "ĠUt": 6890,
      "phones": 6891,
      "execute": 6892,
      "Ġbuildings": 6893,
      "Ġappearance": 6894,
      "largest": 6895,
      "ĠAtt": 6896,
      "Ġends": 6897,
      "Ġlogin": 6898,
      "Ġgrew": 6899,
      "ĠEmployees": 6900,
      "Ġvanilla": 6901,
      "Frame": 6902,
      "Gener": 6903,
      "Ġfest": 6904,
      "Ġrecycling": 6905,
      "Ġspam": 6906,
      "ĠWhich": 6907,
      "Ġidentified": 6908,
      "(*)": 6909,
      "27": 6910,
      "Ġwor": 6911,
      "Ġvia": 6912,
      "Ġduplicate": 6913,
      "var": 6914,
      "Ġisol": 6915,
      "ĠEast": 6916,
      "Ġstraight": 6917,
      "Ġprinting": 6918,
      "ĠĠĠĠĠĠĠĠĠĠĠĠĠĠĠ": 6919,
      "even": 6920,
      "longest": 6921,
      "atabase": 6922,
      "Ġwine": 6923,
      "edding": 6924,
      "Ġthough": 6925,
      "Ġinteraction": 6926,
      "Ġprotection": 6927,
      "Ġswim": 6928,
      "88": 6929,
      "zA": 6930,
      "idance": 6931,
      "Ġsudden": 6932,
      "elf": 6933,
      "Ġfeat": 6934,
      "ĠPhys": 6935,
      "Ġschools": 6936,
      "solute": 6937,
      "remove": 6938,
      "asive": 6939,
      "avid": 6940,
      "Ġprepared": 6941,
      "Ġdecl": 6942,
      "Ġpreferred": 6943,
      "ĠAssuming": 6944,
      "dim": 6945,
      "Ġcore": 6946,
      "eth": 6947,
      "ĠAustral": 6948,
      "Ġang": 6949,
      "Ġsunlight": 6950,
      "Ġcollected": 6951,
      "ĠPract": 6952,
      "ĠFit": 6953,
      "nections": 6954,
      "Des": 6955,
      "Ġcube": 6956,
      "ĠSales": 6957,
      "Ġdemonstrates": 6958,
      "Ġhosp": 6959,
      "Ġtrig": 6960,
      "ĠRec": 6961,
      "ĠInteger": 6962,
      "Ġcrow": 6963,
      "itor": 6964,
      "Ġpoverty": 6965,
      "Ġdownload": 6966,
      "Vectorizer": 6967,
      "}{": 6968,
      "Ġadmin": 6969,
      "Ġintroduction": 6970,
      "Ġtal": 6971,
      "usi": 6972,
      "Ġperforming": 6973,
      "Ġhighlighting": 6974,
      "Ġcrack": 6975,
      "](": 6976,
      "eros": 6977,
      "Ġmelo": 6978,
      "Ġatom": 6979,
      "osing": 6980,
      "Ġ150": 6981,
      "Ġsizeof": 6982,
      "Ġincorporates": 6983,
      "Ġcategorize": 6984,
      "ĠSk": 6985,
      "odo": 6986,
      "Ġdetection": 6987,
      "Ġaccounts": 6988,
      "Items": 6989,
      "ĠRegular": 6990,
      "oriented": 6991,
      "lor": 6992,
      "}`": 6993,
      "Ġtrou": 6994,
      "Ġresear": 6995,
      "Ġ')": 6996,
      "Ġscra": 6997,
      "Ġ2022": 6998,
      "ĠIndian": 6999,
      "Ġcircum": 7000,
      "ĠPeople": 7001,
      "Code": 7002,
      "under": 7003,
      "bsp": 7004,
      "Ġdiscounted": 7005,
      "ĠValue": 7006,
      "sect": 7007,
      "ĠTree": 7008,
      "imp": 7009,
      "Ġbeans": 7010,
      "Ġbegins": 7011,
      "ĠIncorporate": 7012,
      "XX": 7013,
      "zy": 7014,
      "ĠHash": 7015,
      "ĠWelcome": 7016,
      "percentage": 7017,
      "Ġcontract": 7018,
      "inese": 7019,
      "2020": 7020,
      "Ġguidance": 7021,
      "Ġfocuses": 7022,
      "ĠSan": 7023,
      "ĠLoop": 7024,
      "osis": 7025,
      "Ġraise": 7026,
      "Ġaims": 7027,
      "Ġrestrictions": 7028,
      "Ġcitiz": 7029,
      "fmt": 7030,
      "Ġpap": 7031,
      "EMENT": 7032,
      "Ġnotable": 7033,
      "Ġcommer": 7034,
      "ĠScanner": 7035,
      "keys": 7036,
      "Ġpricing": 7037,
      "Ġalmost": 7038,
      "Ġclassified": 7039,
      "Ġlooks": 7040,
      "ica": 7041,
      "ĠCut": 7042,
      "Ġapproaches": 7043,
      "currency": 7044,
      "%;": 7045,
      "aten": 7046,
      "urpose": 7047,
      "ulating": 7048,
      "ĠMary": 7049,
      "Contact": 7050,
      "Ġconstraints": 7051,
      "Ġresil": 7052,
      "prise": 7053,
      "ĠPrice": 7054,
      "GET": 7055,
      "gu": 7056,
      "long": 7057,
      "review": 7058,
      "Ġ''.": 7059,
      "Ġdesert": 7060,
      "Ġworkers": 7061,
      "Ġattend": 7062,
      "tokenize": 7063,
      "GB": 7064,
      "Ġdensity": 7065,
      "Ġmemor": 7066,
      "ĠEmail": 7067,
      "Ġshortest": 7068,
      "Ġrouter": 7069,
      "Are": 7070,
      "tu": 7071,
      "Ġdram": 7072,
      "ĠSchool": 7073,
      "Ġintu": 7074,
      "apping": 7075,
      "Ġshel": 7076,
      "arsh": 7077,
      "Ġ199": 7078,
      "poses": 7079,
      "Ġmountains": 7080,
      "Size": 7081,
      "bird": 7082,
      "fr": 7083,
      "Ġfab": 7084,
      "airs": 7085,
      "aborate": 7086,
      "Ġtokens": 7087,
      "Ġmaster": 7088,
      "ĠMongo": 7089,
      "ĠBusiness": 7090,
      "parser": 7091,
      "Ġgreatly": 7092,
      "Ġbalanced": 7093,
      "floor": 7094,
      "localhost": 7095,
      "selection": 7096,
      "ĠBel": 7097,
      "Ġquite": 7098,
      "Ġ2010": 7099,
      "database": 7100,
      "Ġrepeated": 7101,
      "Ġexactly": 7102,
      "ĠTotal": 7103,
      "ĠMix": 7104,
      "ansion": 7105,
      "ervices": 7106,
      "pair": 7107,
      "Ġpicture": 7108,
      "organ": 7109,
      "Ġcomparing": 7110,
      "Ġ*/": 7111,
      "country": 7112,
      "Ġbelieved": 7113,
      "ĠASC": 7114,
      "Ġnutritional": 7115,
      "orous": 7116,
      "Ġseam": 7117,
      "ronics": 7118,
      "Ġkilomet": 7119,
      "Ġnouns": 7120,
      "AD": 7121,
      "celer": 7122,
      "Ġintegrate": 7123,
      "Ġintegration": 7124,
      "ĠBlack": 7125,
      "folio": 7126,
      "Please": 7127,
      "ingredients": 7128,
      "Ġpurchases": 7129,
      "ĠCloud": 7130,
      "Ġslightly": 7131,
      "stract": 7132,
      "Ġamb": 7133,
      "Ġexploration": 7134,
      "Ġoccurs": 7135,
      "Ġaffordable": 7136,
      "Ġmerged": 7137,
      "itutions": 7138,
      "second": 7139,
      "ĠII": 7140,
      "ĠCr": 7141,
      "ĠLook": 7142,
      "Ġimprovement": 7143,
      "Ġforeign": 7144,
      "ij": 7145,
      "Ġreput": 7146,
      "Ġcharacterized": 7147,
      "ikes": 7148,
      "ĠOnline": 7149,
      "Ġsegment": 7150,
      "Ġelimin": 7151,
      "70": 7152,
      "Ġinner": 7153,
      "Ġmarks": 7154,
      "params": 7155,
      "Ġexpensive": 7156,
      "ien": 7157,
      "erious": 7158,
      "Ġda": 7159,
      "ĠLife": 7160,
      "Ġhimself": 7161,
      "Ġfundamental": 7162,
      "erb": 7163,
      "itors": 7164,
      "Ġcompelling": 7165,
      "Ġ400": 7166,
      "Ġindicating": 7167,
      "stanceState": 7168,
      "ĠEducation": 7169,
      "edInstanceState": 7170,
      "ta": 7171,
      "tax": 7172,
      "Ġcher": 7173,
      "Ġdriver": 7174,
      "pathy": 7175,
      "Ġnutrients": 7176,
      "no": 7177,
      "ĠAUT": 7178,
      "ployment": 7179,
      "Ġresponsibilities": 7180,
      "Ġdiscussing": 7181,
      "Ġpriority": 7182,
      "iance": 7183,
      "orange": 7184,
      "analyze": 7185,
      "Ġconver": 7186,
      "Ġconclusion": 7187,
      "Ġincl": 7188,
      "ĠRevolution": 7189,
      "sche": 7190,
      "Ġcompetitive": 7191,
      "Ġign": 7192,
      "ague": 7193,
      "Ġruns": 7194,
      "Ġfiber": 7195,
      "Ġmonitoring": 7196,
      "craft": 7197,
      "Ġfaces": 7198,
      "ĠEd": 7199,
      "Ġincent": 7200,
      "inder": 7201,
      "Ġdesk": 7202,
      "ĠReplace": 7203,
      "Ġstandards": 7204,
      "Ġprefer": 7205,
      "Ġbehaviors": 7206,
      "ĠPresident": 7207,
      "Ġ,": 7208,
      "Ġtut": 7209,
      "owel": 7210,
      "Ġclouds": 7211,
      "mal": 7212,
      "mission": 7213,
      "Ġtow": 7214,
      "Ġnational": 7215,
      "Ġgases": 7216,
      "itely": 7217,
      "Ġ2015": 7218,
      "Ġdepression": 7219,
      "Ġlooked": 7220,
      "Ġaccordingly": 7221,
      "42": 7222,
      "ĠApril": 7223,
      "unte": 7224,
      "ĠPop": 7225,
      "profit": 7226,
      "Ġinvestigate": 7227,
      "Ġsensitive": 7228,
      "Ġmixing": 7229,
      "Ġinitialize": 7230,
      "fibonacci": 7231,
      "night": 7232,
      "palindrome": 7233,
      "ĠTask": 7234,
      "Ġcanvas": 7235,
      "Ġcurrency": 7236,
      "Ġcoast": 7237,
      "Ġaffects": 7238,
      "66": 7239,
      "AN": 7240,
      "Ġrearr": 7241,
      "unk": 7242,
      "Ġentered": 7243,
      "Ġbrowser": 7244,
      "Ġliqu": 7245,
      "Ġlabor": 7246,
      "ĠDiv": 7247,
      "Ġensures": 7248,
      "Ġmilitary": 7249,
      "Ġhousehold": 7250,
      "Ġsurvive": 7251,
      "JSON": 7252,
      "ĠAnt": 7253,
      "Ġabsolute": 7254,
      "Ġengaged": 7255,
      "ĠImproved": 7256,
      "ĠPour": 7257,
      "Ġmetal": 7258,
      "Ġsold": 7259,
      "Ġentreprene": 7260,
      "Ġcutting": 7261,
      "Ġsurrounding": 7262,
      "ĠExtract": 7263,
      "ĠFrancisco": 7264,
      "IS": 7265,
      "uge": 7266,
      "alph": 7267,
      "Ġvital": 7268,
      "uel": 7269,
      "Order": 7270,
      "cr": 7271,
      "inch": 7272,
      "Ġselling": 7273,
      "akers": 7274,
      "Ġquiet": 7275,
      "obj": 7276,
      "match": 7277,
      "Ġblend": 7278,
      "Ġsensors": 7279,
      "Ġsurvival": 7280,
      "Ġmystery": 7281,
      "87": 7282,
      "IP": 7283,
      "Ġsle": 7284,
      "igration": 7285,
      "Ġconnections": 7286,
      "Ġ/*": 7287,
      "Ġspot": 7288,
      "Ġfloor": 7289,
      "ĠKey": 7290,
      "Ġbags": 7291,
      "mus": 7292,
      "Ġconcent": 7293,
      "ĠApply": 7294,
      "Ġreached": 7295,
      "ĠServe": 7296,
      "Ġ300": 7297,
      "erving": 7298,
      "Ġschema": 7299,
      "Ġestablished": 7300,
      "Ġreveal": 7301,
      "CREMENT": 7302,
      "crossentropy": 7303,
      "Ġ33": 7304,
      "Ġ2018": 7305,
      "\"}]}": 7306,
      "Ġalphabetical": 7307,
      "Ġopposite": 7308,
      "powered": 7309,
      "Column": 7310,
      "Ġtbsp": 7311,
      "weather": 7312,
      "track": 7313,
      "Ġseeking": 7314,
      "points": 7315,
      "Ġepochs": 7316,
      "ĠAUTO": 7317,
      "ĠCor": 7318,
      "ographics": 7319,
      "Ġsector": 7320,
      "arser": 7321,
      "INCREMENT": 7322,
      "AC": 7323,
      "Ġsod": 7324,
      "Ġtruth": 7325,
      "Ġrealistic": 7326,
      "OW": 7327,
      "ini": 7328,
      "vere": 7329,
      "Ġshipping": 7330,
      "Ġstraw": 7331,
      "EGER": 7332,
      "double": 7333,
      "ĠInformation": 7334,
      "Ġchoosing": 7335,
      "ipient": 7336,
      "pring": 7337,
      "args": 7338,
      "Ġcalculation": 7339,
      "depth": 7340,
      "Al": 7341,
      "cor": 7342,
      "eric": 7343,
      "Ġtransl": 7344,
      "Ġingredient": 7345,
      "temperature": 7346,
      "Ġremainder": 7347,
      "Each": 7348,
      "otic": 7349,
      "Ġenviron": 7350,
      "ĠLily": 7351,
      "Ġfacts": 7352,
      "ĠInstagram": 7353,
      "Ġstruggles": 7354,
      "Ġprivacy": 7355,
      "Sm": 7356,
      "ĠBra": 7357,
      "Ġgrass": 7358,
      "Ġdistributed": 7359,
      "Ġcorrelation": 7360,
      "No": 7361,
      "leg": 7362,
      "Ġband": 7363,
      "ĠHy": 7364,
      "Ġratio": 7365,
      "Ġteaching": 7366,
      "Ġcompound": 7367,
      "Ġgrades": 7368,
      "Ġ\"\";": 7369,
      "Ġclearly": 7370,
      "drop": 7371,
      "tion": 7372,
      "onut": 7373,
      "Ġcub": 7374,
      "Ġbanana": 7375,
      "ĠMexic": 7376,
      "Ġcontem": 7377,
      "Ġsmell": 7378,
      "Ġexplores": 7379,
      "going": 7380,
      "Path": 7381,
      "ĠĠĠĠĠĠĠĠĠĠĠĠĠĠĠĠĠĠĠĠĠ": 7382,
      "2021": 7383,
      "Ġĉĉĉ": 7384,
      "Ġslices": 7385,
      "ĠAfrican": 7386,
      "ĠGreek": 7387,
      "Ġson": 7388,
      "ĠWhe": 7389,
      "Ġspr": 7390,
      "Ġshowing": 7391,
      "ĠEuropean": 7392,
      "Ġdangerous": 7393,
      "Ġcouple": 7394,
      "two": 7395,
      "Ġslice": 7396,
      "Ġgall": 7397,
      "ago": 7398,
      "Ġabs": 7399,
      "enses": 7400,
      "ĠStreet": 7401,
      "Ġaddresses": 7402,
      "chers": 7403,
      "Ġopinion": 7404,
      "Ġ];": 7405,
      "Ġtender": 7406,
      "Ġwire": 7407,
      "anas": 7408,
      "ĠPat": 7409,
      "odies": 7410,
      "ocado": 7411,
      "conn": 7412,
      "Ġsoph": 7413,
      "proper": 7414,
      "ĠComponent": 7415,
      "ĠInternet": 7416,
      "Ġtechnological": 7417,
      "Ġassigned": 7418,
      "Ġstruggling": 7419,
      "Ġyoga": 7420,
      "Out": 7421,
      "ste": 7422,
      "ĠExp": 7423,
      "language": 7424,
      "math": 7425,
      "Ġlux": 7426,
      "ĠAug": 7427,
      "Ġprecise": 7428,
      "Ġidi": 7429,
      "Ġcontributions": 7430,
      "Ġfigures": 7431,
      "Post": 7432,
      "wind": 7433,
      "Ġpy": 7434,
      "enty": 7435,
      "Ġvend": 7436,
      "Ġsharp": 7437,
      "Ġdisapp": 7438,
      "Ġavg": 7439,
      "Ġbrings": 7440,
      "Ġride": 7441,
      "ĠCategorize": 7442,
      "Ġvert": 7443,
      "Ġamazing": 7444,
      "Ġflag": 7445,
      "ĠChinese": 7446,
      "ĠExper": 7447,
      "Ġsociet": 7448,
      "ds": 7449,
      "Ġnth": 7450,
      "ĠBob": 7451,
      "Ġpeak": 7452,
      "ithmetic": 7453,
      "Ġexecution": 7454,
      "Ġstruggle": 7455,
      "Ġstrengths": 7456,
      "Ġscr": 7457,
      "convert": 7458,
      "Ġending": 7459,
      "Ġviol": 7460,
      "vul": 7461,
      "Ġsad": 7462,
      "Ġfant": 7463,
      "ishes": 7464,
      "ama": 7465,
      "ĠTower": 7466,
      "ĠColumn": 7467,
      "Ġexcel": 7468,
      "Ġconservation": 7469,
      "Ġfinance": 7470,
      "Ġheadline": 7471,
      "Ġphysics": 7472,
      "ĠINTEGER": 7473,
      "ĠContent": 7474,
      "Ġillustrate": 7475,
      "Server": 7476,
      "TYPE": 7477,
      "stamp": 7478,
      "ĠMem": 7479,
      "ĠDescription": 7480,
      "iku": 7481,
      "ĠCOVID": 7482,
      "semb": 7483,
      "Ġappreciate": 7484,
      "ĠGermany": 7485,
      "cape": 7486,
      "ĠRel": 7487,
      "Ġpositions": 7488,
      "Ġopinions": 7489,
      "Ġswe": 7490,
      "strong": 7491,
      "Ġexcl": 7492,
      "Ġcomedy": 7493,
      "Ġdoll": 7494,
      "scale": 7495,
      "ometric": 7496,
      "Ġ'''": 7497,
      "bra": 7498,
      "idget": 7499,
      "ĠPublic": 7500,
      "ĠFood": 7501,
      "Ġattra": 7502,
      "Ġcorner": 7503,
      "ĠAvoid": 7504,
      "All": 7505,
      "Ġtower": 7506,
      "Ġbike": 7507,
      "Ġquad": 7508,
      "ymb": 7509,
      "Ġleadership": 7510,
      "conomic": 7511,
      "Ġfocusing": 7512,
      "tes": 7513,
      "Ġchecking": 7514,
      "Ġrelaxation": 7515,
      "Ġintuitive": 7516,
      "KE": 7517,
      "thead": 7518,
      "Ġtend": 7519,
      "Ġforget": 7520,
      "ushing": 7521,
      "Ġ37": 7522,
      "Ġintense": 7523,
      "Ġserves": 7524,
      "Ġenth": 7525,
      "Ġcolorful": 7526,
      "Ġconfidence": 7527,
      "ĠDetect": 7528,
      "Ur": 7529,
      "core": 7530,
      "occ": 7531,
      "sers": 7532,
      "vision": 7533,
      "Ġwall": 7534,
      "osit": 7535,
      "Ġmatplotlib": 7536,
      "Ġstanding": 7537,
      "Ġlowest": 7538,
      "uffle": 7539,
      "Message": 7540,
      "Ġglow": 7541,
      "Ġstre": 7542,
      "Request": 7543,
      "Ġwatching": 7544,
      "ĠCompute": 7545,
      "ba": 7546,
      "pie": 7547,
      "rc": 7548,
      "orter": 7549,
      "ĠEnter": 7550,
      "restaur": 7551,
      "ĠSmart": 7552,
      "Ġenvironments": 7553,
      "Ġtension": 7554,
      "align": 7555,
      "Ġ2000": 7556,
      "Ġship": 7557,
      "article": 7558,
      "Ġunable": 7559,
      "Ġratings": 7560,
      "Def": 7561,
      "Ġbad": 7562,
      "Ġbought": 7563,
      "ĠCustomers": 7564,
      "Ġ(!": 7565,
      "Ġapplying": 7566,
      "Ġwriter": 7567,
      "overn": 7568,
      "tbody": 7569,
      "inent": 7570,
      "Ġgcd": 7571,
      "igm": 7572,
      "Ġencount": 7573,
      "Ġcontents": 7574,
      "Ġtranslate": 7575,
      "lihood": 7576,
      "ĠâĢ¢": 7577,
      "Ġprimarily": 7578,
      "Ġmessaging": 7579,
      "ĠPerform": 7580,
      "Ġdedicated": 7581,
      "Ġlunch": 7582,
      "ĠColor": 7583,
      "Ġcontinuous": 7584,
      "Ġpsychological": 7585,
      "Ġartists": 7586,
      "::-": 7587,
      "Ġwarmth": 7588,
      "Ġreflects": 7589,
      "123456789": 7590,
      "MI": 7591,
      "names": 7592,
      "Ġdur": 7593,
      "Ġthin": 7594,
      "ĠHave": 7595,
      "Ġresponsibility": 7596,
      "features": 7597,
      "Ġpoems": 7598,
      "Ġautomate": 7599,
      "Ġfilling": 7600,
      "Ġrespectively": 7601,
      "ĠIncreased": 7602,
      "Ġagriculture": 7603,
      "Ġreduction": 7604,
      "Ġrequirement": 7605,
      "gging": 7606,
      "Ġutilizes": 7607,
      "Comm": 7608,
      "Ġforces": 7609,
      "ancy": 7610,
      "Ġpursu": 7611,
      "Ġsupplies": 7612,
      "Ġedges": 7613,
      "Ġvacation": 7614,
      "Ġfeaturing": 7615,
      "hab": 7616,
      "pass": 7617,
      "Ġcovered": 7618,
      "ĠCanada": 7619,
      "Ġdivision": 7620,
      "Ġmixed": 7621,
      "Ġhorizon": 7622,
      "BA": 7623,
      "styles": 7624,
      "Ġreward": 7625,
      "otel": 7626,
      "Ġ((": 7627,
      "Ġunknown": 7628,
      "Ġbuying": 7629,
      "ĠAfrica": 7630,
      "ĠCreating": 7631,
      "Ġpersuasive": 7632,
      "Le": 7633,
      "ÏĢ": 7634,
      "Ġtab": 7635,
      "Ġos": 7636,
      "ĠPower": 7637,
      "orem": 7638,
      "Ġtech": 7639,
      "Ġbusy": 7640,
      "Ġguidelines": 7641,
      "Ġdried": 7642,
      "ACTION": 7643,
      "hered": 7644,
      "Ġthr": 7645,
      "Ġalt": 7646,
      "Ġadopt": 7647,
      "Ġcloves": 7648,
      "Ġsmartphone": 7649,
      "recipes": 7650,
      "oming": 7651,
      "loss": 7652,
      "ĠEnjoy": 7653,
      "Ġcaptures": 7654,
      "Ġneighbor": 7655,
      "nn": 7656,
      "Ġdru": 7657,
      "Ġimpress": 7658,
      "ĠTop": 7659,
      "Result": 7660,
      "Area": 7661,
      "Log": 7662,
      "nic": 7663,
      "ĠAV": 7664,
      "Ġstation": 7665,
      "Ġchronic": 7666,
      "Ġalmond": 7667,
      "Ġbeliefs": 7668,
      "Car": 7669,
      "Ġru": 7670,
      "Ġdepart": 7671,
      "09": 7672,
      "Parser": 7673,
      "Ġhob": 7674,
      "istant": 7675,
      "Ġfinish": 7676,
      "Ġago": 7677,
      "ĠManagement": 7678,
      "recipe": 7679,
      "Bob": 7680,
      "FIND": 7681,
      "bum": 7682,
      "dient": 7683,
      "Ġcater": 7684,
      "ester": 7685,
      "Ġotherwise": 7686,
      "liers": 7687,
      "Ġboy": 7688,
      "feature": 7689,
      "Ġconcern": 7690,
      "Ġlimitations": 7691,
      "Ġsandw": 7692,
      "vuln": 7693,
      "Ne": 7694,
      "Ġpull": 7695,
      "Ġvine": 7696,
      "Ġcorpor": 7697,
      "Ġengines": 7698,
      "ĠOrder": 7699,
      "gender": 7700,
      "pol": 7701,
      "Ġcrypt": 7702,
      "ĠCour": 7703,
      "ĠBig": 7704,
      "Ġtraverse": 7705,
      "Ġsmile": 7706,
      "Ġsubarray": 7707,
      "Ġeventually": 7708,
      "Ġinquir": 7709,
      "'];": 7710,
      "gener": 7711,
      "tip": 7712,
      "ĠTry": 7713,
      "ĠWhy": 7714,
      "Ġpotentially": 7715,
      "Ġapi": 7716,
      "Ġmile": 7717,
      "Ġdense": 7718,
      "Ġreduces": 7719,
      "ĠYear": 7720,
      "ĠElect": 7721,
      "ĠGroup": 7722,
      "toString": 7723,
      "Ġevenly": 7724,
      "Ġinstant": 7725,
      "Ġcalculations": 7726,
      "Ġindicate": 7727,
      "Query": 7728,
      "ĠAccess": 7729,
      "anted": 7730,
      "ĠHTTP": 7731,
      "ĠDNA": 7732,
      "Ġtargeted": 7733,
      "show": 7734,
      "Ġfixed": 7735,
      "Ġpoetry": 7736,
      "IC": 7737,
      "Ġrecover": 7738,
      "info": 7739,
      "Ince": 7740,
      "Ġfulf": 7741,
      "Ġfreedom": 7742,
      "('');": 7743,
      "Ġvalidation": 7744,
      "forEach": 7745,
      "Ġconsec": 7746,
      "ĠTem": 7747,
      "ĠHint": 7748,
      "illing": 7749,
      "Ġherbs": 7750,
      "Ġactual": 7751,
      "Ġworldwide": 7752,
      "Ġauto": 7753,
      "reshold": 7754,
      "Ġlaws": 7755,
      "Ġwildlife": 7756,
      "ĠProcessing": 7757,
      "bf": 7758,
      "ĠSoftware": 7759,
      "SEVER": 7760,
      "Ġfraud": 7761,
      "Ġmysterious": 7762,
      "Ġappliances": 7763,
      "SEVERITY": 7764,
      "mary": 7765,
      "ye": 7766,
      "ĠCam": 7767,
      "ĠClean": 7768,
      "Ġintensity": 7769,
      "ovie": 7770,
      "Ġmyself": 7771,
      "ĠShell": 7772,
      "layout": 7773,
      "Ġlegs": 7774,
      "ĠInstall": 7775,
      "Ġsurrounded": 7776,
      "Ġreminder": 7777,
      "Ġfictional": 7778,
      ":\"": 7779,
      "Python": 7780,
      "Su": 7781,
      "pire": 7782,
      "âĶ": 7783,
      "ename": 7784,
      "ĠInf": 7785,
      "utation": 7786,
      "ĠBo": 7787,
      "INGS": 7788,
      "mod": 7789,
      "Ġtact": 7790,
      "inations": 7791,
      "hem": 7792,
      "Ġjud": 7793,
      "ĠVerse": 7794,
      "ĠAddress": 7795,
      "Ġpurposes": 7796,
      "Ġdisplayed": 7797,
      "Ġgrammatical": 7798,
      "Ġstreets": 7799,
      ")*": 7800,
      "[::-": 7801,
      "Â²": 7802,
      "ĠisPrime": 7803,
      "Ġoffered": 7804,
      "Ġelectronic": 7805,
      "ĠWithout": 7806,
      "Inception": 7807,
      "bur": 7808,
      "Ġexists": 7809,
      "ĠGame": 7810,
      "peration": 7811,
      "Ġexpressed": 7812,
      "Ġrepet": 7813,
      "ERT": 7814,
      "ĠPotter": 7815,
      "!\")": 7816,
      ")+": 7817,
      "othes": 7818,
      "ĠChorus": 7819,
      "Ġcarrots": 7820,
      "ĠCompile": 7821,
      "Ġhabitat": 7822,
      "Ġconsecutive": 7823,
      "!</": 7824,
      "ĠHouse": 7825,
      "Ġauthors": 7826,
      "Ġdetermination": 7827,
      "Ġexciting": 7828,
      "written": 7829,
      "Ġguests": 7830,
      "Ġdimensions": 7831,
      "inated": 7832,
      "Ġreus": 7833,
      "ĠFound": 7834,
      "incip": 7835,
      "ĠAutom": 7836,
      "Let": 7837,
      "stic": 7838,
      "Ġtherapy": 7839,
      "Ġpure": 7840,
      "ĠDense": 7841,
      "ĠJames": 7842,
      "Ġspeaking": 7843,
      "Ġforeach": 7844,
      "allel": 7845,
      "Ġbroth": 7846,
      "Ġprinciple": 7847,
      "Ġbirthday": 7848,
      "FINDINGS": 7849,
      "itational": 7850,
      "Ġ\"<": 7851,
      "ĠNLP": 7852,
      "acent": 7853,
      "anches": 7854,
      "Ġcapability": 7855,
      "Ġoccup": 7856,
      "Ġpredictive": 7857,
      "Exception": 7858,
      "Ġkilometers": 7859,
      "85": 7860,
      "à¤": 7861,
      "ette": 7862,
      "ĠClick": 7863,
      "allow": 7864,
      "Ġspelling": 7865,
      "Ġarrived": 7866,
      "Ġspo": 7867,
      "ĠStand": 7868,
      "Ġcommunic": 7869,
      "Ġanswers": 7870,
      "ĠCollect": 7871,
      "Ġtomato": 7872,
      "Ġdiscovery": 7873,
      "holders": 7874,
      "Builder": 7875,
      "MS": 7876,
      "Sent": 7877,
      "atin": 7878,
      "ĠDig": 7879,
      "ĠDem": 7880,
      "Ġphp": 7881,
      "icks": 7882,
      "Ġcoins": 7883,
      "Ġgets": 7884,
      "Ġverbs": 7885,
      "Load": 7886,
      "Ġlock": 7887,
      "Ġthread": 7888,
      "Ġaside": 7889,
      "ĠPort": 7890,
      "ĠNY": 7891,
      "Ġspark": 7892,
      "pool": 7893,
      "Ġformatting": 7894,
      "Ġgratitude": 7895,
      "Ġbroken": 7896,
      "ĠUSA": 7897,
      "Ġrein": 7898,
      "Ġstim": 7899,
      "though": 7900,
      "uses": 7901,
      "Ġintended": 7902,
      "alculator": 7903,
      "pi": 7904,
      "oto": 7905,
      "ĠGlobal": 7906,
      "Ġbreathing": 7907,
      "ynthesis": 7908,
      "Ġimmersive": 7909,
      ")}": 7910,
      "Ġbreaking": 7911,
      "frequency": 7912,
      "Ġfurniture": 7913,
      "faces": 7914,
      "Ġ\"+": 7915,
      "ĠSUM": 7916,
      "ĠGod": 7917,
      "Ġinvestig": 7918,
      "discounted": 7919,
      "Ġpeaceful": 7920,
      "Ġrapidly": 7921,
      "Palindrome": 7922,
      "stack": 7923,
      "param": 7924,
      "Ġpassing": 7925,
      "Ġdescribing": 7926,
      "iliar": 7927,
      "37": 7928,
      "Ġreaction": 7929,
      "Ġ'';": 7930,
      "else": 7931,
      "Ġspices": 7932,
      "Ġserious": 7933,
      "ĠImp": 7934,
      "spec": 7935,
      "Ġinstrument": 7936,
      "Ġcitizens": 7937,
      "ersity": 7938,
      "rays": 7939,
      "Ġspecify": 7940,
      "Ġrefer": 7941,
      "Ġacceler": 7942,
      "Ġlabeled": 7943,
      "Ġtight": 7944,
      "invoice": 7945,
      "Ġwings": 7946,
      "ĠTre": 7947,
      "Ġyield": 7948,
      "abling": 7949,
      "ĠFriend": 7950,
      "Ġhasht": 7951,
      "Ġcrime": 7952,
      "Ġescape": 7953,
      "Ġinspired": 7954,
      "Ġcodes": 7955,
      "Ġcipher": 7956,
      "raction": 7957,
      "Ġminimal": 7958,
      "Ġclock": 7959,
      "Ġtailored": 7960,
      "Ġcandidate": 7961,
      "ĠCR": 7962,
      "ĠCa": 7963,
      "ĠPredict": 7964,
      "Ġmaze": 7965,
      "Ġsections": 7966,
      "ĠMarch": 7967,
      "Ġparticles": 7968,
      "ĠBlue": 7969,
      "Ġcontinued": 7970,
      "Ġregarding": 7971,
      "Ġenthusi": 7972,
      "family": 7973,
      "Ġwasn": 7974,
      "Ġfa": 7975,
      "activity": 7976,
      "Ġunf": 7977,
      "Ġuns": 7978,
      "ĠWho": 7979,
      "ĠSuper": 7980,
      "ĠInternational": 7981,
      "details": 7982,
      "Fibonacci": 7983,
      "game": 7984,
      "tag": 7985,
      "ĠNature": 7986,
      "Ġdespite": 7987,
      "Ġactually": 7988,
      "Ġmarkets": 7989,
      "Ste": 7990,
      "Ġasync": 7991,
      "asters": 7992,
      "Ġcontinues": 7993,
      "Ġsitting": 7994,
      "31": 7995,
      "Flow": 7996,
      "Ġ;": 7997,
      "Ġsess": 7998,
      "umerate": 7999,
      "Ġexcess": 8000,
      "inkle": 8001,
      "ĠHeat": 8002,
      "Ġevening": 8003,
      "aze": 8004,
      "Ġdifficulty": 8005,
      "ĠJanuary": 8006,
      "incipal": 8007,
      "29": 8008,
      "Mon": 8009,
      "Title": 8010,
      "lie": 8011,
      "Ġnone": 8012,
      "ĠService": 8013,
      "Ġproposal": 8014,
      "mented": 8015,
      "Ġarithmetic": 8016,
      "Ġsear": 8017,
      "oder": 8018,
      "Ġfunding": 8019,
      "EXT": 8020,
      "uling": 8021,
      "Ġprocessed": 8022,
      "aked": 8023,
      "Ġcolon": 8024,
      "Ġparties": 8025,
      "Ġflat": 8026,
      "Ġfrustr": 8027,
      "ALU": 8028,
      "ĠLinearRegression": 8029,
      "Ġfur": 8030,
      "true": 8031,
      "Ġwilling": 8032,
      "Ġsupports": 8033,
      "Art": 8034,
      "Ġslowly": 8035,
      "Ġaxios": 8036,
      "Ġowner": 8037,
      "men": 8038,
      "Ġthous": 8039,
      "Ġweigh": 8040,
      "Ġconsult": 8041,
      "Ġstands": 8042,
      "Ġpopularity": 8043,
      "Ġturns": 8044,
      "Ġconsisting": 8045,
      "ĠArea": 8046,
      "Ġsuspense": 8047,
      "zen": 8048,
      "Ġfle": 8049,
      "icious": 8050,
      "ĠMa": 8051,
      "Ġpoor": 8052,
      "Ġromantic": 8053,
      "First": 8054,
      "Ġbatch": 8055,
      "Ġproposed": 8056,
      "emade": 8057,
      "ander": 8058,
      "Ġraw": 8059,
      "Ġsimulate": 8060,
      "ĠFirstly": 8061,
      "Ġmagic": 8062,
      "orestation": 8063,
      "Ġinitiatives": 8064,
      "Ġ^": 8065,
      "Ġsoul": 8066,
      "ented": 8067,
      "ĠSud": 8068,
      "ĠWhere": 8069,
      "Ġrob": 8070,
      "Ġelev": 8071,
      "Ġperimeter": 8072,
      "ĠUnion": 8073,
      "Ġexperiencing": 8074,
      "posts": 8075,
      "ĠContact": 8076,
      "Ġrhyth": 8077,
      "File": 8078,
      "lambda": 8079,
      "Ġfasc": 8080,
      "urren": 8081,
      "ĠDouble": 8082,
      "Ġ42": 8083,
      "Ġprintln": 8084,
      "Ġ65": 8085,
      "Ġtreasure": 8086,
      "ĠSupport": 8087,
      "Ġvectorizer": 8088,
      ".</": 8089,
      "sample": 8090,
      "Ġincorrect": 8091,
      "Ġdistances": 8092,
      "Ġowners": 8093,
      "Ġpurchased": 8094,
      "Ġpurchasing": 8095,
      "Ġjournal": 8096,
      "Ġbiggest": 8097,
      "ĠJapanese": 8098,
      ".)": 8099,
      "IF": 8100,
      "Ġfmt": 8101,
      "isher": 8102,
      "ĠSqu": 8103,
      "ilt": 8104,
      "Ġcalculator": 8105,
      "Ġoptimizer": 8106,
      "ĠBegin": 8107,
      "Ġsyll": 8108,
      "Ġhousing": 8109,
      "Ġiron": 8110,
      "Ġmyth": 8111,
      "Ġclassroom": 8112,
      "opher": 8113,
      "Ġheap": 8114,
      "unc": 8115,
      "ĠBreak": 8116,
      "ĠLove": 8117,
      "Ġkm": 8118,
      "ĠĠĠĠĠĠĠĠĠĠĠĠĠĠĠĠĠĠĠĠĠĠĠĠĠĠĠĠĠĠĠĠ": 8119,
      "Ġattacks": 8120,
      "Ġbranch": 8121,
      "Ġexceptional": 8122,
      "Ġiconic": 8123,
      "css": 8124,
      "Ġplu": 8125,
      "cto": 8126,
      "ounce": 8127,
      "Ġproduces": 8128,
      "Ġkg": 8129,
      "Ġphilos": 8130,
      "Inter": 8131,
      "Ġclosed": 8132,
      "Ġpackages": 8133,
      "Ġresilience": 8134,
      "<>();": 8135,
      "Event": 8136,
      "Page": 8137,
      "Ġnet": 8138,
      "ĠVector": 8139,
      ".\"}": 8140,
      "template": 8141,
      "Ġtransformed": 8142,
      "Ġmotivation": 8143,
      "Ġmemorable": 8144,
      "real": 8145,
      "Ġwave": 8146,
      "olk": 8147,
      "ĠLI": 8148,
      "ĠStir": 8149,
      "Ġunderlying": 8150,
      "Ġcrust": 8151,
      "ViewById": 8152,
      "Ġhappen": 8153,
      "Mark": 8154,
      "Ġfirm": 8155,
      "endence": 8156,
      "Ġscientist": 8157,
      "Ġcommercial": 8158,
      "ĠMongoDB": 8159,
      "Total": 8160,
      "Ġtast": 8161,
      "Ġdesire": 8162,
      "Ġrose": 8163,
      "ĠParse": 8164,
      "TH": 8165,
      "average": 8166,
      "Ġcovers": 8167,
      "Ġhop": 8168,
      "chol": 8169,
      "essert": 8170,
      "Ġtasked": 8171,
      "ĠHead": 8172,
      "Ġengineer": 8173,
      "Ġrobots": 8174,
      "Acc": 8175,
      "ĠNum": 8176,
      "Ġenabling": 8177,
      "Ġanalog": 8178,
      "Ġpoly": 8179,
      "Ġurg": 8180,
      "Ġintroduced": 8181,
      "ĠCountry": 8182,
      "pattern": 8183,
      "ĠCharacter": 8184,
      "ael": 8185,
      "Ġpod": 8186,
      "Ġmouse": 8187,
      "utter": 8188,
      "ĠGDP": 8189,
      "vention": 8190,
      "Ġ!==": 8191,
      "Ġstronger": 8192,
      "Ġconflicts": 8193,
      "ĠLastly": 8194,
      "student": 8195,
      "ĠInsert": 8196,
      "Aut": 8197,
      "Ġhon": 8198,
      "Ġshoes": 8199,
      "Ġbranches": 8200,
      "Ġheadlines": 8201,
      "lligent": 8202,
      "istry": 8203,
      "Ġmassive": 8204,
      "ĠREST": 8205,
      "bing": 8206,
      "wood": 8207,
      "anth": 8208,
      "Ġstake": 8209,
      "Ġwhisk": 8210,
      "ĠJuly": 8211,
      "[:,": 8212,
      "ued": 8213,
      "Ġtk": 8214,
      "original": 8215,
      "Ġloo": 8216,
      "ĠCap": 8217,
      "ĠMars": 8218,
      "ĠBest": 8219,
      "ositive": 8220,
      "Ġdisrupt": 8221,
      "Ġresponsive": 8222,
      "ĠColle": 8223,
      "ĠDisplay": 8224,
      "Ġsecrets": 8225,
      "Ġoccurrence": 8226,
      "=$": 8227,
      "Mat": 8228,
      "Ġfalls": 8229,
      "security": 8230,
      "Ġwhis": 8231,
      "forest": 8232,
      "Ġaddressing": 8233,
      "Ġpredicting": 8234,
      "Ġmillions": 8235,
      "Ġencourages": 8236,
      "defined": 8237,
      "Adapter": 8238,
      "Press": 8239,
      "ald": 8240,
      "ĠPay": 8241,
      "engers": 8242,
      "Ġsunset": 8243,
      "Ġprompts": 8244,
      "TeX": 8245,
      "gypt": 8246,
      "optimizer": 8247,
      "86": 8248,
      "Lower": 8249,
      "ĠIN": 8250,
      "duled": 8251,
      "ĠEqu": 8252,
      "Ġ64": 8253,
      "Ġautomated": 8254,
      "Fl": 8255,
      "Head": 8256,
      "nes": 8257,
      "Ġpink": 8258,
      "Ġsevere": 8259,
      "Ġminim": 8260,
      "cipe": 8261,
      "ĠColl": 8262,
      "Ġreligious": 8263,
      "aphrase": 8264,
      "07": 8265,
      "DE": 8266,
      "Ġrely": 8267,
      "ille": 8268,
      "Ġstages": 8269,
      "ĠDel": 8270,
      "Ġ|--------": 8271,
      "Ġgrace": 8272,
      "Ġturning": 8273,
      "Ġmanipulate": 8274,
      "(__": 8275,
      "Effect": 8276,
      "abases": 8277,
      "Ġpool": 8278,
      "Ġkids": 8279,
      "Ġcomposed": 8280,
      "Ġmoved": 8281,
      "Ġagre": 8282,
      "ĠEmma": 8283,
      "Ġcloser": 8284,
      "Ġcontacts": 8285,
      "blue": 8286,
      "Ġliquid": 8287,
      "150": 8288,
      "ental": 8289,
      "Ġ2023": 8290,
      "server": 8291,
      "Ġconsideration": 8292,
      "uclear": 8293,
      "Ġcoconut": 8294,
      "ĠColum": 8295,
      "Ġbeneficial": 8296,
      "Ġconverts": 8297,
      "Ġdragon": 8298,
      "Ġmeasurements": 8299,
      "Ġdivisor": 8300,
      "Ġvolunte": 8301,
      "Rou": 8302,
      "oking": 8303,
      "Ġpi": 8304,
      "ĠMAX": 8305,
      "Ġdecide": 8306,
      "Ġsupporting": 8307,
      "Ġsaving": 8308,
      "Ġemphasizes": 8309,
      "Ġhypothesis": 8310,
      "Ġpul": 8311,
      "Ġmouth": 8312,
      "Ġdjango": 8313,
      "ĠToday": 8314,
      "Ġexceed": 8315,
      "ervlet": 8316,
      "gestion": 8317,
      "ĠâĪ": 8318,
      "alaxy": 8319,
      "ifting": 8320,
      "Ġstability": 8321,
      "ĠHand": 8322,
      "ĠOcean": 8323,
      "ĠChall": 8324,
      "character": 8325,
      "Ġflexible": 8326,
      "AG": 8327,
      "AY": 8328,
      "bine": 8329,
      "Ġtold": 8330,
      "Ġbs": 8331,
      "ircle": 8332,
      "ĠHar": 8333,
      "Ġclause": 8334,
      "Ġscul": 8335,
      "Ġsport": 8336,
      "Ġreferr": 8337,
      "Ġphenomenon": 8338,
      "API": 8339,
      "kl": 8340,
      "Ġdiffer": 8341,
      "Ġsculpt": 8342,
      "Find": 8343,
      "Per": 8344,
      "ĠGraph": 8345,
      "ocate": 8346,
      "Ġformats": 8347,
      "Ġtests": 8348,
      "Ġconverted": 8349,
      "Ġscenarios": 8350,
      "Ġmistakes": 8351,
      "Customer": 8352,
      "Do": 8353,
      "mes": 8354,
      "iner": 8355,
      "Ġneur": 8356,
      "Ġ[-": 8357,
      "Ġessence": 8358,
      "Ġmush": 8359,
      "Ġmuscle": 8360,
      "Ġpackaging": 8361,
      "Par": 8362,
      "uous": 8363,
      "olf": 8364,
      "Ġvent": 8365,
      "Ġalive": 8366,
      "grid": 8367,
      "Ġtrave": 8368,
      "ĠReview": 8369,
      "Ġfailure": 8370,
      "effective": 8371,
      "Ġcharge": 8372,
      "Ġnuts": 8373,
      "ĠMedia": 8374,
      "Ġmort": 8375,
      "ĠHistory": 8376,
      "ĠFollow": 8377,
      "ĠThink": 8378,
      "ĠStyle": 8379,
      "Ġinfluenc": 8380,
      "Ġsatisfied": 8381,
      "Connection": 8382,
      "mm": 8383,
      "public": 8384,
      "Ġ))": 8385,
      "Ġprem": 8386,
      "Ġexperts": 8387,
      "Ġperformed": 8388,
      "income": 8389,
      "Ġconfident": 8390,
      "undred": 8391,
      "Elements": 8392,
      "Sequential": 8393,
      "Ġconducted": 8394,
      "Ġ'./": 8395,
      "Ġfabric": 8396,
      "catch": 8397,
      "Ġcoo": 8398,
      "iments": 8399,
      "Ġbeat": 8400,
      "onest": 8401,
      "Ġbrush": 8402,
      "Ġguard": 8403,
      "Ġbrave": 8404,
      "Ġteachers": 8405,
      "fetch": 8406,
      "sav": 8407,
      "Ġarise": 8408,
      "Ġdie": 8409,
      "ether": 8410,
      "ola": 8411,
      "Ġseven": 8412,
      "001": 8413,
      "ohns": 8414,
      "isticated": 8415,
      "Ġweekend": 8416,
      "ĠMarket": 8417,
      "Ġecosystems": 8418,
      "Ġasking": 8419,
      "ĠDog": 8420,
      "articles": 8421,
      "paper": 8422,
      "Ġperiods": 8423,
      "optional": 8424,
      "As": 8425,
      "rene": 8426,
      "Ġcas": 8427,
      "riangle": 8428,
      "advantages": 8429,
      "Ġquotes": 8430,
      "ĠfindViewById": 8431,
      "efits": 8432,
      "Ġcomplement": 8433,
      "Ġpopulations": 8434,
      "Ġbreakdown": 8435,
      "positive": 8436,
      "456": 8437,
      "doc": 8438,
      "Ġord": 8439,
      "Ġkept": 8440,
      "Ġsigns": 8441,
      "Ġfinished": 8442,
      "ĠEnvironment": 8443,
      "Ġencounter": 8444,
      "Ġforests": 8445,
      "Ġsurroundings": 8446,
      "ĠLaTeX": 8447,
      "Ġmedicine": 8448,
      "ĠDigital": 8449,
      "\"),": 8450,
      "Min": 8451,
      "NC": 8452,
      "dir": 8453,
      "Ġcha": 8454,
      "ĠAlgorithm": 8455,
      "Ġopened": 8456,
      "ossible": 8457,
      "Ġdefinitely": 8458,
      "ĠSentence": 8459,
      "ĠAVG": 8460,
      "36": 8461,
      "Alice": 8462,
      "lled": 8463,
      "yy": 8464,
      "}$": 8465,
      "ĠonClick": 8466,
      "ĠPan": 8467,
      "endl": 8468,
      "ĠEgypt": 8469,
      "Ġexpos": 8470,
      "Ġpaths": 8471,
      "Ġgluten": 8472,
      "population": 8473,
      "ĠDepartment": 8474,
      "Ġconverting": 8475,
      "âĶĢ": 8476,
      "pany": 8477,
      "icense": 8478,
      "ĠWell": 8479,
      "ĠDE": 8480,
      "ĠExpress": 8481,
      "space": 8482,
      "Ġgravitational": 8483,
      "Ġresearchers": 8484,
      "Ġvinegar": 8485,
      "City": 8486,
      "For": 8487,
      "oll": 8488,
      "icago": 8489,
      "ĠRome": 8490,
      "Ġvocab": 8491,
      "ĠMich": 8492,
      "Ġoutlines": 8493,
      "Ġdividing": 8494,
      "Ġmatching": 8495,
      "Ġburning": 8496,
      "Ġshowcases": 8497,
      "]])": 8498,
      "ĠHarry": 8499,
      "duplicates": 8500,
      "ĠBase": 8501,
      "Ġrelat": 8502,
      "Ġformatted": 8503,
      "Ġboil": 8504,
      "Ġcenturies": 8505,
      "ĠDevelopment": 8506,
      "Ġtutorial": 8507,
      "PU": 8508,
      "pm": 8509,
      "yl": 8510,
      "anqu": 8511,
      "img": 8512,
      "ulary": 8513,
      "Ġhero": 8514,
      "ĠDavid": 8515,
      "ĠMoon": 8516,
      "Ġ[{": 8517,
      "Ġrolling": 8518,
      "Ġanywhere": 8519,
      "ĠProject": 8520,
      "ĠAsia": 8521,
      "Ġhappened": 8522,
      "Ġroutes": 8523,
      "Ġdrawing": 8524,
      "java": 8525,
      "eted": 8526,
      "ĠTensor": 8527,
      "ĠEvent": 8528,
      "assion": 8529,
      "Ġelaborate": 8530,
      "Ġleaders": 8531,
      "Ġtraditions": 8532,
      "Ġfourth": 8533,
      "Ġmarine": 8534,
      "Ġannoun": 8535,
      "inoa": 8536,
      "Ġpictures": 8537,
      "ĠPrompt": 8538,
      "Eng": 8539,
      "your": 8540,
      "Ġcourage": 8541,
      "Ġsour": 8542,
      "Ġbattle": 8543,
      "ilize": 8544,
      "ĠGold": 8545,
      "Ġadm": 8546,
      "'},": 8547,
      "pyplot": 8548,
      "Ġvarying": 8549,
      "ĠCenter": 8550,
      "Ġyogurt": 8551,
      "Ġconvenient": 8552,
      "Link": 8553,
      "haps": 8554,
      "mount": 8555,
      "sive": 8556,
      "ora": 8557,
      "ĠCall": 8558,
      "ĠGovern": 8559,
      "Ġformation": 8560,
      "ruits": 8561,
      "Ġinsertion": 8562,
      "Ġanticip": 8563,
      "Ġaxis": 8564,
      "ĠReduce": 8565,
      "ĠAustralia": 8566,
      "._": 8567,
      "oting": 8568,
      "Ġanton": 8569,
      "Ġdelight": 8570,
      "Ġclothes": 8571,
      "Ġinstitutions": 8572,
      "Ġbasil": 8573,
      "Ġhabitats": 8574,
      "Ġprecision": 8575,
      "Ġpreparing": 8576,
      "Ġmuseum": 8577,
      "Ġstretch": 8578,
      "each": 8579,
      "inomial": 8580,
      "ĠRow": 8581,
      "ĠTell": 8582,
      "Ġdefines": 8583,
      "cons": 8584,
      "Ġvisible": 8585,
      "undle": 8586,
      "Ġgenres": 8587,
      "Ġindicates": 8588,
      "Ġantonym": 8589,
      "Ins": 8590,
      "atile": 8591,
      "ĠIS": 8592,
      "Ġgave": 8593,
      "Ġneutral": 8594,
      "ĠDiff": 8595,
      "ĠMind": 8596,
      "Ġteen": 8597,
      "aker": 8598,
      "Ġthank": 8599,
      "Ġpassive": 8600,
      "Ġparallel": 8601,
      "Ġzip": 8602,
      "Ġspecialized": 8603,
      "Ġportfolio": 8604,
      "driven": 8605,
      "NNER": 8606,
      "forcement": 8607,
      "LTK": 8608,
      "bies": 8609,
      "service": 8610,
      "store": 8611,
      "stream": 8612,
      "ĠSl": 8613,
      "umes": 8614,
      "Ġstumbled": 8615,
      "ĠVirtual": 8616,
      "Ġperforms": 8617,
      "ĠEnh": 8618,
      "Ġprofound": 8619,
      "ĠDiscuss": 8620,
      "Ġparticipate": 8621,
      "Ġconj": 8622,
      "group": 8623,
      "Ġspect": 8624,
      "archar": 8625,
      "scores": 8626,
      "ĠTransform": 8627,
      "Ġemergency": 8628,
      "Ġwaiting": 8629,
      "Ġangles": 8630,
      "Ġidiom": 8631,
      "oric": 8632,
      "ano": 8633,
      "ĠINNER": 8634,
      "roy": 8635,
      "Ġunivers": 8636,
      "Ġcoat": 8637,
      "Ġfilters": 8638,
      "Ġolder": 8639,
      "Ġcomplaint": 8640,
      "Ġmitigate": 8641,
      "ĠLinked": 8642,
      "ĠÃĹ": 8643,
      "ctober": 8644,
      "26": 8645,
      "gage": 8646,
      "olic": 8647,
      "Ġintent": 8648,
      "apped": 8649,
      "ĠQue": 8650,
      "useum": 8651,
      "Ġattribute": 8652,
      "########": 8653,
      "ĠEncourage": 8654,
      "Ġsophisticated": 8655,
      "95": 8656,
      "Tra": 8657,
      "Ġaest": 8658,
      "Ġbodies": 8659,
      "Ġshr": 8660,
      "Ġlikelihood": 8661,
      "Ġpartner": 8662,
      "Ġhumidity": 8663,
      "ventory": 8664,
      "Ġorganizing": 8665,
      "Ġstrategic": 8666,
      "Ġretrieves": 8667,
      "Ġoccurred": 8668,
      "Ġjsonify": 8669,
      "payment": 8670,
      "ĠTensorFlow": 8671,
      "orph": 8672,
      "Ġfly": 8673,
      "ems": 8674,
      "agues": 8675,
      "cules": 8676,
      "Ġskilled": 8677,
      "Ġdatabases": 8678,
      "Ġdarkness": 8679,
      "!\");": 8680,
      "Ġtough": 8681,
      "izable": 8682,
      "Ġabstract": 8683,
      "well": 8684,
      "Ġxml": 8685,
      "Ġsale": 8686,
      "Ġpaid": 8687,
      "venue": 8688,
      "Ġsometimes": 8689,
      "Ġexecuted": 8690,
      "Ġreaching": 8691,
      "Ġmelody": 8692,
      "NB": 8693,
      "card": 8694,
      "nav": 8695,
      "ĠRiver": 8696,
      "unt": 8697,
      "ods": 8698,
      "ĠMaterial": 8699,
      "ĠNight": 8700,
      "ĠJul": 8701,
      "Ġcustomized": 8702,
      "Ġartwork": 8703,
      "ĠExer": 8704,
      "Ġcorn": 8705,
      "Ġfriendship": 8706,
      "Ġlaun": 8707,
      "ĠSimilar": 8708,
      "google": 8709,
      "purpose": 8710,
      "uct": 8711,
      "ppings": 8712,
      "Ġneck": 8713,
      "Ġaccessibility": 8714,
      "Ġchars": 8715,
      "Ġ85": 8716,
      "Ġachievements": 8717,
      "dist": 8718,
      "tn": 8719,
      "Ġvelo": 8720,
      "itar": 8721,
      "Ġwish": 8722,
      "edge": 8723,
      "ĠSn": 8724,
      "Ġ120": 8725,
      "rib": 8726,
      "ĠNa": 8727,
      "Ġplanets": 8728,
      "Ġchildhood": 8729,
      "ĠIndustr": 8730,
      "IGN": 8731,
      "cs": 8732,
      "ĠAud": 8733,
      "Ġranging": 8734,
      "ĠOh": 8735,
      "Ġ55": 8736,
      "Ġquarter": 8737,
      "iffel": 8738,
      "irector": 8739,
      "Ġ2017": 8740,
      "Ġeveryday": 8741,
      "lands": 8742,
      "ĠCountVectorizer": 8743,
      "Ġrepeat": 8744,
      "Ġspinach": 8745,
      "Year": 8746,
      "qli": 8747,
      "Ġcere": 8748,
      "Ġpun": 8749,
      "Ġdoub": 8750,
      "Ġnative": 8751,
      "Ġlies": 8752,
      "otion": 8753,
      "ĠLocation": 8754,
      "Ġhowever": 8755,
      "Ġsignal": 8756,
      "issors": 8757,
      "Ġblocks": 8758,
      "Ġ\\\"": 8759,
      "Ġcommitment": 8760,
      "77": 8761,
      "And": 8762,
      "De": 8763,
      "Ġmale": 8764,
      "asp": 8765,
      "cember": 8766,
      "Ġvict": 8767,
      "ĠBi": 8768,
      "ropical": 8769,
      "ĠAnalysis": 8770,
      "Ġcul": 8771,
      "Ġfold": 8772,
      "Ġmask": 8773,
      "ĠInvest": 8774,
      "Ġnoticed": 8775,
      "ĠShow": 8776,
      "Ġqualities": 8777,
      "Net": 8778,
      "mi": 8779,
      "Ġsac": 8780,
      "arrow": 8781,
      "Ġli": 8782,
      "ushed": 8783,
      "Ġscent": 8784,
      "Ġindustrial": 8785,
      "Ġcamping": 8786,
      "ĠManager": 8787,
      "ĠTurn": 8788,
      "ĠAri": 8789,
      "queue": 8790,
      "ĠFire": 8791,
      "Ġagent": 8792,
      "Inc": 8793,
      "ĠIndex": 8794,
      "Ġevaluation": 8795,
      "Ġthreats": 8796,
      "ĠPractice": 8797,
      "Java": 8798,
      "None": 8799,
      "Ġloud": 8800,
      "ĠTy": 8801,
      "ĠFact": 8802,
      "ĠMass": 8803,
      "Ġhaiku": 8804,
      "Ġcompares": 8805,
      "Ġunne": 8806,
      "Ġpromotes": 8807,
      "Ġholds": 8808,
      "Ġathlet": 8809,
      "Ġlisted": 8810,
      "ĠThom": 8811,
      "cipl": 8812,
      "update": 8813,
      "Ġgrown": 8814,
      "Ġfacial": 8815,
      "Ġconcaten": 8816,
      "ĠReturns": 8817,
      "Address": 8818,
      "ĠGeorge": 8819,
      "YY": 8820,
      "Ġstood": 8821,
      "una": 8822,
      "__)": 8823,
      "Ġmaximize": 8824,
      "Ġfoundation": 8825,
      "Ġdetermines": 8826,
      "Ġvisuals": 8827,
      "Ġdirector": 8828,
      "Ġcontributed": 8829,
      "Ġoccasion": 8830,
      "xyz": 8831,
      "Ġbear": 8832,
      "Ġsuit": 8833,
      "Ġ'@": 8834,
      "Ġcursor": 8835,
      "Ġvegetarian": 8836,
      "Ġincredible": 8837,
      "Forest": 8838,
      "With": 8839,
      "ĠTEXT": 8840,
      "ĠMove": 8841,
      "Ġempathy": 8842,
      "Ġscheduled": 8843,
      "Ġpreparation": 8844,
      "ĠPhysical": 8845,
      "ĠLIKE": 8846,
      "Label": 8847,
      "Ġtalking": 8848,
      "peat": 8849,
      "ĠNative": 8850,
      "Ġscanner": 8851,
      "Ġdoctor": 8852,
      "ĠWhite": 8853,
      "Ġpartition": 8854,
      "player": 8855,
      "center": 8856,
      "Ġlandmarks": 8857,
      "--------------------": 8858,
      "Ġbarri": 8859,
      "Ġtransformation": 8860,
      "Ġcontemporary": 8861,
      "Be": 8862,
      "Ġfeels": 8863,
      "consum": 8864,
      "Ġrecipient": 8865,
      "setState": 8866,
      "Ġmechanisms": 8867,
      "bedding": 8868,
      "kin": 8869,
      "erals": 8870,
      "ĠRuss": 8871,
      "ariable": 8872,
      "Ġbridge": 8873,
      "Ġforever": 8874,
      "Ġpredicted": 8875,
      "Ġactively": 8876,
      "Ġgravity": 8877,
      "Ġevolved": 8878,
      "Ġsqlite": 8879,
      "ĠAugust": 8880,
      "igmoid": 8881,
      "ĠRest": 8882,
      "ĠGrand": 8883,
      "Ġjack": 8884,
      "lists": 8885,
      "Ġgenerations": 8886,
      "Ġdeviation": 8887,
      "Ġpreviously": 8888,
      "Ġcollections": 8889,
      "ĠRun": 8890,
      "Ġhur": 8891,
      "iform": 8892,
      "ĠMal": 8893,
      "Ġmeant": 8894,
      "Ġtwice": 8895,
      "Ġpasswords": 8896,
      "Ġvisualize": 8897,
      "Ġgreeting": 8898,
      "Ġtaxes": 8899,
      "Ġappeal": 8900,
      "ham": 8901,
      "ris": 8902,
      "Ġgently": 8903,
      "Ġstrict": 8904,
      "enger": 8905,
      "ĠChild": 8906,
      "Ġholding": 8907,
      "ĠCommunication": 8908,
      "anford": 8909,
      "TE": 8910,
      "Ġque": 8911,
      "angers": 8912,
      "Ġoperate": 8913,
      "Ġrecommendation": 8914,
      "Ġmolecules": 8915,
      "LO": 8916,
      "Tem": 8917,
      "mult": 8918,
      "Ġdust": 8919,
      "uts": 8920,
      "ĠRock": 8921,
      "Ġhello": 8922,
      "ĠMor": 8923,
      "Ġtrading": 8924,
      "ĠConduct": 8925,
      "Ġvectors": 8926,
      "Ġencoded": 8927,
      "Ġmoist": 8928,
      "Ġadjacent": 8929,
      "Ġrevolutionized": 8930,
      "Ġslope": 8931,
      "aver": 8932,
      "alled": 8933,
      "Ġconv": 8934,
      "ĠGen": 8935,
      "estic": 8936,
      "ĠProf": 8937,
      "Ġsnack": 8938,
      "okes": 8939,
      "connected": 8940,
      "%,": 8941,
      "Ġpour": 8942,
      "anes": 8943,
      "Ġrewards": 8944,
      "Ġteach": 8945,
      "ĠRecipe": 8946,
      "Ġcompletion": 8947,
      "Ġrefrig": 8948,
      "Ġintegrated": 8949,
      "Ġsessions": 8950,
      "Ġsof": 8951,
      "Ġforg": 8952,
      "izers": 8953,
      "ĠMac": 8954,
      "ĠBack": 8955,
      "Ġimper": 8956,
      "Ġads": 8957,
      "Ġadverb": 8958,
      "ĠJour": 8959,
      "ĠDeep": 8960,
      "ĠProducts": 8961,
      "ĠMethod": 8962,
      "found": 8963,
      "Ġfet": 8964,
      "ĠFil": 8965,
      "ĠGET": 8966,
      "Ġdepends": 8967,
      "Ġpracticing": 8968,
      "Ġbasis": 8969,
      "Ġanimation": 8970,
      "âĢĿ,": 8971,
      "Ġindices": 8972,
      "Ġstocks": 8973,
      "innerHTML": 8974,
      "Ġholiday": 8975,
      "34": 8976,
      "Cur": 8977,
      "aa": 8978,
      "hi": 8979,
      "Ġcash": 8980,
      "Ġdessert": 8981,
      "Ġbaby": 8982,
      "Ġdeals": 8983,
      "telling": 8984,
      "Ġprocessor": 8985,
      "inclu": 8986,
      "Ġsimilarity": 8987,
      "Spe": 8988,
      "eters": 8989,
      "Ġarms": 8990,
      "Ġrural": 8991,
      "Ġshorter": 8992,
      "tock": 8993,
      "ĠAnimal": 8994,
      "Ġoptimizing": 8995,
      "Ġtraveling": 8996,
      "Ġdiscounts": 8997,
      "abetes": 8998,
      "Character": 8999,
      "Ġreusable": 9000,
      "DF": 9001,
      "look": 9002,
      "ĠDATE": 9003,
      "ĠGar": 9004,
      "Ġenumerate": 9005,
      "rieve": 9006,
      "Ġsatisfying": 9007,
      "ĠQuick": 9008,
      "Response": 9009,
      ".*;": 9010,
      "ĠSentiment": 9011,
      "Lay": 9012,
      "Location": 9013,
      "Up": 9014,
      "Ġsending": 9015,
      "itage": 9016,
      "see": 9017,
      "Ġ\"/": 9018,
      "ĠAng": 9019,
      "pectives": 9020,
      "Ġdiscusses": 9021,
      "ĠBuilding": 9022,
      "/>": 9023,
      "azz": 9024,
      "Ġer": 9025,
      "athered": 9026,
      "rote": 9027,
      "ĠuseEffect": 9028,
      "ustain": 9029,
      "âĢĶ": 9030,
      "Ġuncover": 9031,
      "Ġendless": 9032,
      "Inf": 9033,
      "Ġattractions": 9034,
      "Bo": 9035,
      "Ġfry": 9036,
      "Ġpace": 9037,
      "icit": 9038,
      "Ġsus": 9039,
      "Ġ'%": 9040,
      "ĠINTO": 9041,
      "iov": 9042,
      "rete": 9043,
      "Ġfemale": 9044,
      "Ġbreed": 9045,
      "Ġnic": 9046,
      "Ġtypical": 9047,
      "ĠImage": 9048,
      "Trans": 9049,
      "Ġresolve": 9050,
      "ashington": 9051,
      "OM": 9052,
      "Ġbustling": 9053,
      "Ġhier": 9054,
      "dem": 9055,
      "Ġarm": 9056,
      "Ġ48": 9057,
      "ewable": 9058,
      "Ġmeasuring": 9059,
      "Valid": 9060,
      "Ġperspectives": 9061,
      "Ġshaping": 9062,
      "Banana": 9063,
      "aust": 9064,
      "days": 9065,
      "Ġcab": 9066,
      "Ġcert": 9067,
      "ctic": 9068,
      "Ġ\"))": 9069,
      "Ġ'/": 9070,
      "Ġ'',": 9071,
      "Ġjew": 9072,
      "Ġgenerator": 9073,
      "Ġestimate": 9074,
      "Ġheavily": 9075,
      "abcdef": 9076,
      "Ġgrammatically": 9077,
      "labels": 9078,
      "hett": 9079,
      "Ġnerv": 9080,
      "ĠSV": 9081,
      "imals": 9082,
      "tein": 9083,
      "Ġpuzzles": 9084,
      "Ġenhancing": 9085,
      "Ġtells": 9086,
      "ĠPrepare": 9087,
      "Ġfraction": 9088,
      "Ġcombines": 9089,
      "ĠStudents": 9090,
      "Ġconvenience": 9091,
      "ĠASCII": 9092,
      "Ġexclusive": 9093,
      "equality": 9094,
      "stro": 9095,
      "Ġcsv": 9096,
      "ĠTarget": 9097,
      "ĠMuseum": 9098,
      "Ġdisaster": 9099,
      "ĠEngland": 9100,
      "Ġbrands": 9101,
      "Ġsimilarities": 9102,
      "iences": 9103,
      "sim": 9104,
      "rolling": 9105,
      "Ġongoing": 9106,
      "Ġsuc": 9107,
      "ĠUlt": 9108,
      "Ġtextbf": 9109,
      "ipeline": 9110,
      "LM": 9111,
      "Pl": 9112,
      "arant": 9113,
      "Ġconveys": 9114,
      "acon": 9115,
      "nextInt": 9116,
      "Ġclustering": 9117,
      "Ġexposure": 9118,
      "native": 9119,
      "uv": 9120,
      "ydr": 9121,
      ".\";": 9122,
      "Ġsubset": 9123,
      "ecause": 9124,
      "Ġinstances": 9125,
      "Ġorganisms": 9126,
      "Ġhomemade": 9127,
      "ymbol": 9128,
      "onaut": 9129,
      "Ġnorm": 9130,
      "Ġhiking": 9131,
      "ptember": 9132,
      "ĠBer": 9133,
      "Ġplate": 9134,
      "ĠRef": 9135,
      "Ġrequested": 9136,
      "Ġrepresentative": 9137,
      "aws": 9138,
      "Ġincredibly": 9139,
      "Ġquadratic": 9140,
      "Url": 9141,
      "\\\\": 9142,
      "ĠBinary": 9143,
      "Ġ|----": 9144,
      "Ġalbum": 9145,
      "Ġreson": 9146,
      "Ġresistance": 9147,
      "aria": 9148,
      "Ġintersection": 9149,
      "ĠSpace": 9150,
      "ĠVisual": 9151,
      "Ġsoda": 9152,
      "Ġvelocity": 9153,
      "Pool": 9154,
      "birth": 9155,
      "Ġadults": 9156,
      "asta": 9157,
      "ongoose": 9158,
      "Ġsurprise": 9159,
      "Ġjoint": 9160,
      "Ġextremely": 9161,
      "Ġnested": 9162,
      "Selector": 9163,
      "Ġunnecessary": 9164,
      "Test": 9165,
      "Ġsites": 9166,
      "STM": 9167,
      "phrase": 9168,
      "erved": 9169,
      "([[": 9170,
      "Ġpronoun": 9171,
      "categorical": 9172,
      "piece": 9173,
      ".'": 9174,
      "06": 9175,
      ":',": 9176,
      "Bundle": 9177,
      "Point": 9178,
      "[$": 9179,
      "oned": 9180,
      "Ġlaugh": 9181,
      "ownt": 9182,
      "igen": 9183,
      "entials": 9184,
      "such": 9185,
      "Ġsaying": 9186,
      "Ġunderg": 9187,
      "ĠGeneral": 9188,
      "Ġstakeholders": 9189,
      "reens": 9190,
      "Ġhundred": 9191,
      "ĠPlay": 9192,
      "ĠUK": 9193,
      "Ġprinted": 9194,
      "ĠĠĠĠĠĠĠĠĠĠĠĠĠĠĠĠĠĠ": 9195,
[...]
